{
  "version": "1.0",
  "truncation": null,
  "padding": null,
  "added_tokens": [],
  "normalizer": null,
  "pre_tokenizer": {
    "type": "ByteLevel",
    "add_prefix_space": false,
    "trim_offsets": true,
    "use_regex": true
  },
  "post_processor": null,
  "decoder": {
    "type": "ByteLevel",
    "add_prefix_space": true,
    "trim_offsets": true,
    "use_regex": true
  },
  "model": {
    "type": "BPE",
    "dropout": null,
    "unk_token": null,
    "continuing_subword_prefix": null,
    "end_of_word_suffix": null,
    "fuse_unk": false,
    "byte_fallback": false,
    "ignore_merges": false,
    "vocab": {
      "!": 0,
      "\"": 1,
      "#": 2,
      "$": 3,
      "%": 4,
      "&": 5,
      "'": 6,
      "(": 7,
      ")": 8,
      "*": 9,
      "+": 10,
      ",": 11,
      "-": 12,
      ".": 13,
      "/": 14,
      "0": 15,
      "1": 16,
      "2": 17,
      "3": 18,
      "4": 19,
      "5": 20,
      "6": 21,
      "7": 22,
      "8": 23,
      "9": 24,
      ":": 25,
      ";": 26,
      "<": 27,
      "=": 28,
      ">": 29,
      "?": 30,
      "@": 31,
      "A": 32,
      "B": 33,
      "C": 34,
      "D": 35,
      "E": 36,
      "F": 37,
      "G": 38,
      "H": 39,
      "I": 40,
      "J": 41,
      "K": 42,
      "L": 43,
      "M": 44,
      "N": 45,
      "O": 46,
      "P": 47,
      "Q": 48,
      "R": 49,
      "S": 50,
      "T": 51,
      "U": 52,
      "V": 53,
      "W": 54,
      "X": 55,
      "Y": 56,
      "Z": 57,
      "[": 58,
      "\\": 59,
      "]": 60,
      "^": 61,
      "_": 62,
      "`": 63,
      "a": 64,
      "b": 65,
      "c": 66,
      "d": 67,
      "e": 68,
      "f": 69,
      "g": 70,
      "h": 71,
      "i": 72,
      "j": 73,
      "k": 74,
      "l": 75,
      "m": 76,
      "n": 77,
      "o": 78,
      "p": 79,
      "q": 80,
      "r": 81,
      "s": 82,
      "t": 83,
      "u": 84,
      "v": 85,
      "w": 86,
      "x": 87,
      "y": 88,
      "z": 89,
      "{": 90,
      "|": 91,
      "}": 92,
      "~": 93,
      "¡": 94,
      "¢": 95,
      "£": 96,
      "¤": 97,
      "¥": 98,
      "¦": 99,
      "§": 100,
      "¨": 101,
      "©": 102,
      "ª": 103,
      "«": 104,
      "¬": 105,
      "®": 106,
      "¯": 107,
      "°": 108,
      "±": 109,
      "²": 110,
      "³": 111,
      "´": 112,
      "µ": 113,
      "¶": 114,
      "·": 115,
      "¸": 116,
      "¹": 117,
      "º": 118,
      "»": 119,
      "¼": 120,
      "½": 121,
      "¾": 122,
      "¿": 123,
      "À": 124,
      "Á": 125,
      "Â": 126,
      "Ã": 127,
      "Ä": 128,
      "Å": 129,
      "Æ": 130,
      "Ç": 131,
      "È": 132,
      "É": 133,
      "Ê": 134,
      "Ë": 135,
      "Ì": 136,
      "Í": 137,
      "Î": 138,
      "Ï": 139,
      "Ð": 140,
      "Ñ": 141,
      "Ò": 142,
      "Ó": 143,
      "Ô": 144,
      "Õ": 145,
      "Ö": 146,
      "×": 147,
      "Ø": 148,
      "Ù": 149,
      "Ú": 150,
      "Û": 151,
      "Ü": 152,
      "Ý": 153,
      "Þ": 154,
      "ß": 155,
      "à": 156,
      "á": 157,
      "â": 158,
      "ã": 159,
      "ä": 160,
      "å": 161,
      "æ": 162,
      "ç": 163,
      "è": 164,
      "é": 165,
      "ê": 166,
      "ë": 167,
      "ì": 168,
      "í": 169,
      "î": 170,
      "ï": 171,
      "ð": 172,
      "ñ": 173,
      "ò": 174,
      "ó": 175,
      "ô": 176,
      "õ": 177,
      "ö": 178,
      "÷": 179,
      "ø": 180,
      "ù": 181,
      "ú": 182,
      "û": 183,
      "ü": 184,
      "ý": 185,
      "þ": 186,
      "ÿ": 187,
      "Ā": 188,
      "ā": 189,
      "Ă": 190,
      "ă": 191,
      "Ą": 192,
      "ą": 193,
      "Ć": 194,
      "ć": 195,
      "Ĉ": 196,
      "ĉ": 197,
      "Ċ": 198,
      "ċ": 199,
      "Č": 200,
      "č": 201,
      "Ď": 202,
      "ď": 203,
      "Đ": 204,
      "đ": 205,
      "Ē": 206,
      "ē": 207,
      "Ĕ": 208,
      "ĕ": 209,
      "Ė": 210,
      "ė": 211,
      "Ę": 212,
      "ę": 213,
      "Ě": 214,
      "ě": 215,
      "Ĝ": 216,
      "ĝ": 217,
      "Ğ": 218,
      "ğ": 219,
      "Ġ": 220,
      "ġ": 221,
      "Ģ": 222,
      "ģ": 223,
      "Ĥ": 224,
      "ĥ": 225,
      "Ħ": 226,
      "ħ": 227,
      "Ĩ": 228,
      "ĩ": 229,
      "Ī": 230,
      "ī": 231,
      "Ĭ": 232,
      "ĭ": 233,
      "Į": 234,
      "į": 235,
      "İ": 236,
      "ı": 237,
      "Ĳ": 238,
      "ĳ": 239,
      "Ĵ": 240,
      "ĵ": 241,
      "Ķ": 242,
      "ķ": 243,
      "ĸ": 244,
      "Ĺ": 245,
      "ĺ": 246,
      "Ļ": 247,
      "ļ": 248,
      "Ľ": 249,
      "ľ": 250,
      "Ŀ": 251,
      "ŀ": 252,
      "Ł": 253,
      "ł": 254,
      "Ń": 255,
      "Ġt": 256,
      "he": 257,
      "Ġa": 258,
      "ĠĠ": 259,
      "ou": 260,
      "Ġs": 261,
      "in": 262,
      "Ġm": 263,
      "re": 264,
      "Ġw": 265,
      "ha": 266,
      "nd": 267,
      "Ġthe": 268,
      "Ġb": 269,
      "er": 270,
      "is": 271,
      "or": 272,
      "on": 273,
      "ll": 274,
      "Ġf": 275,
      "it": 276,
      "Ġc": 277,
      "es": 278,
      "Ġo": 279,
      "en": 280,
      "Ġd": 281,
      "âĢ": 282,
      "Ġl": 283,
      "Ġy": 284,
      "ĠĠĠĠ": 285,
      "Ġn": 286,
      "ar": 287,
      "ĠI": 288,
      "Ġp": 289,
      "Ġh": 290,
      "Ġth": 291,
      "âĢĻ": 292,
      "Ġyou": 293,
      "Ġto": 294,
      "Ġof": 295,
      "Ġand": 296,
      "ot": 297,
      "an": 298,
      "hat": 299,
      "st": 300,
      "Ġhe": 301,
      "ve": 302,
      "ing": 303,
      "at": 304,
      "ow": 305,
      "om": 306,
      "Ġg": 307,
      "ed": 308,
      "Ġin": 309,
      "Ġbe": 310,
      "se": 311,
      "ce": 312,
      "Ġha": 313,
      "ĊĊ": 314,
      "et": 315,
      "Ġmy": 316,
      "le": 317,
      "ld": 318,
      "ir": 319,
      "ay": 320,
      "ut": 321,
      "im": 322,
      "ith": 323,
      "ch": 324,
      "Ġme": 325,
      "ĠT": 326,
      "gh": 327,
      "Ġnot": 328,
      "ĠA": 329,
      "Ġe": 330,
      "Ġfor": 331,
      "Ġis": 332,
      "ill": 333,
      "Ġthat": 334,
      "ke": 335,
      "our": 336,
      "as": 337,
      "ent": 338,
      "oo": 339,
      "Ġu": 340,
      "ĊĠĠĠĠ": 341,
      "Ġwith": 342,
      "ĠS": 343,
      "ad": 344,
      "ri": 345,
      "Ġwe": 346,
      "al": 347,
      "._": 348,
      "Ġit": 349,
      "ra": 350,
      "Ġyour": 351,
      "ter": 352,
      "her": 353,
      "Ġst": 354,
      "Ġhis": 355,
      "id": 356,
      "ly": 357,
      "Ġre": 358,
      "ur": 359,
      "ght": 360,
      "Ġon": 361,
      "Ġthis": 362,
      "Ġhave": 363,
      "ome": 364,
      "Ġhim": 365,
      "Ġthou": 366,
      "ĠM": 367,
      "us": 368,
      "ver": 369,
      "am": 370,
      "And": 371,
      "Ġli": 372,
      "ord": 373,
      "Ġk": 374,
      "ĠC": 375,
      "Ġas": 376,
      "ĠW": 377,
      "ĠH": 378,
      "ore": 379,
      "ĊĠ": 380,
      "ĠB": 381,
      "Ġso": 382,
      "ion": 383,
      "ain": 384,
      "ro": 385,
      "ould": 386,
      "hi": 387,
      "Ġde": 388,
      "ĊĠĠ": 389,
      "Ġdo": 390,
      "Ġse": 391,
      "ck": 392,
      "Ġsha": 393,
      "The": 394,
      "ĠF": 395,
      "ood": 396,
      "Ġwill": 397,
      "est": 398,
      "and": 399,
      "ĠP": 400,
      "ER": 401,
      "ge": 402,
      "ess": 403,
      "EN": 404,
      "nt": 405,
      "ĠĠĠĠĠĠĠĠ": 406,
      "ea": 407,
      "Ġher": 408,
      "Ġall": 409,
      "il": 410,
      "th": 411,
      "Ġan": 412,
      "ct": 413,
      "Ġsu": 414,
      "Ġbut": 415,
      "IN": 416,
      "ĠL": 417,
      "AN": 418,
      "ru": 419,
      "Ġno": 420,
      "if": 421,
      "ell": 422,
      "US": 423,
      "ake": 424,
      "AR": 425,
      "Ġlo": 426,
      "ast": 427,
      "ĠO": 428,
      "Ġthy": 429,
      "ho": 430,
      "ĠE": 431,
      "Ġv": 432,
      "Ġsp": 433,
      "Ġshall": 434,
      "Ġby": 435,
      "Ġne": 436,
      "ĠG": 437,
      "Ġare": 438,
      "Ġkn": 439,
      "ĠD": 440,
      "ight": 441,
      "[_": 442,
      "Ġfa": 443,
      "rom": 444,
      "art": 445,
      "ard": 446,
      "ic": 447,
      "Ġthee": 448,
      "han": 449,
      "Ġat": 450,
      "ant": 451,
      "ine": 452,
      "ous": 453,
      "qu": 454,
      "Ġsh": 455,
      "ES": 456,
      "res": 457,
      "OR": 458,
      "ear": 459,
      "ON": 460,
      "Ġour": 461,
      "ust": 462,
      "Ġman": 463,
      "ie": 464,
      "ers": 465,
      "ĠThe": 466,
      "out": 467,
      "Ġup": 468,
      "one": 469,
      "Ġcon": 470,
      "ĊĊĠĠĠĠ": 471,
      "Ġcom": 472,
      "Ġam": 473,
      "em": 474,
      "Ġgo": 475,
      "ĊĊĠ": 476,
      "Ġwhe": 477,
      "all": 478,
      "fe": 479,
      "ive": 480,
      "To": 481,
      "Ġlord": 482,
      "--": 483,
      "ul": 484,
      "Ġor": 485,
      "ol": 486,
      "hich": 487,
      "ong": 488,
      "sel": 489,
      "el": 490,
      "ĠAnd": 491,
      "Ġwas": 492,
      "ind": 493,
      "Ġsir": 494,
      "ry": 495,
      "Ġfrom": 496,
      "OL": 497,
      "ST": 498,
      "pp": 499,
      "Ġwhat": 500,
      "Ġgood": 501,
      "ble": 502,
      "._]": 503,
      "Ġnow": 504,
      "end": 505,
      "ĠN": 506,
      "ĊĊĠĠ": 507,
      "Ġshe": 508,
      "ven": 509,
      "row": 510,
      "Ġthem": 511,
      "ĠR": 512,
      "nter": 513,
      "la": 514,
      "oth": 515,
      "Ġpr": 516,
      "ort": 517,
      "ate": 518,
      "Ġknow": 519,
      "hy": 520,
      "Ġwould": 521,
      "Ġsw": 522,
      "ure": 523,
      "Ġmore": 524,
      "Ġtheir": 525,
      "od": 526,
      "That": 527,
      "Ġthey": 528,
      "ig": 529,
      "Ġcan": 530,
      "Ġwor": 531,
      "reat": 532,
      "Ġar": 533,
      "Ġlove": 534,
      "um": 535,
      "Ġthere": 536,
      "ep": 537,
      "AL": 538,
      "ost": 539,
      "un": 540,
      "ame": 541,
      "ere": 542,
      "ue": 543,
      "ink": 544,
      "Ġif": 545,
      "Ġhere": 546,
      "Ex": 547,
      "ish": 548,
      "Ġus": 549,
      "not": 550,
      "ist": 551,
      "Ġbl": 552,
      "Ġlet": 553,
      "ĊĠĠĠ": 554,
      "Th": 555,
      "Ġthan": 556,
      "ĠY": 557,
      "Ġhat": 558,
      "ak": 559,
      "ĠJ": 560,
      "au": 561,
      "are": 562,
      "Ġsee": 563,
      "ĠâĢĻ": 564,
      "'s": 565,
      "self": 566,
      "Ġone": 567,
      "EL": 568,
      "Ġ[": 569,
      "ran": 570,
      "ath": 571,
      "ves": 572,
      "Ġlike": 573,
      ".]": 574,
      "ound": 575,
      "Ġthen": 576,
      "ook": 577,
      "Ġj": 578,
      "TH": 579,
      "ng": 580,
      "ather": 581,
      "fore": 582,
      "âĢĶ": 583,
      "Ġsay": 584,
      "CH": 585,
      "Ġmay": 586,
      "IO": 587,
      "Ġcome": 588,
      "Ġwell": 589,
      "Ġwhich": 590,
      "But": 591,
      "Ġmad": 592,
      "Ġmake": 593,
      "pt": 594,
      "to": 595,
      "ĠK": 596,
      "other": 597,
      "Ġshould": 598,
      "ice": 599,
      "Ġpo": 600,
      "pe": 601,
      "'d": 602,
      "LE": 603,
      "Ġout": 604,
      "ity": 605,
      "ies": 606,
      "ING": 607,
      "Ġbr": 608,
      "Ġwere": 609,
      "Ġhad": 610,
      "Ġsa": 611,
      "Ġmust": 612,
      "Ġ\"": 613,
      "Ġho": 614,
      "As": 615,
      "AM": 616,
      "Ġex": 617,
      "gain": 618,
      "Ġpro": 619,
      "Ġupon": 620,
      "Ġqu": 621,
      "Ġhath": 622,
      "very": 623,
      "ond": 624,
      "Ġun": 625,
      "ence": 626,
      "RO": 627,
      "Ġdid": 628,
      "Ġdis": 629,
      "What": 630,
      "Ġ[_": 631,
      "ff": 632,
      "Ġwhen": 633,
      "IR": 634,
      "ire": 635,
      "orn": 636,
      "Ġr": 637,
      "Ġtoo": 638,
      "ĠV": 639,
      "ass": 640,
      "Ġsome": 641,
      "ĠTh": 642,
      "Ġpl": 643,
      "ime": 644,
      "ther": 645,
      "For": 646,
      "IA": 647,
      "eak": 648,
      "Ġsuch": 649,
      "ation": 650,
      "Ġhand": 651,
      "urn": 652,
      "Ġal": 653,
      "Ġthese": 654,
      "Ġtru": 655,
      "Ġwho": 656,
      "wn": 657,
      "age": 658,
      "Ġen": 659,
      "ings": 660,
      "CE": 661,
      "ide": 662,
      "unt": 663,
      "Ġhon": 664,
      "oot": 665,
      "Ġab": 666,
      "ough": 667,
      "Ġagain": 668,
      "ise": 669,
      "Ġyet": 670,
      "AT": 671,
      "ons": 672,
      "own": 673,
      "uch": 674,
      "ick": 675,
      "Ġ'": 676,
      "io": 677,
      "ose": 678,
      "ness": 679,
      "eet": 680,
      "de": 681,
      "here": 682,
      "Ġcha": 683,
      "Enter": 684,
      "ance": 685,
      "ign": 686,
      "per": 687,
      "aster": 688,
      "Ġhow": 689,
      "Ġro": 690,
      "Ġheart": 691,
      "os": 692,
      "ci": 693,
      "My": 694,
      "AS": 695,
      "Ġthink": 696,
      "entle": 697,
      "LO": 698,
      "ree": 699,
      "Ġri": 700,
      "ag": 701,
      "ady": 702,
      "ĠĠĠĠĠĠĠĠĠĠĠĠĠĠĠĠ": 703,
      "oy": 704,
      "ĠBut": 705,
      "Ġtw": 706,
      "ress": 707,
      "Ġfl": 708,
      "Ġspeak": 709,
      "ĠWhat": 710,
      "hen": 711,
      "Ġgreat": 712,
      "way": 713,
      "Ġfri": 714,
      "Ġmine": 715,
      "Ġco": 716,
      "ull": 717,
      "Ġtake": 718,
      "UR": 719,
      "ment": 720,
      "Ġey": 721,
      "Ġsc": 722,
      "Ġfather": 723,
      "ince": 724,
      "Ġpart": 725,
      "ab": 726,
      "IUS": 727,
      "Ġmar": 728,
      "IL": 729,
      "You": 730,
      "Ġoff": 731,
      "Ġwhere": 732,
      "He": 733,
      "che": 734,
      "Ġtime": 735,
      "Ġle": 736,
      "Ġmen": 737,
      "Ġgra": 738,
      "Ġgive": 739,
      "red": 740,
      "ave": 741,
      "ber": 742,
      "Ġ1": 743,
      "KING": 744,
      "Ġlife": 745,
      "Ġlea": 746,
      "li": 747,
      "LA": 748,
      "Ġother": 749,
      "ud": 750,
      "Ġtell": 751,
      "itt": 752,
      "eunt": 753,
      "Ġmost": 754,
      "ount": 755,
      "Ġwr": 756,
      "ARD": 757,
      "Ġhea": 758,
      "Ġnever": 759,
      "man": 760,
      "ite": 761,
      "Ġmuch": 762,
      "ian": 763,
      "Ġear": 764,
      "ful": 765,
      "Ġday": 766,
      "Ġany": 767,
      "Ġlook": 768,
      "ANT": 769,
      "In": 770,
      "Ġart": 771,
      "Ġgentle": 772,
      "Ġdes": 773,
      "Ġser": 774,
      "ase": 775,
      "ESS": 776,
      "Ġfriend": 777,
      "ee": 778,
      "Exit": 779,
      "ĠEnter": 780,
      "If": 781,
      "oul": 782,
      "ither": 783,
      "Ġbet": 784,
      "ĠTo": 785,
      "IC": 786,
      "Exeunt": 787,
      "Ġ(": 788,
      "ap": 789,
      "cc": 790,
      "ENE": 791,
      "Ġword": 792,
      "ouse": 793,
      "Ġdeath": 794,
      "Ġhear": 795,
      "With": 796,
      "oll": 797,
      "Ġwh": 798,
      "ĠKing": 799,
      "Ġper": 800,
      "Ġmade": 801,
      "ren": 802,
      "ĠHe": 803,
      "tis": 804,
      "ward": 805,
      "Ġblood": 806,
      "ft": 807,
      "Ġra": 808,
      "Ġad": 809,
      "les": 810,
      "note": 811,
      "ces": 812,
      "ia": 813,
      "Ġ_": 814,
      "Ġwar": 815,
      ".--": 816,
      "rown": 817,
      "Ġpre": 818,
      "ootnote": 819,
      "IT": 820,
      "Ġcomm": 821,
      "Footnote": 822,
      "Ġple": 823,
      "Ġown": 824,
      "Ġapp": 825,
      "Ġbeen": 826,
      "Ġhonour": 827,
      "igh": 828,
      "IS": 829,
      "nder": 830,
      "Ġru": 831,
      "ction": 832,
      "able": 833,
      "Ġking": 834,
      "ove": 835,
      "the": 836,
      "Ġsweet": 837,
      "ool": 838,
      "Ġcl": 839,
      "Ġcour": 840,
      "irst": 841,
      "ene": 842,
      "Ġfair": 843,
      "ĠSo": 844,
      "Ġcall": 845,
      "ĠYou": 846,
      "ack": 847,
      "ET": 848,
      "ss": 849,
      "hing": 850,
      "Ġke": 851,
      "Of": 852,
      "RI": 853,
      "ĠThat": 854,
      "Ġfear": 855,
      "ks": 856,
      "Ġtr": 857,
      "uke": 858,
      "âĢĿ": 859,
      "Be": 860,
      "Ġpray": 861,
      "âĢľ": 862,
      "ne": 863,
      "How": 864,
      "So": 865,
      "ving": 866,
      "Ġheaven": 867,
      "ger": 868,
      "AC": 869,
      "Ġvery": 870,
      "Ġcomp": 871,
      "Why": 872,
      "Ġim": 873,
      "Ġworld": 874,
      "Ġtrue": 875,
      "ert": 876,
      "Ġson": 877,
      "aw": 878,
      "CENE": 879,
      "Ġmean": 880,
      "Ġaf": 881,
      "Ġtwo": 882,
      "ps": 883,
      "Ġpres": 884,
      "Ġdown": 885,
      "oman": 886,
      "Ġold": 887,
      "FF": 888,
      "AND": 889,
      "land": 890,
      "ty": 891,
      "Ġdone": 892,
      "Ġthus": 893,
      "This": 894,
      "Ġdoth": 895,
      "ew": 896,
      "Ġinto": 897,
      "PH": 898,
      "ĠGod": 899,
      "Ġcannot": 900,
      "SE": 901,
      "No": 902,
      "Ġarm": 903,
      "Ġaway": 904,
      "Ġhead": 905,
      "Ġcont": 906,
      "Ġpla": 907,
      "ors": 908,
      "ier": 909,
      "Ġhast": 910,
      ".\"": 911,
      "ife": 912,
      "Ġname": 913,
      "Ġbre": 914,
      "ENT": 915,
      "Ġmight": 916,
      "Ġlong": 917,
      "Tis": 918,
      "ius": 919,
      "bl": 920,
      "hall": 921,
      "ious": 922,
      "Ġnight": 923,
      "Ġwit": 924,
      "Ġstand": 925,
      "Ġsoul": 926,
      "ĠĠĠ": 927,
      "ĠLord": 928,
      "Which": 929,
      "ause": 930,
      "Ġever": 931,
      "Ġbefore": 932,
      "ĠII": 933,
      "augh": 934,
      "aint": 935,
      "orrow": 936,
      "Ġplay": 937,
      "ower": 938,
      "Ġbrother": 939,
      "Ġnor": 940,
      "UC": 941,
      "Ġway": 942,
      "Or": 943,
      "Ġhouse": 944,
      "It": 945,
      "men": 946,
      "Who": 947,
      "for": 948,
      "SCENE": 949,
      "ock": 950,
      "Ġhar": 951,
      "Ġeyes": 952,
      "ED": 953,
      "ach": 954,
      "AB": 955,
      "less": 956,
      "iss": 957,
      "ĠFor": 958,
      "Ġi": 959,
      "een": 960,
      "Ġleave": 961,
      "Ġnew": 962,
      "ears": 963,
      "IRST": 964,
      "cy": 965,
      "Ġfirst": 966,
      "Ġbear": 967,
      "Ġend": 968,
      "Ġent": 969,
      "ought": 970,
      "Ġbeg": 971,
      "nto": 972,
      "Ġboth": 973,
      "Is": 974,
      "Ġlive": 975,
      "vil": 976,
      "Ġcould": 977,
      "Ġpur": 978,
      "Ġgl": 979,
      "Ġfoll": 980,
      "QU": 981,
      "Ġthought": 982,
      "We": 983,
      "une": 984,
      "Ġbest": 985,
      "me": 986,
      "ĠMy": 987,
      "Thou": 988,
      "ont": 989,
      "ple": 990,
      "Ġhas": 991,
      "Ġrem": 992,
      "atter": 993,
      "ĠIf": 994,
      "ows": 995,
      "int": 996,
      "IM": 997,
      "Ġbra": 998,
      "Ġfool": 999,
      "Ġkeep": 1000,
      "EM": 1001,
      "Ġsm": 1002,
      "Ġmany": 1003,
      "Ġthose": 1004,
      "Ġmaster": 1005,
      "Ġpoor": 1006,
      "old": 1007,
      "ens": 1008,
      "akes": 1009,
      "be": 1010,
      "aid": 1011,
      "ied": 1012,
      "mp": 1013,
      "ĠâĢľ": 1014,
      "Ġdead": 1015,
      "ret": 1016,
      "OS": 1017,
      "come": 1018,
      "ins": 1019,
      "Ġcomes": 1020,
      "hip": 1021,
      "Ġnoble": 1022,
      "By": 1023,
      "ittle": 1024,
      "well": 1025,
      "its": 1026,
      "ĠFA": 1027,
      "Ġfind": 1028,
      "Ġrep": 1029,
      "Ġbeing": 1030,
      "rie": 1031,
      "Ġcourt": 1032,
      "Ġmer": 1033,
      "Ġlady": 1034,
      "There": 1035,
      "Ġdra": 1036,
      "ĠThis": 1037,
      "Ġstill": 1038,
      "ĠOF": 1039,
      "Where": 1040,
      "FIRST": 1041,
      "ĠĠĠĠĠ": 1042,
      "eth": 1043,
      "cene": 1044,
      "Ġtra": 1045,
      "Ġnothing": 1046,
      "Ġevery": 1047,
      "When": 1048,
      "Ġwife": 1049,
      "INE": 1050,
      "Ġtri": 1051,
      "Ġbetter": 1052,
      "CON": 1053,
      "ark": 1054,
      "Ġpri": 1055,
      "sw": 1056,
      "ĠHow": 1057,
      "ID": 1058,
      "ctor": 1059,
      "ĠSir": 1060,
      "istress": 1061,
      "Ġset": 1062,
      "Ġfell": 1063,
      "Ġput": 1064,
      "atch": 1065,
      "eace": 1066,
      "Ġlittle": 1067,
      "ail": 1068,
      "nce": 1069,
      "ĠIs": 1070,
      "ĠIt": 1071,
      "eds": 1072,
      "ĠPr": 1073,
      "ĠNo": 1074,
      "UN": 1075,
      "tend": 1076,
      "UL": 1077,
      "Ġturn": 1078,
      "oud": 1079,
      "ary": 1080,
      "ĠIn": 1081,
      "Ġyoung": 1082,
      "ĠWhy": 1083,
      "rant": 1084,
      "lt": 1085,
      "Ġserv": 1086,
      "Ġ4": 1087,
      "Ġgold": 1088,
      "Ġpass": 1089,
      "KE": 1090,
      "Let": 1091,
      "Ġfe": 1092,
      "Ġchi": 1093,
      "ison": 1094,
      "Ġres": 1095,
      "ac": 1096,
      "har": 1097,
      "Come": 1098,
      "irt": 1099,
      "alk": 1100,
      "aughter": 1101,
      "Ġlie": 1102,
      "ĠDuke": 1103,
      "arry": 1104,
      "Ġmyself": 1105,
      "uck": 1106,
      "Ġdie": 1107,
      "Ġconf": 1108,
      "Ġgi": 1109,
      "ĠBe": 1110,
      "ĠEng": 1111,
      "ield": 1112,
      "Ġcur": 1113,
      "Ġcons": 1114,
      "uth": 1115,
      "Ġfall": 1116,
      ",\"": 1117,
      "Ġunder": 1118,
      "Ġkind": 1119,
      "ilt": 1120,
      "RU": 1121,
      "bt": 1122,
      "Ġrest": 1123,
      "ORD": 1124,
      "Ġpresent": 1125,
      "Ġfriends": 1126,
      "Ġplace": 1127,
      "IST": 1128,
      "ours": 1129,
      "DU": 1130,
      "Ġel": 1131,
      "ition": 1132,
      "get": 1133,
      "ix": 1134,
      "Ġgone": 1135,
      "Ġche": 1136,
      "ult": 1137,
      "Ay": 1138,
      "Ġstay": 1139,
      "Ġhimself": 1140,
      "ars": 1141,
      "Ġhold": 1142,
      "vo": 1143,
      "Now": 1144,
      "orse": 1145,
      "Ġworth": 1146,
      "Ġnone": 1147,
      "ets": 1148,
      "ile": 1149,
      "led": 1150,
      "Ġabout": 1151,
      "Ġcrown": 1152,
      "lf": 1153,
      "ĠTH": 1154,
      "Ġfort": 1155,
      "ason": 1156,
      "Ġlords": 1157,
      "'ll": 1158,
      "OM": 1159,
      "ale": 1160,
      "Ġnat": 1161,
      "ĠCome": 1162,
      "Ġafter": 1163,
      "Your": 1164,
      "Ġwoman": 1165,
      "Ġfull": 1166,
      "ĠAN": 1167,
      "Ġgu": 1168,
      "ĠEd": 1169,
      "Do": 1170,
      "ace": 1171,
      "hed": 1172,
      "Ġchan": 1173,
      "Ġagainst": 1174,
      "ds": 1175,
      "ants": 1176,
      "OB": 1177,
      "Ġsle": 1178,
      "AG": 1179,
      "Ġfollow": 1180,
      "Ġch": 1181,
      "Ġface": 1182,
      "rance": 1183,
      "Ġhum": 1184,
      "ĠĠĠĠĠĠĠĠĠĠĠĠ": 1185,
      "iness": 1186,
      "Ġcount": 1187,
      "Ġspir": 1188,
      "ged": 1189,
      "ph": 1190,
      "Ġsword": 1191,
      "Ġmind": 1192,
      "Ġhope": 1193,
      "_.]": 1194,
      "ory": 1195,
      "Ġdi": 1196,
      "Ġbring": 1197,
      "Ġchar": 1198,
      "Ġacc": 1199,
      "lain": 1200,
      "Ġimp": 1201,
      "Ġover": 1202,
      "Ġunto": 1203,
      "Ġdaughter": 1204,
      "urd": 1205,
      "ĠCa": 1206,
      "ĠSt": 1207,
      "Ġthough": 1208,
      "Ġthine": 1209,
      "ĠLet": 1210,
      "Ġdear": 1211,
      "ertain": 1212,
      "Ġtong": 1213,
      "ĠAnt": 1214,
      "Ġbod": 1215,
      "Ġwords": 1216,
      "Here": 1217,
      "Ġtill": 1218,
      "Ġshow": 1219,
      "Ġbel": 1220,
      "IAN": 1221,
      "cl": 1222,
      "COND": 1223,
      "ĠAs": 1224,
      "sand": 1225,
      "ered": 1226,
      "Ġelse": 1227,
      "ceive": 1228,
      "band": 1229,
      "Ġthr": 1230,
      "Ġem": 1231,
      "esty": 1232,
      "ICK": 1233,
      "Ġhus": 1234,
      "Ġtre": 1235,
      "Ġboy": 1236,
      "Ġpleas": 1237,
      "CA": 1238,
      "of": 1239,
      "ĠNow": 1240,
      "ister": 1241,
      "St": 1242,
      "They": 1243,
      "Ġsaid": 1244,
      "onson": 1245,
      "Ġback": 1246,
      "RE": 1247,
      "tw": 1248,
      "hile": 1249,
      "RY": 1250,
      "Ġgrie": 1251,
      "Ġonce": 1252,
      "uty": 1253,
      "Ġret": 1254,
      "ĠFACE": 1255,
      "Aside": 1256,
      "Ġseem": 1257,
      "Then": 1258,
      "ect": 1259,
      "Ġforth": 1260,
      "Ġass": 1261,
      "Ġeye": 1262,
      "bs": 1263,
      "Ġmon": 1264,
      "Ġsold": 1265,
      "ĠAn": 1266,
      "Ġstre": 1267,
      "Ġstran": 1268,
      "UB": 1269,
      "ved": 1270,
      "Ġsec": 1271,
      "Ġthree": 1272,
      "illain": 1273,
      "Ġanother": 1274,
      "Ġdisc": 1275,
      "ĠRome": 1276,
      "air": 1277,
      "Ġcou": 1278,
      "ati": 1279,
      "ried": 1280,
      "Ġright": 1281,
      "She": 1282,
      "ury": 1283,
      "ions": 1284,
      "ĠThere": 1285,
      "Ġwhose": 1286,
      "av": 1287,
      "ĊĊĊĊ": 1288,
      "Ġfaith": 1289,
      "ROS": 1290,
      "any": 1291,
      "eal": 1292,
      "pon": 1293,
      "Ġgrace": 1294,
      "Ġchild": 1295,
      "gu": 1296,
      "Ġmis": 1297,
      "Ġhigh": 1298,
      "fect": 1299,
      "Ġmeet": 1300,
      "Ġhusband": 1301,
      "AFF": 1302,
      "Ġbu": 1303,
      "CHARD": 1304,
      "QUE": 1305,
      "ring": 1306,
      "Ġpeace": 1307,
      "ute": 1308,
      "Ġonly": 1309,
      "Ġearth": 1310,
      "HAM": 1311,
      "TUS": 1312,
      "Than": 1313,
      "Ġlight": 1314,
      "Ġmatter": 1315,
      "Ġhands": 1316,
      "ches": 1317,
      "Ġdou": 1318,
      "LOW": 1319,
      "Ġwrong": 1320,
      "Ġpe": 1321,
      "ĠDo": 1322,
      "Ġpers": 1323,
      "pect": 1324,
      "Ġsame": 1325,
      "Ġsure": 1326,
      "ip": 1327,
      "ms": 1328,
      "pen": 1329,
      "Ġthousand": 1330,
      "Ġdevil": 1331,
      "His": 1332,
      "ning": 1333,
      "Ġthing": 1334,
      "ater": 1335,
      "Ġansw": 1336,
      "Ġhence": 1337,
      "imes": 1338,
      "QUEEN": 1339,
      "Ġpower": 1340,
      "Ġmother": 1341,
      "Ġuse": 1342,
      "Not": 1343,
      "esar": 1344,
      "Ġhel": 1345,
      "LET": 1346,
      "Ġwhom": 1347,
      "Ġsub": 1348,
      "Ġgentleman": 1349,
      "omet": 1350,
      "ild": 1351,
      "ĠWe": 1352,
      "LES": 1353,
      "Ġeven": 1354,
      ".\"]": 1355,
      "TER": 1356,
      "Well": 1357,
      "Ġlast": 1358,
      "Sir": 1359,
      "Ġwithin": 1360,
      "Ġplease": 1361,
      "Ġsent": 1362,
      "STAFF": 1363,
      "SECOND": 1364,
      "let": 1365,
      "ĠJonson": 1366,
      "Ġlaw": 1367,
      "vers": 1368,
      "Ġkill": 1369,
      "Ġstate": 1370,
      "Ġhapp": 1371,
      "ray": 1372,
      "FAL": 1373,
      "Ġ8": 1374,
      "AD": 1375,
      "ade": 1376,
      "Ġinde": 1377,
      "Ġshalt": 1378,
      "ates": 1379,
      "Ġhang": 1380,
      "Ġstri": 1381,
      "Ġtherefore": 1382,
      "eech": 1383,
      "ĠQ": 1384,
      "ĠAt": 1385,
      "gue": 1386,
      "race": 1387,
      "ĠOr": 1388,
      "Ġdre": 1389,
      "Ġheard": 1390,
      "FALSTAFF": 1391,
      "Ġcare": 1392,
      "selves": 1393,
      "Ġtongue": 1394,
      "ony": 1395,
      "Ġfar": 1396,
      "Ġgr": 1397,
      "Ġletter": 1398,
      "ĠWhere": 1399,
      "ĠHere": 1400,
      "MAN": 1401,
      "oney": 1402,
      "Ġindeed": 1403,
      "op": 1404,
      "Ġcause": 1405,
      "Ġhome": 1406,
      "DUKE": 1407,
      "Ġbes": 1408,
      "els": 1409,
      "ASS": 1410,
      "lack": 1411,
      "ced": 1412,
      "uff": 1413,
      "ĠMar": 1414,
      "PER": 1415,
      "ily": 1416,
      "ĠWith": 1417,
      "Ġjust": 1418,
      "ĠThou": 1419,
      "ents": 1420,
      "Good": 1421,
      "com": 1422,
      ".âĢĶ": 1423,
      "Ġmakes": 1424,
      "Nay": 1425,
      "Ġbid": 1426,
      "Ġbreat": 1427,
      "Ġfal": 1428,
      "Ġvillain": 1429,
      "Ġbea": 1430,
      "ĠFrance": 1431,
      "ally": 1432,
      "Ġbody": 1433,
      "aj": 1434,
      "Ġ2": 1435,
      "ĠWho": 1436,
      "ĠThen": 1437,
      "Ġpra": 1438,
      "RESS": 1439,
      "Ġfellow": 1440,
      "Ġthank": 1441,
      "Ġwhy": 1442,
      "ĠAr": 1443,
      "Ġdoes": 1444,
      "Ġdost": 1445,
      "GO": 1446,
      "OC": 1447,
      "use": 1448,
      "Ġmo": 1449,
      "Ġcame": 1450,
      "Ġvirt": 1451,
      "Ġrun": 1452,
      "Ġwithout": 1453,
      "Ġwind": 1454,
      "Ġsince": 1455,
      "Ġhorse": 1456,
      "iers": 1457,
      "Ġter": 1458,
      "hes": 1459,
      "Ġban": 1460,
      "Ġye": 1461,
      "Ġsleep": 1462,
      "Ġstr": 1463,
      "Ġexce": 1464,
      "UM": 1465,
      "ĠĠĠĠĠĠĠĠĠĠĠĠĠĠĠ": 1466,
      "Ġanswer": 1467,
      "day": 1468,
      "oh": 1469,
      "ardon": 1470,
      "Ġ16": 1471,
      "Ġsend": 1472,
      "ANTON": 1473,
      "Shall": 1474,
      "att": 1475,
      "ieve": 1476,
      "Ġmeans": 1477,
      "Ġwant": 1478,
      "Ġhour": 1479,
      "Ġthings": 1480,
      "ĠSUB": 1481,
      "ham": 1482,
      "fort": 1483,
      "ĠBr": 1484,
      "cious": 1485,
      "Ġbed": 1486,
      "Ġval": 1487,
      "Ġnear": 1488,
      "Ġenough": 1489,
      "BE": 1490,
      "ner": 1491,
      "Ġere": 1492,
      "ject": 1493,
      "ĠIII": 1494,
      "OLA": 1495,
      "Fl": 1496,
      "Go": 1497,
      "Will": 1498,
      "iz": 1499,
      "Ġsil": 1500,
      "ener": 1501,
      "Ġnature": 1502,
      "Ġthrough": 1503,
      "Upon": 1504,
      "Ġsound": 1505,
      "Ġinst": 1506,
      "MAR": 1507,
      "Ġfire": 1508,
      "ans": 1509,
      "Ġwork": 1510,
      "gether": 1511,
      "Ġbus": 1512,
      "erv": 1513,
      "AP": 1514,
      "Have": 1515,
      "und": 1516,
      "Ġca": 1517,
      "ousin": 1518,
      "Ġhonest": 1519,
      "Ġhelp": 1520,
      "AST": 1521,
      "Ġmistress": 1522,
      "ĠCaesar": 1523,
      "ls": 1524,
      "with": 1525,
      "Ġwel": 1526,
      "amb": 1527,
      "Ġmadam": 1528,
      "Ġarms": 1529,
      "Ġbreak": 1530,
      "All": 1531,
      "rink": 1532,
      "oe": 1533,
      "Ġill": 1534,
      "Ġtruth": 1535,
      "Ġmaid": 1536,
      "ash": 1537,
      "Ġshame": 1538,
      "Ġprince": 1539,
      "ains": 1540,
      "Ġfalse": 1541,
      "eed": 1542,
      "Ġint": 1543,
      "BUR": 1544,
      "kes": 1545,
      "Ġcar": 1546,
      "ster": 1547,
      "ĠScene": 1548,
      "Ġread": 1549,
      "Ġspirit": 1550,
      "HO": 1551,
      "cause": 1552,
      "vy": 1553,
      "ott": 1554,
      "ĊĠĠĠĠĠĠĠĠĠ": 1555,
      "hold": 1556,
      "ched": 1557,
      "vent": 1558,
      "Ġsla": 1559,
      "ised": 1560,
      "Ġget": 1561,
      "Ġnews": 1562,
      "form": 1563,
      "ats": 1564,
      "From": 1565,
      "ures": 1566,
      "ĠEngland": 1567,
      "ohn": 1568,
      "ned": 1569,
      "ĠSp": 1570,
      "ek": 1571,
      "gs": 1572,
      "ĠYour": 1573,
      "ENRY": 1574,
      "onder": 1575,
      "ial": 1576,
      "ouch": 1577,
      "xt": 1578,
      "LUC": 1579,
      "Ġhither": 1580,
      "Ġsun": 1581,
      "dd": 1582,
      "Ġact": 1583,
      "ĠHENRY": 1584,
      "Ġstrange": 1585,
      "Ġland": 1586,
      "Ġseen": 1587,
      "ior": 1588,
      "Ġmurd": 1589,
      "Ġfight": 1590,
      "Ġsupp": 1591,
      "Ġrather": 1592,
      "),": 1593,
      "IZ": 1594,
      "Ġpati": 1595,
      "ACT": 1596,
      "OTH": 1597,
      "RA": 1598,
      "ĠNay": 1599,
      "ides": 1600,
      "Yet": 1601,
      "mer": 1602,
      "ĠAl": 1603,
      "Ġstrong": 1604,
      "Nor": 1605,
      "ated": 1606,
      "Ġgall": 1607,
      "Ġoft": 1608,
      "Ġreason": 1609,
      "ork": 1610,
      "Ġhell": 1611,
      "rence": 1612,
      "lish": 1613,
      "usic": 1614,
      "Ġlost": 1615,
      "Ġvi": 1616,
      "PR": 1617,
      "ĠMaster": 1618,
      "Ġdisp": 1619,
      "Thy": 1620,
      "ished": 1621,
      "right": 1622,
      "alth": 1623,
      "Ġleft": 1624,
      "Ġyourself": 1625,
      "Ġunc": 1626,
      "ike": 1627,
      "Ġyouth": 1628,
      "Ġkiss": 1629,
      "vere": 1630,
      "ajesty": 1631,
      "Ġwelcome": 1632,
      "ROM": 1633,
      ",âĢĶ": 1634,
      "Ġwish": 1635,
      "Ġdan": 1636,
      "ĠWell": 1637,
      "ĠYes": 1638,
      "Ġreturn": 1639,
      ").": 1640,
      "Ġlay": 1641,
      "Ġstra": 1642,
      "Ġtalk": 1643,
      "ĠBy": 1644,
      "Ġfree": 1645,
      "âĢĺ": 1646,
      "ĠCh": 1647,
      "ĠOf": 1648,
      "Ġgods": 1649,
      "Ġfortune": 1650,
      "PE": 1651,
      "ORT": 1652,
      "Al": 1653,
      "ling": 1654,
      "Ġfly": 1655,
      "Ġpal": 1656,
      "Ġmet": 1657,
      "Ġfound": 1658,
      "Ġmoney": 1659,
      "Ġinf": 1660,
      "ĠMOS": 1661,
      "Ġneed": 1662,
      "Ġcommand": 1663,
      "ery": 1664,
      "ĠShe": 1665,
      "Ġsaw": 1666,
      "HAMLET": 1667,
      "yal": 1668,
      "INCE": 1669,
      "Ġdoubt": 1670,
      "Our": 1671,
      "Ġqueen": 1672,
      "ĠAy": 1673,
      "ĠJohn": 1674,
      "SH": 1675,
      "ken": 1676,
      "Ġcousin": 1677,
      "ĠWhen": 1678,
      "ĠVOL": 1679,
      "ments": 1680,
      "UT": 1681,
      "co": 1682,
      "ween": 1683,
      "rew": 1684,
      "Ġprom": 1685,
      "Ġgrief": 1686,
      "Ġwa": 1687,
      "Ġcommon": 1688,
      "Ġjoy": 1689,
      "Ġjud": 1690,
      "CO": 1691,
      "Ġtears": 1692,
      "ĠWill": 1693,
      "ueen": 1694,
      "Ġremem": 1695,
      "Ġsho": 1696,
      "Ġdru": 1697,
      "omen": 1698,
      "ĠRo": 1699,
      "ounds": 1700,
      "Ġdraw": 1701,
      "outh": 1702,
      "hil": 1703,
      "Ġenem": 1704,
      "Ġsomet": 1705,
      "Ġless": 1706,
      "LY": 1707,
      "now": 1708,
      "ELLO": 1709,
      "Ġcountry": 1710,
      "by": 1711,
      "ec": 1712,
      "no": 1713,
      "Ġdel": 1714,
      "Ġdam": 1715,
      "Ġtogether": 1716,
      "Ġhalf": 1717,
      "uc": 1718,
      "Ġtem": 1719,
      "Ġcra": 1720,
      "ift": 1721,
      ",--": 1722,
      "ATH": 1723,
      "Scene": 1724,
      "Ġcry": 1725,
      "Ġpardon": 1726,
      "Ġhard": 1727,
      "BER": 1728,
      "rench": 1729,
      "Ġadv": 1730,
      ".âĢĿ": 1731,
      "ĠGo": 1732,
      "aking": 1733,
      "rans": 1734,
      "Ġperson": 1735,
      "ford": 1736,
      "Ġsight": 1737,
      "ĠShall": 1738,
      "ĠNor": 1739,
      "Ġsister": 1740,
      "Ġsea": 1741,
      "ues": 1742,
      "Ġsk": 1743,
      "Ġsing": 1744,
      "ots": 1745,
      "ĠHer": 1746,
      "rank": 1747,
      "like": 1748,
      "ĠQueen": 1749,
      "Ġdist": 1750,
      "Ġtold": 1751,
      "ĠĠĠĠĠĠĠĠĠ": 1752,
      "IG": 1753,
      "Ġfore": 1754,
      "Ġdep": 1755,
      "EX": 1756,
      "Ġgener": 1757,
      "Re": 1758,
      "Ġborn": 1759,
      "Ġprison": 1760,
      "LOWN": 1761,
      "ĠU": 1762,
      "Ġcut": 1763,
      "Ġpu": 1764,
      "Ġfare": 1765,
      "hard": 1766,
      "An": 1767,
      "Ġgrow": 1768,
      "alt": 1769,
      "ERV": 1770,
      "Ġsl": 1771,
      "ĠBAR": 1772,
      "ross": 1773,
      "Ġpurp": 1774,
      "Ġpity": 1775,
      "Ġsoon": 1776,
      "Ġswear": 1777,
      "Ġsat": 1778,
      "Ġwilt": 1779,
      "Ġlate": 1780,
      "ote": 1781,
      "Ġwear": 1782,
      "Ġweep": 1783,
      "dom": 1784,
      "oose": 1785,
      "Ġbro": 1786,
      "Ġsays": 1787,
      "ives": 1788,
      "ices": 1789,
      "ever": 1790,
      "most": 1791,
      "ondon": 1792,
      "Ġalone": 1793,
      "IER": 1794,
      "Ġspo": 1795,
      "Are": 1796,
      "ca": 1797,
      "Ġfault": 1798,
      "Ġbless": 1799,
      "BO": 1800,
      "Ġsorrow": 1801,
      "Ġyours": 1802,
      "Ġbeauty": 1803,
      "Ġfoot": 1804,
      "Ġdare": 1805,
      "ĠIV": 1806,
      "Ġbrave": 1807,
      "TR": 1808,
      "Ġed": 1809,
      "Ġair": 1810,
      "ines": 1811,
      "Ġwhile": 1812,
      "Ġnote": 1813,
      "Ġcompany": 1814,
      "Ġlear": 1815,
      "Ġthoughts": 1816,
      "Ġservice": 1817,
      "Tw": 1818,
      "Ġbir": 1819,
      "ĠHis": 1820,
      "Ġmark": 1821,
      "iet": 1822,
      "rist": 1823,
      "Ġcertain": 1824,
      "Ġpar": 1825,
      "Ġproud": 1826,
      "Ġprove": 1827,
      "pr": 1828,
      "ship": 1829,
      "ELL": 1830,
      "enry": 1831,
      "eter": 1832,
      "gainst": 1833,
      "ĠOh": 1834,
      "ION": 1835,
      "bed": 1836,
      "Ġposs": 1837,
      "Ġbusiness": 1838,
      "Ġroom": 1839,
      "ĠAND": 1840,
      "Ġknight": 1841,
      "Ġbrought": 1842,
      "ĠTHE": 1843,
      "az": 1844,
      "ĠLOR": 1845,
      "Ġknown": 1846,
      "Ġgentlemen": 1847,
      "Ġaff": 1848,
      "Ġfit": 1849,
      "Ġden": 1850,
      "Ġlives": 1851,
      "ĠFa": 1852,
      "Ġwarrant": 1853,
      "Ġbreath": 1854,
      "OP": 1855,
      "Ġsin": 1856,
      "ithe": 1857,
      "ignior": 1858,
      "Ġlooks": 1859,
      "TE": 1860,
      "Ġfield": 1861,
      "Ġinc": 1862,
      "ĠEx": 1863,
      "Ġatt": 1864,
      "Ġattend": 1865,
      "Ġhate": 1866,
      "Ġgre": 1867,
      "ĠThey": 1868,
      "UCH": 1869,
      "ker": 1870,
      "med": 1871,
      "Ġdrink": 1872,
      "ĠLondon": 1873,
      "Ġroyal": 1874,
      "Ġlead": 1875,
      "Ġdesire": 1876,
      "ĠPrince": 1877,
      "aff": 1878,
      "ub": 1879,
      "Ġgave": 1880,
      "Ġcomfort": 1881,
      "Ġquick": 1882,
      "Ġgiven": 1883,
      "cha": 1884,
      "Ġbar": 1885,
      "Ġyears": 1886,
      "Ġvo": 1887,
      "Ġrich": 1888,
      "so": 1889,
      "Ġcho": 1890,
      "ĠYet": 1891,
      "Ġten": 1892,
      "Ġsick": 1893,
      "Ġreven": 1894,
      "Ġpoint": 1895,
      "Ġexp": 1896,
      "PRINCE": 1897,
      "ible": 1898,
      "Ġfur": 1899,
      "Ġcle": 1900,
      "Ġcast": 1901,
      "Ġcol": 1902,
      "UNT": 1903,
      "Ġcharge": 1904,
      "Ġve": 1905,
      "ortune": 1906,
      "mb": 1907,
      "ĠFrench": 1908,
      "Ġcond": 1909,
      "Ġbo": 1910,
      "Ġblack": 1911,
      "ĠYork": 1912,
      "Ġdays": 1913,
      "Ġmusic": 1914,
      "Ġlies": 1915,
      "Ġsuff": 1916,
      "ief": 1917,
      "ABAS": 1918,
      "Ġbelieve": 1919,
      "ĠBARABAS": 1920,
      "up": 1921,
      "Ġtimes": 1922,
      "Ġhappy": 1923,
      "asure": 1924,
      "iece": 1925,
      "ĠEdward": 1926,
      "DER": 1927,
      "Ġwin": 1928,
      "ĠSee": 1929,
      "vern": 1930,
      "RICHARD": 1931,
      "RUTUS": 1932,
      "laine": 1933,
      "SIR": 1934,
      "Ġage": 1935,
      "Hath": 1936,
      "gg": 1937,
      "itor": 1938,
      "ĠWar": 1939,
      "IMON": 1940,
      "BRUTUS": 1941,
      "rest": 1942,
      "fend": 1943,
      "Ġseek": 1944,
      "LEON": 1945,
      "ithee": 1946,
      "Ġsit": 1947,
      "Ġsen": 1948,
      "Ġcity": 1949,
      "ĠCOR": 1950,
      "ichard": 1951,
      "GER": 1952,
      "ople": 1953,
      "inal": 1954,
      "ĠRe": 1955,
      "At": 1956,
      "Ġsad": 1957,
      "Ġdev": 1958,
      "Ġdiv": 1959,
      "Ġcor": 1960,
      "amp": 1961,
      "fection": 1962,
      "Ġothers": 1963,
      "On": 1964,
      "wick": 1965,
      "Ġac": 1966,
      "Ġopen": 1967,
      "ĠAll": 1968,
      "Ġaw": 1969,
      "Ġfam": 1970,
      "Ġfoul": 1971,
      "Ġeach": 1972,
      "ries": 1973,
      "Ġtrust": 1974,
      "Ġcoun": 1975,
      "OTHELLO": 1976,
      "Ġcold": 1977,
      "Ġserve": 1978,
      "Ġmin": 1979,
      "Ġbase": 1980,
      "Ġlose": 1981,
      "Ġfav": 1982,
      "IAGO": 1983,
      "YR": 1984,
      "hould": 1985,
      "Ġwomen": 1986,
      "enty": 1987,
      "cept": 1988,
      "ĠHenry": 1989,
      "ĠGood": 1990,
      "arewell": 1991,
      "MIST": 1992,
      "Ġpay": 1993,
      "ane": 1994,
      "aste": 1995,
      "IV": 1996,
      "oor": 1997,
      "rid": 1998,
      "Ġmarry": 1999,
      "ILIA": 2000,
      "Ġwrit": 2001,
      "Ġbetween": 2002,
      "Ġask": 2003,
      "Ġnext": 2004,
      "MISTRESS": 2005,
      "CASS": 2006,
      "LAND": 2007,
      "lo": 2008,
      "Ġsake": 2009,
      "ush": 2010,
      "Ġsum": 2011,
      "Ġknows": 2012,
      "ĠChrist": 2013,
      "NE": 2014,
      "Ġgrave": 2015,
      "Ġpleasure": 2016,
      "CLOWN": 2017,
      "ited": 2018,
      "Ġeat": 2019,
      "Ġforg": 2020,
      "estion": 2021,
      "Ġthyself": 2022,
      "ards": 2023,
      "Even": 2024,
      "PAR": 2025,
      "ĠCl": 2026,
      "AGE": 2027,
      "Ġdream": 2028,
      "Lod": 2029,
      "Ġwater": 2030,
      "ities": 2031,
      "ĠBOS": 2032,
      "Ġprof": 2033,
      "cri": 2034,
      "Ġwise": 2035,
      "Ġpast": 2036,
      "Ġitself": 2037,
      "Ġcontent": 2038,
      "Ġworthy": 2039,
      "Ġground": 2040,
      "DY": 2041,
      "DEM": 2042,
      "Ġta": 2043,
      "Ġmorn": 2044,
      "Ġoath": 2045,
      "Ġbeat": 2046,
      "Ġdog": 2047,
      "inks": 2048,
      "Ġsave": 2049,
      "ĠEnglish": 2050,
      "Ġdanger": 2051,
      "Did": 2052,
      "Would": 2053,
      "Ġbook": 2054,
      "IND": 2055,
      "USE": 2056,
      "laim": 2057,
      "oss": 2058,
      "ĠAntony": 2059,
      "Ġsign": 2060,
      "Ġuncle": 2061,
      "PRO": 2062,
      "that": 2063,
      "Ġest": 2064,
      "Ġcr": 2065,
      "Ġtown": 2066,
      "ĠFER": 2067,
      "ERS": 2068,
      "Ġears": 2069,
      "Ġside": 2070,
      "Ġfea": 2071,
      "Ġrequ": 2072,
      "PO": 2073,
      "pl": 2074,
      "Ġfour": 2075,
      "ĊĊĠĠĠĠĠĠĠĠĠ": 2076,
      "etch": 2077,
      "Ġdeep": 2078,
      "Ġbloody": 2079,
      "ANTONY": 2080,
      "Ġgeneral": 2081,
      "GE": 2082,
      "oint": 2083,
      "ĠTro": 2084,
      "ĠFl": 2085,
      "ambur": 2086,
      "Ġpurpose": 2087,
      "Ġfo": 2088,
      "Ġext": 2089,
      "Ġfurther": 2090,
      "amburlaine": 2091,
      "Un": 2092,
      "cess": 2093,
      "ires": 2094,
      "Ġord": 2095,
      "erve": 2096,
      "Ġyield": 2097,
      "urs": 2098,
      "Ġloves": 2099,
      "Mat": 2100,
      "ready": 2101,
      "ĠMay": 2102,
      "ĠRichard": 2103,
      "AMBUR": 2104,
      "Flam": 2105,
      "DO": 2106,
      "TES": 2107,
      "WICK": 2108,
      "ĠWarwick": 2109,
      "Ġfine": 2110,
      "rah": 2111,
      "ESTER": 2112,
      "ĠVOLP": 2113,
      "Ġfast": 2114,
      "cks": 2115,
      "Ġprin": 2116,
      "Ġholy": 2117,
      "cester": 2118,
      "CT": 2119,
      "Give": 2120,
      "als": 2121,
      "ĠRI": 2122,
      "Whose": 2123,
      "Ġsoldier": 2124,
      "ĠBOSOLA": 2125,
      "iv": 2126,
      "morrow": 2127,
      "Ġmouth": 2128,
      "edy": 2129,
      "ĠTamburlaine": 2130,
      "Ġsuit": 2131,
      "LAINE": 2132,
      "Ġpeople": 2133,
      "hal": 2134,
      "Ġrec": 2135,
      "ĠCla": 2136,
      "ĠGrace": 2137,
      "Ġpresently": 2138,
      "AMBURLAINE": 2139,
      "WARD": 2140,
      "YOR": 2141,
      "cher": 2142,
      "Ġkings": 2143,
      "Ġsovere": 2144,
      "Hip": 2145,
      "ron": 2146,
      "ĠâĢĺ": 2147,
      "ANIO": 2148,
      "Ġshort": 2149,
      "TA": 2150,
      "Ġ3": 2151,
      "Ġwall": 2152,
      "Ġreg": 2153,
      "INA": 2154,
      "Ġknew": 2155,
      "empt": 2156,
      "TON": 2157,
      "Ġtend": 2158,
      "llent": 2159,
      "esh": 2160,
      "ram": 2161,
      "rust": 2162,
      "unes": 2163,
      "Ġvirtue": 2164,
      "undred": 2165,
      "Ġfarewell": 2166,
      "VOL": 2167,
      "Ġwis": 2168,
      "Ġbold": 2169,
      "Ġhair": 2170,
      "Ġscorn": 2171,
      "Ġwonder": 2172,
      "ads": 2173,
      "Ġste": 2174,
      "ages": 2175,
      "Ġchange": 2176,
      "JUL": 2177,
      "MEN": 2178,
      "UD": 2179,
      "stand": 2180,
      "ĠLORD": 2181,
      "Ġwhore": 2182,
      "Ġbeseech": 2183,
      "ĠRICHARD": 2184,
      "Ġcreat": 2185,
      "Ġpen": 2186,
      "Ġwhole": 2187,
      "Ġcapt": 2188,
      "ey": 2189,
      "you": 2190,
      "Ġneither": 2191,
      "Ġstraight": 2192,
      "pes": 2193,
      "Ġid": 2194,
      "Ġwret": 2195,
      "ones": 2196,
      "Ġcap": 2197,
      "ĠTAMBURLAINE": 2198,
      "ethinks": 2199,
      "fter": 2200,
      "uous": 2201,
      "thing": 2202,
      "IMO": 2203,
      "Ġgar": 2204,
      "ames": 2205,
      "Ġburn": 2206,
      "oof": 2207,
      "ĠCass": 2208,
      "Ġknave": 2209,
      "Ġenter": 2210,
      "GAR": 2211,
      "POL": 2212,
      "Ġsur": 2213,
      "Ġhundred": 2214,
      "Ġready": 2215,
      "osed": 2216,
      "ENTLE": 2217,
      "More": 2218,
      "but": 2219,
      "bly": 2220,
      "Ġsmall": 2221,
      "Ġemb": 2222,
      "Ġmurder": 2223,
      "ERVANT": 2224,
      "mon": 2225,
      "Ġmajesty": 2226,
      "Ġbound": 2227,
      "ĠPer": 2228,
      "ĠPro": 2229,
      "nother": 2230,
      "Ġgracious": 2231,
      "Ġreport": 2232,
      "Ġconfess": 2233,
      "Bell": 2234,
      "_.": 2235,
      "sp": 2236,
      "Ġmod": 2237,
      "adam": 2238,
      "Ġglad": 2239,
      "Ġresol": 2240,
      "Ġsubject": 2241,
      "JA": 2242,
      "Ġworse": 2243,
      "Ġquar": 2244,
      "Ġdesp": 2245,
      "Ġremember": 2246,
      "ging": 2247,
      "ined": 2248,
      "Ġconqu": 2249,
      "Ġgoes": 2250,
      "ians": 2251,
      "Ġmerry": 2252,
      "Sp": 2253,
      "Ġtouch": 2254,
      "ĠWhich": 2255,
      "aken": 2256,
      "Ġcourse": 2257,
      "phe": 2258,
      "Ġwalk": 2259,
      "owers": 2260,
      "imon": 2261,
      "Ġdeed": 2262,
      "ĠThese": 2263,
      "Though": 2264,
      "Ġpubl": 2265,
      "Ġ&": 2266,
      "Ġform": 2267,
      "Ġkne": 2268,
      "Ġtwenty": 2269,
      "Ġpatience": 2270,
      "had": 2271,
      "utus": 2272,
      "eare": 2273,
      "rows": 2274,
      "Ġpoison": 2275,
      "Ġhearts": 2276,
      "Ġadd": 2277,
      "rac": 2278,
      "ular": 2279,
      "Ġpret": 2280,
      "CLE": 2281,
      "ges": 2282,
      "irm": 2283,
      "ĠSignior": 2284,
      "riage": 2285,
      "DES": 2286,
      "rous": 2287,
      "Ġemp": 2288,
      "Ġself": 2289,
      "ustus": 2290,
      "aught": 2291,
      "Ġappear": 2292,
      "Ġclose": 2293,
      "PET": 2294,
      "full": 2295,
      "Ġhot": 2296,
      "ceed": 2297,
      "ask": 2298,
      "Ġund": 2299,
      "Ġring": 2300,
      "ENTER": 2301,
      ",âĢĿ": 2302,
      "Some": 2303,
      "Till": 2304,
      "ĠZ": 2305,
      "Ġsons": 2306,
      "Ġdro": 2307,
      "essen": 2308,
      "Ġvis": 2309,
      "ical": 2310,
      "Ġconst": 2311,
      "CHIO": 2312,
      "Ġquestion": 2313,
      "Ġsoldiers": 2314,
      "Her": 2315,
      "Was": 2316,
      "sue": 2317,
      "enge": 2318,
      "Ġalready": 2319,
      "EPH": 2320,
      "God": 2321,
      "iant": 2322,
      "Ġlab": 2323,
      "ĠDe": 2324,
      "Ġtook": 2325,
      "Ġservant": 2326,
      "Ġlaugh": 2327,
      "Ġyear": 2328,
      "anc": 2329,
      "irk": 2330,
      "urt": 2331,
      "ĠGl": 2332,
      "ĠNot": 2333,
      "Ġmercy": 2334,
      "Can": 2335,
      "Look": 2336,
      "TIMON": 2337,
      "gry": 2338,
      "Ġsim": 2339,
      "Ġfetch": 2340,
      "Ġbehold": 2341,
      "ird": 2342,
      "Ġdoor": 2343,
      "Ġcanst": 2344,
      "ations": 2345,
      "ixt": 2346,
      "Ġjudge": 2347,
      "Ġrel": 2348,
      "Ġmorning": 2349,
      "HEL": 2350,
      "LI": 2351,
      "_,": 2352,
      "oucester": 2353,
      "Ġmove": 2354,
      "ENGER": 2355,
      "Ġhaste": 2356,
      "Ġsecret": 2357,
      "Cand": 2358,
      "my": 2359,
      "ench": 2360,
      "ESSENGER": 2361,
      "Ġentreat": 2362,
      "Ġsecond": 2363,
      "Ġsovereign": 2364,
      "ENTLEMAN": 2365,
      "weet": 2366,
      "Ġshi": 2367,
      "Ġcow": 2368,
      "arch": 2369,
      "ament": 2370,
      "ĠHa": 2371,
      "each": 2372,
      "Ġspeech": 2373,
      "Ġthemselves": 2374,
      "ATRA": 2375,
      "ĠEdw": 2376,
      "attle": 2377,
      "Ġslave": 2378,
      "OPATRA": 2379,
      "Ġfavour": 2380,
      "EO": 2381,
      "See": 2382,
      "Ġtit": 2383,
      "Ġlad": 2384,
      "vel": 2385,
      "lex": 2386,
      "INIUS": 2387,
      "ĠDUCH": 2388,
      "umber": 2389,
      "ĠKING": 2390,
      "Ġflesh": 2391,
      "ĠDUCHESS": 2392,
      "night": 2393,
      "Ġopp": 2394,
      "Ġpa": 2395,
      "Ġtoward": 2396,
      "Ġamong": 2397,
      "Ġfeel": 2398,
      "COR": 2399,
      "Like": 2400,
      "gar": 2401,
      "Ġinter": 2402,
      "ution": 2403,
      "enter": 2404,
      "ĠSYR": 2405,
      "ĠMAR": 2406,
      "ELLA": 2407,
      "CLEOPATRA": 2408,
      "aith": 2409,
      "ying": 2410,
      "oop": 2411,
      "Ġred": 2412,
      "Ġdef": 2413,
      "ĠJew": 2414,
      "IRD": 2415,
      "ĠVI": 2416,
      "ITIZ": 2417,
      "ACUSE": 2418,
      "Ġmighty": 2419,
      "ĠSYRACUSE": 2420,
      "ITIZEN": 2421,
      "Were": 2422,
      "nk": 2423,
      "rs": 2424,
      "we": 2425,
      "Ġfash": 2426,
      "irc": 2427,
      "OLK": 2428,
      "ortal": 2429,
      "BAST": 2430,
      "oly": 2431,
      "Ġag": 2432,
      "Ġbad": 2433,
      "ern": 2434,
      "Ġlust": 2435,
      "idd": 2436,
      "Ġreceive": 2437,
      "ĠPal": 2438,
      "eaven": 2439,
      "USTUS": 2440,
      "ALIND": 2441,
      "Ġexc": 2442,
      "ROSALIND": 2443,
      "dden": 2444,
      "Ġpalace": 2445,
      "May": 2446,
      "Ġaction": 2447,
      "Ġworship": 2448,
      "Ġprep": 2449,
      "Ġenemy": 2450,
      "YORK": 2451,
      "ĠMor": 2452,
      "These": 2453,
      "GARET": 2454,
      ",[": 2455,
      "bit": 2456,
      "ef": 2457,
      "ual": 2458,
      "Ġwatch": 2459,
      "Ġwild": 2460,
      "LADY": 2461,
      "Ġcalled": 2462,
      "ĠFaustus": 2463,
      "Ġfeast": 2464,
      "MAC": 2465,
      "OH": 2466,
      "Yes": 2467,
      "ict": 2468,
      "Ġtrans": 2469,
      "ĠBar": 2470,
      "olk": 2471,
      "Ġscar": 2472,
      "'t": 2473,
      "hood": 2474,
      "Ġbos": 2475,
      "Ġind": 2476,
      "ARWICK": 2477,
      "ardinal": 2478,
      "ORE": 2479,
      "OLD": 2480,
      "ĠFAUSTUS": 2481,
      "ĠIsab": 2482,
      "Ġfill": 2483,
      "Ġfie": 2484,
      "Ġlow": 2485,
      "ĠPED": 2486,
      "ĠLady": 2487,
      "ELIA": 2488,
      "Ġmarried": 2489,
      "Ġappro": 2490,
      "Ġtrou": 2491,
      "BETH": 2492,
      "ĠGloucester": 2493,
      "ITH": 2494,
      "rent": 2495,
      "Ġcru": 2496,
      "ley": 2497,
      "rach": 2498,
      "ĠLe": 2499,
      "Ġheavy": 2500,
      "OHN": 2501,
      "rel": 2502,
      "Ġbecause": 2503,
      "ently": 2504,
      "Ġsever": 2505,
      "Ġused": 2506,
      "Ġabs": 2507,
      "Ġabove": 2508,
      "ainted": 2509,
      "Ġvoice": 2510,
      "HER": 2511,
      "One": 2512,
      "con": 2513,
      "his": 2514,
      "Ġ~": 2515,
      "Ġty": 2516,
      "Ġdire": 2517,
      "ĠTur": 2518,
      "ĠFortune": 2519,
      "cience": 2520,
      "Ġleast": 2521,
      "Ġbosom": 2522,
      "DIN": 2523,
      "gy": 2524,
      "ened": 2525,
      "ĊĊĊĠĠĠĠ": 2526,
      "asc": 2527,
      "Ġweak": 2528,
      "Ġneeds": 2529,
      "ĊĊĠĠĠ": 2530,
      "Ġadm": 2531,
      "Ġharm": 2532,
      "Ġspirits": 2533,
      "DON": 2534,
      "ny": 2535,
      "ude": 2536,
      "Ġmot": 2537,
      "Ġunt": 2538,
      "ĠHel": 2539,
      "Ġsport": 2540,
      "Ġplain": 2541,
      "Ġalmost": 2542,
      "ĠĠĠĠĠĠĠĠĠĠĠĠĠĠĠĠĠĠĠĠĠĠĠĠĠĠĠĠĠĠĠĠ": 2543,
      "Ġstands": 2544,
      "Ġhumour": 2545,
      "Ġstreng": 2546,
      "ĠRoom": 2547,
      "onight": 2548,
      "Ġfra": 2549,
      "ĊĊĠĠĠĠĠĠĠĠĠĠĠĠĠĠĠ": 2550,
      "ĠMistress": 2551,
      "ĠOn": 2552,
      "hilst": 2553,
      "Ġsuffer": 2554,
      "Duke": 2555,
      "EW": 2556,
      "RAT": 2557,
      "Ġmock": 2558,
      "Ġfat": 2559,
      "Ġob": 2560,
      "imer": 2561,
      "ĠMAM": 2562,
      "ĠPar": 2563,
      "ANUS": 2564,
      "Ġwhite": 2565,
      "DINAND": 2566,
      "mber": 2567,
      "read": 2568,
      "Ġocc": 2569,
      "Ġpit": 2570,
      "Ġhaving": 2571,
      "ĠSc": 2572,
      "ĠServ": 2573,
      "ĠOld": 2574,
      "ĠGENTLEMAN": 2575,
      "Ġoften": 2576,
      "rate": 2577,
      "Ġstir": 2578,
      "Ġrare": 2579,
      "Ġrespect": 2580,
      "PAND": 2581,
      "Ġobs": 2582,
      "ang": 2583,
      "Ġheir": 2584,
      "alm": 2585,
      "Ġstru": 2586,
      "ONA": 2587,
      "Ġdidst": 2588,
      "Ġpride": 2589,
      "ĠBefore": 2590,
      "Ġjustice": 2591,
      "Ġinstru": 2592,
      "HOST": 2593,
      "Ġsomething": 2594,
      "Ġrevenge": 2595,
      "Ġcounsel": 2596,
      "ting": 2597,
      "ught": 2598,
      "yre": 2599,
      "Ġmount": 2600,
      "Ġbell": 2601,
      "ĠCITIZEN": 2602,
      "umph": 2603,
      "Ġjest": 2604,
      "Therefore": 2605,
      "Ġguard": 2606,
      "Ġstrike": 2607,
      "Ġexcellent": 2608,
      "Ġfashion": 2609,
      "!--": 2610,
      "AU": 2611,
      "IPH": 2612,
      "isf": 2613,
      "Ġcirc": 2614,
      "Ġins": 2615,
      "Ġjew": 2616,
      "twas": 2617,
      "Ġbuy": 2618,
      "Ġpraise": 2619,
      "VAL": 2620,
      "Ġgro": 2621,
      "ĠAre": 2622,
      "ĠAnother": 2623,
      "Ġref": 2624,
      "Andel": 2625,
      "EST": 2626,
      "Ġcoming": 2627,
      "ĠRoman": 2628,
      "ured": 2629,
      "ARDIN": 2630,
      "Had": 2631,
      "WARWICK": 2632,
      "ration": 2633,
      "Ġsus": 2634,
      "eness": 2635,
      "Ġduty": 2636,
      "ters": 2637,
      "urch": 2638,
      "ĠMort": 2639,
      "ĠPage": 2640,
      "Ġsudden": 2641,
      "hys": 2642,
      "Ġentertain": 2643,
      "ĠAttend": 2644,
      "ĠBrutus": 2645,
      "ler": 2646,
      "uri": 2647,
      "arl": 2648,
      "OLUS": 2649,
      "Ġprithee": 2650,
      "ANTIPH": 2651,
      "Ġheads": 2652,
      "Ġbegin": 2653,
      "Ġseems": 2654,
      "Ġtender": 2655,
      "ANTIPHOLUS": 2656,
      "Com": 2657,
      "Ġ--": 2658,
      "Ġwoe": 2659,
      "roke": 2660,
      "peror": 2661,
      "Ġwars": 2662,
      "Ġbreast": 2663,
      "Ġtraitor": 2664,
      "Ġcurs": 2665,
      "essenger": 2666,
      "vol": 2667,
      "ze": 2668,
      "Ġmist": 2669,
      "Ġwound": 2670,
      "orth": 2671,
      "Ġthri": 2672,
      "Ġmarriage": 2673,
      "liver": 2674,
      "RIAR": 2675,
      "CLA": 2676,
      "EV": 2677,
      "Most": 2678,
      "Ġtonight": 2679,
      "Ġhours": 2680,
      "Ġforce": 2681,
      "ourish": 2682,
      "ĠBel": 2683,
      "Ġspeed": 2684,
      "Ġchildren": 2685,
      "SU": 2686,
      "ffect": 2687,
      "Ġbeast": 2688,
      "ĠAb": 2689,
      "Ġlips": 2690,
      "Ġloss": 2691,
      "resh": 2692,
      "Ġparts": 2693,
      "Ġterm": 2694,
      "IB": 2695,
      "Ġwoo": 2696,
      "Ġbit": 2697,
      "Ġcross": 2698,
      "Ġwealth": 2699,
      "Ġsoft": 2700,
      "ĠLO": 2701,
      "ANTONIO": 2702,
      "Ġpossess": 2703,
      "IP": 2704,
      "eem": 2705,
      "Ġtor": 2706,
      "Ġdark": 2707,
      "Ġbecome": 2708,
      "Ġforb": 2709,
      "iew": 2710,
      "othing": 2711,
      "ALL": 2712,
      "EMILIA": 2713,
      "Ġpriv": 2714,
      "Ġconscience": 2715,
      "Ġsense": 2716,
      "Pray": 2717,
      "TIT": 2718,
      "Ġes": 2719,
      "Ġbow": 2720,
      "Ġdish": 2721,
      "Ġlan": 2722,
      "Ġhide": 2723,
      "Ġtomorrow": 2724,
      "Ġeither": 2725,
      "unning": 2726,
      "Ġsouls": 2727,
      "Ġvaliant": 2728,
      "Ġacqu": 2729,
      "ald": 2730,
      "ib": 2731,
      "Ġeas": 2732,
      "ARUS": 2733,
      "ĠED": 2734,
      "Ġconce": 2735,
      "ĠJOHN": 2736,
      "THIRD": 2737,
      "Ġpretty": 2738,
      "Ġstrength": 2739,
      "Ġsn": 2740,
      "Ġgot": 2741,
      "Ġliber": 2742,
      "ĠCy": 2743,
      "ify": 2744,
      "Ġsworn": 2745,
      "umb": 2746,
      "ABELLA": 2747,
      "RUCHIO": 2748,
      "Ġsatisf": 2749,
      "MESSENGER": 2750,
      "Ġhealth": 2751,
      "ature": 2752,
      "ract": 2753,
      "Ġshad": 2754,
      "Ġletters": 2755,
      "CAL": 2756,
      "Say": 2757,
      "su": 2758,
      "Ġver": 2759,
      "head": 2760,
      "Ġwent": 2761,
      "Ġfing": 2762,
      "Ġcase": 2763,
      "Ġpol": 2764,
      "Ġgrant": 2765,
      "ĠSE": 2766,
      "ander": 2767,
      "ĠLook": 2768,
      "feit": 2769,
      "IDA": 2770,
      "Ġliege": 2771,
      "Ġviol": 2772,
      "HELEN": 2773,
      "Ar": 2774,
      "hind": 2775,
      "sh": 2776,
      "Ġduke": 2777,
      "Ġsteal": 2778,
      "ease": 2779,
      "ifford": 2780,
      "Ġrob": 2781,
      "ĠANTON": 2782,
      ".,": 2783,
      "under": 2784,
      "inc": 2785,
      "Ġcred": 2786,
      "ENIUS": 2787,
      "itted": 2788,
      "Orl": 2789,
      "Ġfeed": 2790,
      "ĠMortimer": 2791,
      "hysic": 2792,
      "NOR": 2793,
      "pin": 2794,
      "Ġtaken": 2795,
      "Ġslain": 2796,
      "Ġmir": 2797,
      "Ġdied": 2798,
      "Ġequ": 2799,
      "ĠWould": 2800,
      "Ġgovern": 2801,
      "Ġtrump": 2802,
      "LOUC": 2803,
      "Ġspeaks": 2804,
      "Ġmarch": 2805,
      "Ġ15": 2806,
      "Ġdram": 2807,
      "ekker": 2808,
      "LOUCESTER": 2809,
      "TRO": 2810,
      "YM": 2811,
      "Ġauth": 2812,
      "Ġmed": 2813,
      "Ġhorn": 2814,
      "ĠPo": 2815,
      "iffe": 2816,
      "Ġgod": 2817,
      "ĠVen": 2818,
      "Ġwitness": 2819,
      "Ġunderstand": 2820,
      "Alas": 2821,
      "DEMONA": 2822,
      "DESDEMONA": 2823,
      "IOLA": 2824,
      "Since": 2825,
      "TS": 2826,
      "Take": 2827,
      "oin": 2828,
      "Ġdu": 2829,
      "Ġlim": 2830,
      "set": 2831,
      "ĊĠĠĠĠĠĠ": 2832,
      "though": 2833,
      "Ġprov": 2834,
      "Ġkingdom": 2835,
      "Ġaffection": 2836,
      "ĠPray": 2837,
      "Ġpract": 2838,
      "MENENIUS": 2839,
      "CLAUD": 2840,
      "DROM": 2841,
      "HOR": 2842,
      "Ill": 2843,
      "zen": 2844,
      "Ġfig": 2845,
      "ites": 2846,
      "Ġcarry": 2847,
      "Ġlack": 2848,
      "Ġoffend": 2849,
      "raw": 2850,
      "used": 2851,
      "ils": 2852,
      "asters": 2853,
      "que": 2854,
      "hens": 2855,
      "Ġpresence": 2856,
      "ealous": 2857,
      "ROMEO": 2858,
      "ĠEDWARD": 2859,
      "DROMIO": 2860,
      "oured": 2861,
      "rem": 2862,
      "arge": 2863,
      "ancy": 2864,
      "owed": 2865,
      "pped": 2866,
      "Ġchance": 2867,
      "Ġ160": 2868,
      "Ġtitle": 2869,
      "Should": 2870,
      "Ġla": 2871,
      "Ġpiece": 2872,
      "lem": 2873,
      "Ġeffect": 2874,
      "ural": 2875,
      "ANG": 2876,
      "ccess": 2877,
      "Ġpassion": 2878,
      "Ġlordship": 2879,
      "ĠANTONIO": 2880,
      "CLAUDIO": 2881,
      "Ha": 2882,
      "bury": 2883,
      "rey": 2884,
      "Ġbri": 2885,
      "Ġgift": 2886,
      "Ġstud": 2887,
      "ider": 2888,
      "urse": 2889,
      "ĠCor": 2890,
      "ĠCast": 2891,
      "ANCE": 2892,
      "Ġpoet": 2893,
      "Ġsafe": 2894,
      "Ġrid": 2895,
      "Ġheavens": 2896,
      "DICK": 2897,
      "GU": 2898,
      "GLOUCESTER": 2899,
      "TO": 2900,
      "Wh": 2901,
      "Ġbattle": 2902,
      "Ġpun": 2903,
      "Ġele": 2904,
      "ĠHave": 2905,
      "ENCE": 2906,
      "ĠLuc": 2907,
      "Ġloving": 2908,
      "Ġchamber": 2909,
      "Ġmal": 2910,
      "Ġpale": 2911,
      "ingly": 2912,
      "ĠMUS": 2913,
      "Ġliving": 2914,
      "ĠLu": 2915,
      "ired": 2916,
      "Ġalong": 2917,
      "ĠAnton": 2918,
      "Ġprinces": 2919,
      "PETRUCHIO": 2920,
      "ARDINAL": 2921,
      "ETH": 2922,
      "Ġwood": 2923,
      "Ġbond": 2924,
      "Ġfive": 2925,
      "Ġhurt": 2926,
      "irg": 2927,
      "ric": 2928,
      "ĠCount": 2929,
      "Ġangry": 2930,
      "ĠLa": 2931,
      "ends": 2932,
      "Ġtruly": 2933,
      "Ġoffer": 2934,
      "Ġwrite": 2935,
      "Ġpurse": 2936,
      "Ġcheer": 2937,
      "fully": 2938,
      "Frank": 2939,
      "Make": 2940,
      "Marry": 2941,
      "du": 2942,
      "sper": 2943,
      "Ġet": 2944,
      "Ġhost": 2945,
      "ĠPER": 2946,
      "ENS": 2947,
      "OLIV": 2948,
      "ume": 2949,
      "Ġkept": 2950,
      "Ġgolden": 2951,
      "Ġgives": 2952,
      "Ġcounter": 2953,
      "Ġbirth": 2954,
      "IOL": 2955,
      "ience": 2956,
      "og": 2957,
      "Ġwine": 2958,
      "ety": 2959,
      "Ġwithal": 2960,
      "bey": 2961,
      "Ġmoon": 2962,
      "Ġpublic": 2963,
      "Ġir": 2964,
      "Ġteach": 2965,
      "Ġnay": 2966,
      "ĠGive": 2967,
      "ONE": 2968,
      "Thus": 2969,
      "Ġround": 2970,
      "ENTINE": 2971,
      "RESSIDA": 2972,
      "ĠFERDINAND": 2973,
      "VALENTINE": 2974,
      "ares": 2975,
      "Ġut": 2976,
      "Ġdri": 2977,
      "omp": 2978,
      "Ġexec": 2979,
      "Ġlonger": 2980,
      "Ġlabour": 2981,
      "16": 2982,
      "CRESSIDA": 2983,
      "Madam": 2984,
      "ris": 2985,
      "have": 2986,
      "ĠTOB": 2987,
      "ĊĠĠĠĠĠĠĠĠ": 2988,
      "Ġstar": 2989,
      "Ġdec": 2990,
      "Ġdeeds": 2991,
      "Ġvile": 2992,
      "ĠJul": 2993,
      "Ġprop": 2994,
      "Ġproper": 2995,
      "ĠĠĠĠĠĠĠĠĠĠĠĠĠĠĠĠĠĠĠĠ": 2996,
      "Ġoffice": 2997,
      "ledge": 2998,
      "Ġfortunes": 2999,
      "ĊĊĊĠĠĠĠĠĠĠĠĠĠĠĠĠĠĠĠĠĠĠ": 3000,
      "PANDARUS": 3001,
      "ĠTOBY": 3002,
      "!âĢĶ": 3003,
      "Farewell": 3004,
      "Ġtry": 3005,
      "ndeed": 3006,
      "Ġmel": 3007,
      "ANS": 3008,
      "Ġview": 3009,
      "ignor": 3010,
      "Ġhonourable": 3011,
      "VOLIO": 3012,
      "LU": 3013,
      "nown": 3014,
      "Ġay": 3015,
      "Ġfru": 3016,
      "stance": 3017,
      "Ġinv": 3018,
      "Ġbehind": 3019,
      "rupt": 3020,
      "aunt": 3021,
      "bled": 3022,
      "UCKING": 3023,
      "Ġcurse": 3024,
      "Ġdepart": 3025,
      "Ġcruel": 3026,
      "IOLANUS": 3027,
      "BEL": 3028,
      "mand": 3029,
      "ina": 3030,
      "erc": 3031,
      "ises": 3032,
      "orge": 3033,
      "Ġpain": 3034,
      "Ġpost": 3035,
      "ALLOW": 3036,
      "ĠJove": 3037,
      "Ġpluck": 3038,
      "Within": 3039,
      "ITE": 3040,
      "Ġstreet": 3041,
      "Ġdeny": 3042,
      "Fran": 3043,
      "Out": 3044,
      "ugh": 3045,
      "ĠIN": 3046,
      "ĠThan": 3047,
      "Ġissue": 3048,
      "cius": 3049,
      "ĠDoctor": 3050,
      "Ġlearn": 3051,
      "TEUS": 3052,
      "PROTEUS": 3053,
      "ĠMARGARET": 3054,
      "ACH": 3055,
      "Brach": 3056,
      "Con": 3057,
      "bles": 3058,
      "eep": 3059,
      "gers": 3060,
      "iol": 3061,
      "Ġer": 3062,
      "imo": 3063,
      "asion": 3064,
      "ĠHor": 3065,
      "ument": 3066,
      "Ġthanks": 3067,
      "ĠTherefore": 3068,
      "Ġpromise": 3069,
      "Ġenemies": 3070,
      "CORIOLANUS": 3071,
      "PORT": 3072,
      "VE": 3073,
      "eks": 3074,
      "king": 3075,
      "itiz": 3076,
      "Ġtoday": 3077,
      "Ġforget": 3078,
      "Ġcloud": 3079,
      "Ġsmo": 3080,
      "ATHER": 3081,
      "Ġspoke": 3082,
      "ĠAttendants": 3083,
      "HELENA": 3084,
      "what": 3085,
      "Ġmatch": 3086,
      "Ġfresh": 3087,
      "ĠTit": 3088,
      "ĠThy": 3089,
      "ĠChar": 3090,
      "Ġprot": 3091,
      "Ġjealous": 3092,
      "Ġoffic": 3093,
      "Ġquickly": 3094,
      "Ġwalls": 3095,
      "ĠAntonio": 3096,
      "PA": 3097,
      "more": 3098,
      "ug": 3099,
      "Ġmortal": 3100,
      "Ġphysic": 3101,
      "Ġthrow": 3102,
      "ĠTimon": 3103,
      "ĠCon": 3104,
      "ĠDekker": 3105,
      "ESAR": 3106,
      "Ġdelight": 3107,
      "UCKINGHAM": 3108,
      "PAL": 3109,
      "ient": 3110,
      "oc": 3111,
      "Ġtaste": 3112,
      "Ġsch": 3113,
      "Ġcunning": 3114,
      "anch": 3115,
      "anish": 3116,
      "staff": 3117,
      "ĠAway": 3118,
      "ĠCan": 3119,
      "ĠCap": 3120,
      "Ġvain": 3121,
      "ustration": 3122,
      "elcome": 3123,
      "Ġperform": 3124,
      "awd": 3125,
      "Ġsilver": 3126,
      ".[": 3127,
      "FORD": 3128,
      "Must": 3129,
      "cing": 3130,
      "ror": 3131,
      "woman": 3132,
      "Ġwed": 3133,
      "Ġbright": 3134,
      "Ġreve": 3135,
      "ĠHeaven": 3136,
      "ĠPers": 3137,
      "Ġnoise": 3138,
      "Ġlov": 3139,
      "OLLES": 3140,
      "Ġloved": 3141,
      "Ġqual": 3142,
      "rief": 3143,
      "noc": 3144,
      "Ġseveral": 3145,
      "Ġauthor": 3146,
      "Illustration": 3147,
      "gl": 3148,
      "via": 3149,
      "Ġap": 3150,
      "Ġmere": 3151,
      "ĠEPH": 3152,
      "ĠGree": 3153,
      "Ġwouldst": 3154,
      "Ġclear": 3155,
      "PAROLLES": 3156,
      "!âĢĿ": 3157,
      "BUCKINGHAM": 3158,
      "bour": 3159,
      "der": 3160,
      "itors": 3161,
      "Ġdeliver": 3162,
      "END": 3163,
      "rue": 3164,
      "ĠEm": 3165,
      "ESUS": 3166,
      "Ġrage": 3167,
      "FFOLK": 3168,
      "Ġchoose": 3169,
      "Ġcoward": 3170,
      "ĠEPHESUS": 3171,
      "ICE": 3172,
      "pher": 3173,
      "Ġsigh": 3174,
      "Ġsix": 3175,
      "haps": 3176,
      "Ġlist": 3177,
      "Ġlaid": 3178,
      "Ġthro": 3179,
      "vey": 3180,
      "Ġange": 3181,
      "Ġfaire": 3182,
      "Ġmanner": 3183,
      "AMON": 3184,
      "ĠĠĠĠĠĠĠĠĠĠĠĠĠĠĠĠĠĠĠĠĠĠĠĠ": 3185,
      "Ġleg": 3186,
      "Before": 3187,
      "PALAMON": 3188,
      "Ah": 3189,
      "Against": 3190,
      "CUS": 3191,
      "VER": 3192,
      "Ġits": 3193,
      "Ġreb": 3194,
      "ARC": 3195,
      "ĠGe": 3196,
      "antage": 3197,
      "AMORE": 3198,
      "osition": 3199,
      "Ġgreater": 3200,
      "Ġperceive": 3201,
      "Ġcrowns": 3202,
      "Ġpatient": 3203,
      "SHALLOW": 3204,
      "CASSIUS": 3205,
      "LANDO": 3206,
      "Ġcaptain": 3207,
      "min": 3208,
      "hakes": 3209,
      "Ġopin": 3210,
      "chief": 3211,
      "Ġforward": 3212,
      "ĠSaint": 3213,
      "Ġshar": 3214,
      "Their": 3215,
      "ĠPl": 3216,
      "hose": 3217,
      "Ġvow": 3218,
      "Ġsirrah": 3219,
      "Ġworst": 3220,
      "ĠSold": 3221,
      "Ġtroth": 3222,
      "Ġcontin": 3223,
      "CAESAR": 3224,
      "SUFFOLK": 3225,
      "Away": 3226,
      "fer": 3227,
      "joy": 3228,
      "Ġsor": 3229,
      "Ġdance": 3230,
      "ĠSome": 3231,
      "urst": 3232,
      "ĠMajesty": 3233,
      "ĠHigh": 3234,
      "iled": 3235,
      "Ġlod": 3236,
      "aker": 3237,
      "ATO": 3238,
      "Ġflatter": 3239,
      "Ġanything": 3240,
      "Ġdread": 3241,
      "ĠPEDRO": 3242,
      "BENE": 3243,
      "Pro": 3244,
      "act": 3245,
      "Ġtale": 3246,
      "Ġsort": 3247,
      "Ġcost": 3248,
      "Ġdin": 3249,
      "Ġdest": 3250,
      "Ġline": 3251,
      "Ġyes": 3252,
      "ĠITH": 3253,
      "ĠAV": 3254,
      "ĠSil": 3255,
      "Ġweap": 3256,
      "ility": 3257,
      "Ġvar": 3258,
      "Ġgoing": 3259,
      "Ġblow": 3260,
      "Ġglass": 3261,
      "Ġglory": 3262,
      "Ġfools": 3263,
      "ĠCORV": 3264,
      "Ġorder": 3265,
      "ĠITHAMORE": 3266,
      "BRO": 3267,
      "MAL": 3268,
      "gri": 3269,
      "ners": 3270,
      "peare": 3271,
      "ses": 3272,
      "will": 3273,
      "Ġtakes": 3274,
      "Ġwid": 3275,
      "Ġfew": 3276,
      "Ġfier": 3277,
      "ays": 3278,
      "ident": 3279,
      "usion": 3280,
      "Ġshows": 3281,
      "Ġourselves": 3282,
      "Ġproc": 3283,
      "Ġdamn": 3284,
      "TITUS": 3285,
      "PORTIA": 3286,
      "hakespeare": 3287,
      "BENEDICK": 3288,
      "ding": 3289,
      "low": 3290,
      "loy": 3291,
      "Ġtent": 3292,
      "nds": 3293,
      "Ġinnoc": 3294,
      "sem": 3295,
      "leep": 3296,
      "ilus": 3297,
      "Ġsuccess": 3298,
      "ANO": 3299,
      "Ġneigh": 3300,
      "ILUS": 3301,
      "twere": 3302,
      "Ġquarrel": 3303,
      "ĠAVOC": 3304,
      "OW": 3305,
      "Such": 3306,
      "iar": 3307,
      "ob": 3308,
      "your": 3309,
      "ona": 3310,
      "onour": 3311,
      "Ġdrown": 3312,
      "Ġheat": 3313,
      "Ġseal": 3314,
      "ĠEarl": 3315,
      "Ġpartic": 3316,
      "Ġdrawn": 3317,
      "Ġchurch": 3318,
      "IGH": 3319,
      "ĠCassio": 3320,
      "Ġconquer": 3321,
      "OLDIER": 3322,
      "ĠServant": 3323,
      "TROILUS": 3324,
      "ARCITE": 3325,
      "FR": 3326,
      "SPE": 3327,
      "Ġhun": 3328,
      "Ġshape": 3329,
      "ĠFal": 3330,
      "ĠOur": 3331,
      "Ġquiet": 3332,
      "icked": 3333,
      "Ġhighness": 3334,
      "Ġcolour": 3335,
      "ĠClaud": 3336,
      "Ġwisdom": 3337,
      "Speak": 3338,
      "MACBETH": 3339,
      "AW": 3340,
      "BUS": 3341,
      "IET": 3342,
      "Tell": 3343,
      "aves": 3344,
      "ex": 3345,
      "Ġble": 3346,
      "Ġfre": 3347,
      "Ġlarge": 3348,
      "Ġport": 3349,
      "Ġheld": 3350,
      "Ġformer": 3351,
      "ĠSCENE": 3352,
      "ales": 3353,
      "Ġdoctor": 3354,
      "ĠPAGE": 3355,
      "iful": 3356,
      "astard": 3357,
      "ĠDon": 3358,
      "ONT": 3359,
      "Ġoffence": 3360,
      "ĠHector": 3361,
      "ISABELLA": 3362,
      "Ġbanish": 3363,
      "Ġvalour": 3364,
      "EXIT": 3365,
      "Ġscarce": 3366,
      "GH": 3367,
      "OUR": 3368,
      "SIC": 3369,
      "born": 3370,
      "kind": 3371,
      "mong": 3372,
      "Ġmorrow": 3373,
      "arum": 3374,
      "ĠFord": 3375,
      "ESE": 3376,
      "ways": 3377,
      "Ġbears": 3378,
      "Ġmonth": 3379,
      "Ġladies": 3380,
      "ĠTurk": 3381,
      "Mar": 3382,
      "oes": 3383,
      "Ġmid": 3384,
      "ĠTake": 3385,
      "ided": 3386,
      "ĠFri": 3387,
      "Ġanon": 3388,
      "ĠDOL": 3389,
      "CHAR": 3390,
      "perate": 3391,
      "Ġfoolish": 3392,
      "LUCIUS": 3393,
      "Ġvictor": 3394,
      "GEN": 3395,
      "over": 3396,
      "Ġant": 3397,
      "Ġthreat": 3398,
      "Ġbeard": 3399,
      "ĠSEN": 3400,
      "ĠHam": 3401,
      "Ġneck": 3402,
      "Ġconc": 3403,
      "Ġproceed": 3404,
      "Ġcharac": 3405,
      "Ġcommend": 3406,
      "ucking": 3407,
      "ISTOL": 3408,
      "Ġprincely": 3409,
      "otten": 3410,
      "BOT": 3411,
      "Ġlangu": 3412,
      "Ġmelanch": 3413,
      "Pr": 3414,
      "PISTOL": 3415,
      "iter": 3416,
      "ating": 3417,
      "Ġgown": 3418,
      "Ġmeat": 3419,
      "Ġstage": 3420,
      "iles": 3421,
      "Ġrasc": 3422,
      "Ġenc": 3423,
      "Ġprayers": 3424,
      "Ġarmy": 3425,
      "PERO": 3426,
      "Ġdrunk": 3427,
      "JULIET": 3428,
      "ĠHelen": 3429,
      "Firk": 3430,
      "PUR": 3431,
      "Vit": 3432,
      "him": 3433,
      "rim": 3434,
      "orous": 3435,
      "Ġcust": 3436,
      "Ġpure": 3437,
      "athe": 3438,
      "irl": 3439,
      "Ġeld": 3440,
      "Ġstars": 3441,
      "road": 3442,
      "ĠDid": 3443,
      "Ġarg": 3444,
      "THE": 3445,
      "Ġsac": 3446,
      "Ġrise": 3447,
      "Ġwitch": 3448,
      "ĠProte": 3449,
      "IANA": 3450,
      "LEONTES": 3451,
      "BOR": 3452,
      "MER": 3453,
      "broke": 3454,
      "can": 3455,
      "yb": 3456,
      "Ġfrown": 3457,
      "Ġintend": 3458,
      "ĠMan": 3459,
      "eston": 3460,
      "artius": 3461,
      "ORLANDO": 3462,
      "law": 3463,
      "Ġrogue": 3464,
      "itten": 3465,
      "Ġconsent": 3466,
      "Stand": 3467,
      "gues": 3468,
      "ĠCORB": 3469,
      "Ġcreature": 3470,
      "DE": 3471,
      "Shad": 3472,
      "VIOLA": 3473,
      "Yea": 3474,
      "gle": 3475,
      "house": 3476,
      "Ġwon": 3477,
      "atio": 3478,
      "ĠAd": 3479,
      "ĠSIR": 3480,
      "ests": 3481,
      "this": 3482,
      "Ġthence": 3483,
      "Ġchast": 3484,
      "Ġcoin": 3485,
      "ICLES": 3486,
      "Ġplague": 3487,
      "ĠRomeo": 3488,
      "ROSPERO": 3489,
      "Ġwanton": 3490,
      "Ġrememb": 3491,
      "Ġtemp": 3492,
      "Ġprisoner": 3493,
      "Ġcondition": 3494,
      "Ġfruit": 3495,
      "ĠClaudio": 3496,
      "Ġing": 3497,
      "Ġpet": 3498,
      "ĠAp": 3499,
      "ĊĠĠĠĠĠĠĠ": 3500,
      "ĠSuff": 3501,
      "ĠHIER": 3502,
      "arent": 3503,
      "THESE": 3504,
      "Ġ18": 3505,
      "RICE": 3506,
      "Being": 3507,
      "Ġchief": 3508,
      "Ġwretched": 3509,
      "IE": 3510,
      "War": 3511,
      "Ġwench": 3512,
      "Ġdull": 3513,
      "Ġdwell": 3514,
      "Ġgain": 3515,
      "Ġstone": 3516,
      "Ġstory": 3517,
      "ords": 3518,
      "ieu": 3519,
      "aked": 3520,
      "ELO": 3521,
      "PERICLES": 3522,
      "ĠWhose": 3523,
      "Ġvirtuous": 3524,
      "Ġdamned": 3525,
      "Ġprepare": 3526,
      "ĠGeorge": 3527,
      "app": 3528,
      "ked": 3529,
      "Ġwounds": 3530,
      "Ġbare": 3531,
      "Ġlou": 3532,
      "alb": 3533,
      "ĠWh": 3534,
      "Ġdeal": 3535,
      "ĠGu": 3536,
      "ĠGav": 3537,
      "ATIO": 3538,
      "Ġwait": 3539,
      "LEONATO": 3540,
      "ĠChristian": 3541,
      "ĠMayor": 3542,
      "Ġpaper": 3543,
      "Ġbitter": 3544,
      "THESEUS": 3545,
      "De": 3546,
      "Sweet": 3547,
      "acc": 3548,
      "Ġbas": 3549,
      "Ġcre": 3550,
      "ĠSaw": 3551,
      "Ġstood": 3552,
      "ĠCARDINAL": 3553,
      "Ġanci": 3554,
      "ably": 3555,
      "Because": 3556,
      "Ġboys": 3557,
      "Ġmonst": 3558,
      "chant": 3559,
      "ĠGaveston": 3560,
      "Mont": 3561,
      "Peace": 3562,
      "SA": 3563,
      "YS": 3564,
      "].": 3565,
      "worth": 3566,
      "ato": 3567,
      "omin": 3568,
      "ĠSTE": 3569,
      "Ġlion": 3570,
      "Ġdeg": 3571,
      "Ġshake": 3572,
      "ĠOut": 3573,
      "Ġamb": 3574,
      "odge": 3575,
      "Ġtrick": 3576,
      "Ġmiser": 3577,
      "Ġdangerous": 3578,
      "IMOGEN": 3579,
      "Ġprivate": 3580,
      "OLIVIA": 3581,
      "10": 3582,
      "ipp": 3583,
      "heart": 3584,
      "Ġmour": 3585,
      "Ġcatch": 3586,
      "Ġcamp": 3587,
      "Ġgates": 3588,
      "eding": 3589,
      "Ġevil": 3590,
      "Ġstuff": 3591,
      "Ġherself": 3592,
      "iff": 3593,
      "Ġplot": 3594,
      "Ġfled": 3595,
      "Ġwrath": 3596,
      "Ġdeser": 3597,
      "Ġfearful": 3598,
      "ney": 3599,
      "Ġfellows": 3600,
      "ĠPalace": 3601,
      "Ġcredit": 3602,
      "Ġetc": 3603,
      "SPEED": 3604,
      "SICINIUS": 3605,
      "CL": 3606,
      "wise": 3607,
      "Ġmasters": 3608,
      "Ġloose": 3609,
      "Ġpains": 3610,
      "Ġinvent": 3611,
      "Ġmeasure": 3612,
      "ĠCardinal": 3613,
      "ĠGentle": 3614,
      "Ġfail": 3615,
      "Ġconj": 3616,
      "erer": 3617,
      "agger": 3618,
      "Ġprecious": 3619,
      "Ġclo": 3620,
      "Ġsorry": 3621,
      "PROSPERO": 3622,
      "SIL": 3623,
      "ault": 3624,
      "chan": 3625,
      "Ġ5": 3626,
      "Ġship": 3627,
      "Ġmethinks": 3628,
      "Ġwhi": 3629,
      "ĠFrom": 3630,
      "Ġvent": 3631,
      "ĠThus": 3632,
      "Ġcalls": 3633,
      "Ġplays": 3634,
      "OBAR": 3635,
      "Ġemperor": 3636,
      "gypt": 3637,
      "ĠParis": 3638,
      "Ġoccasion": 3639,
      "ANGELO": 3640,
      "ĠHoratio": 3641,
      "ĠFalstaff": 3642,
      "Car": 3643,
      "COM": 3644,
      "PAGE": 3645,
      "SERVANT": 3646,
      "bus": 3647,
      "Ġwert": 3648,
      "Ġfame": 3649,
      "ĠTell": 3650,
      "ourt": 3651,
      "asons": 3652,
      "ĠMen": 3653,
      "Ġdece": 3654,
      "ĠPom": 3655,
      "Ġvirg": 3656,
      "Ġknock": 3657,
      "Ġhopes": 3658,
      "URSE": 3659,
      "Ġperfect": 3660,
      "ĠItal": 3661,
      "Ġgreen": 3662,
      "Ġmotion": 3663,
      "pherd": 3664,
      "Ġopinion": 3665,
      "uckingham": 3666,
      "pro": 3667,
      "Ġbab": 3668,
      "itude": 3669,
      "Ġpict": 3670,
      "ĠSUR": 3671,
      "ĠSERVANT": 3672,
      "ĠFarewell": 3673,
      "ĠPort": 3674,
      "ENOBAR": 3675,
      "Ġnose": 3676,
      "icious": 3677,
      "Ġsaf": 3678,
      "Ġscene": 3679,
      "irtue": 3680,
      "Ġforgot": 3681,
      "Ġemploy": 3682,
      "ENOBARBUS": 3683,
      ":--": 3684,
      "ZE": 3685,
      "ax": 3686,
      "ich": 3687,
      "Ġbrief": 3688,
      "Ġthither": 3689,
      "atic": 3690,
      "Ġinj": 3691,
      "illes": 3692,
      "ourse": 3693,
      "ĠSal": 3694,
      "ĠCle": 3695,
      "ilty": 3696,
      "ĠLanc": 3697,
      "host": 3698,
      "arden": 3699,
      "Ġcomedy": 3700,
      "olph": 3701,
      "Ġabroad": 3702,
      "ATE": 3703,
      "ATRICE": 3704,
      "Ġtriumph": 3705,
      "hamber": 3706,
      "ize": 3707,
      "Ġblessed": 3708,
      "ĠCastle": 3709,
      "Ġdinner": 3710,
      "Ġmelancholy": 3711,
      "CELIA": 3712,
      "Ġrank": 3713,
      "Ġfury": 3714,
      "Ġpat": 3715,
      "Ġpowers": 3716,
      "Ġmem": 3717,
      "ĠAh": 3718,
      "ilia": 3719,
      "ardolph": 3720,
      "ĠKate": 3721,
      "ffic": 3722,
      "ctions": 3723,
      "Ġwits": 3724,
      "Ġcheeks": 3725,
      "Ġswords": 3726,
      "ĠAthens": 3727,
      "ĠArth": 3728,
      "Ġlearned": 3729,
      "Ġchoice": 3730,
      "CASSIO": 3731,
      "Ġprofess": 3732,
      "HORATIO": 3733,
      "ĠLancaster": 3734,
      "12": 3735,
      "BASS": 3736,
      "bar": 3737,
      "ts": 3738,
      "vail": 3739,
      "Ġmut": 3740,
      "Ġwast": 3741,
      "Ġborrow": 3742,
      "Ġcorn": 3743,
      "esides": 3744,
      "aring": 3745,
      "Ġthird": 3746,
      "omer": 3747,
      "Ġbeha": 3748,
      "Ġur": 3749,
      "ĠMont": 3750,
      "ĠFIRST": 3751,
      "Ġspend": 3752,
      "Ġnecess": 3753,
      "icles": 3754,
      "Ġwhether": 3755,
      "Ġgoodly": 3756,
      "ĠRos": 3757,
      "Ġproof": 3758,
      "Ġknowledge": 3759,
      "Ġblind": 3760,
      "Ġdisg": 3761,
      "Ġremain": 3762,
      "Ġtrain": 3763,
      "Ġtrib": 3764,
      "comes": 3765,
      "Ġinstant": 3766,
      "LUCIO": 3767,
      "ĠSuffolk": 3768,
      "fit": 3769,
      "lic": 3770,
      "non": 3771,
      "Ġtear": 3772,
      "Ġwhilst": 3773,
      "onimo": 3774,
      "Ġfle": 3775,
      "ĠShakespeare": 3776,
      "ĠSOLDIER": 3777,
      "Ġaside": 3778,
      "ĠHast": 3779,
      "ĠHier": 3780,
      "ĠBuckingham": 3781,
      "cted": 3782,
      "ĠOne": 3783,
      "--,\"": 3784,
      "chess": 3785,
      "bert": 3786,
      "oved": 3787,
      "force": 3788,
      "COUNT": 3789,
      "Ġexpress": 3790,
      "Ġsummer": 3791,
      "Ġcircum": 3792,
      "albot": 3793,
      ".âĢĻ": 3794,
      "eous": 3795,
      "Ġ6": 3796,
      "Ġran": 3797,
      "Ġable": 3798,
      "Ġbawd": 3799,
      "Ġfeet": 3800,
      "Ġpie": 3801,
      "anio": 3802,
      "Ġgame": 3803,
      "alent": 3804,
      "Ġstor": 3805,
      "ĠMoor": 3806,
      "ĠHarry": 3807,
      "ĠFirst": 3808,
      "Ġanger": 3809,
      "ĠLAD": 3810,
      "rum": 3811,
      "ĠEL": 3812,
      "ĠVol": 3813,
      "Ġenjoy": 3814,
      "Ġearly": 3815,
      "Ġbetray": 3816,
      "Ġsonne": 3817,
      "orses": 3818,
      "acle": 3819,
      "Ġbroke": 3820,
      "JULIA": 3821,
      "urious": 3822,
      "BROKE": 3823,
      "14": 3824,
      "15": 3825,
      "ECT": 3826,
      "apt": 3827,
      "go": 3828,
      "ys": 3829,
      "Ġreign": 3830,
      "Ġconcl": 3831,
      "Ġalive": 3832,
      "bling": 3833,
      "Ġgallant": 3834,
      "ridge": 3835,
      "Ġrequest": 3836,
      "Ġshadow": 3837,
      "ĠLucius": 3838,
      "Ġsacred": 3839,
      "13": 3840,
      "CK": 3841,
      "SAL": 3842,
      "Ġsong": 3843,
      "Ġmag": 3844,
      "Ġbene": 3845,
      "Ġpot": 3846,
      "Ġhor": 3847,
      "Ġhig": 3848,
      "Ġhunt": 3849,
      "Ġthrust": 3850,
      "Ġstop": 3851,
      "ĠMarry": 3852,
      "gelo": 3853,
      "ĠJU": 3854,
      "Ġexpect": 3855,
      "Ġrough": 3856,
      "iano": 3857,
      "BEATRICE": 3858,
      "BURY": 3859,
      "Ġfaults": 3860,
      "ĠHighness": 3861,
      "Ġparticular": 3862,
      "ĠHieronimo": 3863,
      "CAS": 3864,
      "Dis": 3865,
      "POM": 3866,
      "gare": 3867,
      "Ġignor": 3868,
      "Ġtail": 3869,
      "Ġbount": 3870,
      "orious": 3871,
      "llo": 3872,
      "Ġdies": 3873,
      "Ġyonder": 3874,
      "ĠMessenger": 3875,
      "ording": 3876,
      "ĠEgypt": 3877,
      "Ġeng": 3878,
      "ATCH": 3879,
      "Ġfolly": 3880,
      "Ġbrain": 3881,
      "Ġwrongs": 3882,
      "Ġsilence": 3883,
      "ĠClarence": 3884,
      "Ġprotest": 3885,
      "ĠLADY": 3886,
      "NER": 3887,
      "after": 3888,
      "Ġeds": 3889,
      "Ġlend": 3890,
      "Ġlater": 3891,
      "vell": 3892,
      "ĠTalbot": 3893,
      "ills": 3894,
      "tern": 3895,
      "ĠBOB": 3896,
      "Ġseven": 3897,
      "Ġours": 3898,
      "ortun": 3899,
      "umour": 3900,
      "URDER": 3901,
      "Ġwherefore": 3902,
      "Ġrepent": 3903,
      "ĠSpeak": 3904,
      "TRAM": 3905,
      "Ġsharp": 3906,
      "grip": 3907,
      "AIL": 3908,
      "Both": 3909,
      "Call": 3910,
      "Doth": 3911,
      "LEN": 3912,
      "Sh": 3913,
      "dis": 3914,
      "she": 3915,
      "Ġboot": 3916,
      "Ġloud": 3917,
      "anus": 3918,
      "ĠACT": 3919,
      "ĠAlex": 3920,
      "alph": 3921,
      "ĠMil": 3922,
      "Ġdeare": 3923,
      "Ġspent": 3924,
      "ĠDes": 3925,
      "ago": 3926,
      "ABETH": 3927,
      "ceived": 3928,
      "Ġtreason": 3929,
      "REY": 3930,
      "IZABETH": 3931,
      "ĠAlas": 3932,
      "Ġdivine": 3933,
      "ĠTroilus": 3934,
      "ĠELIZABETH": 3935,
      "TOR": 3936,
      "af": 3937,
      "cul": 3938,
      "Ġrans": 3939,
      "Ġsal": 3940,
      "Ġwicked": 3941,
      "Ġthunder": 3942,
      "vet": 3943,
      "Ġhaue": 3944,
      "Ġdoors": 3945,
      "ellow": 3946,
      "hop": 3947,
      "Ġspite": 3948,
      "Ġquite": 3949,
      "ATOR": 3950,
      "abas": 3951,
      "ĠLords": 3952,
      "ĠAngelo": 3953,
      "Ġterms": 3954,
      "PEY": 3955,
      "ĠVOLT": 3956,
      "BERTRAM": 3957,
      "Ġsooner": 3958,
      "Ġvisit": 3959,
      "Ġliberty": 3960,
      "lemn": 3961,
      "faith": 3962,
      "mond": 3963,
      "nz": 3964,
      "ov": 3965,
      "which": 3966,
      "yond": 3967,
      "Ġbones": 3968,
      "Ġfaint": 3969,
      "Ġcitiz": 3970,
      "Ġobey": 3971,
      "eng": 3972,
      "Ġthief": 3973,
      "omach": 3974,
      "orenz": 3975,
      "ĠLove": 3976,
      "ĠOR": 3977,
      "ĠGreat": 3978,
      "Ġshore": 3979,
      "ppy": 3980,
      "Ġjoin": 3981,
      "Ġcoll": 3982,
      "Ġlegs": 3983,
      "ANTUS": 3984,
      "wards": 3985,
      "Ġaffect": 3986,
      "Ġcontempt": 3987,
      "EMANTUS": 3988,
      "IDAM": 3989,
      "Ġturned": 3990,
      "Ġaccount": 3991,
      "Ġtongues": 3992,
      "airs": 3993,
      "ĠQu": 3994,
      "ĠBrit": 3995,
      "APEMANTUS": 3996,
      "BASTARD": 3997,
      "TSPUR": 3998,
      "Whom": 3999,
      "Ġwidow": 4000,
      "Ġmonstrous": 4001,
      "COUNTESS": 4002,
      "POMPEY": 4003,
      "Faith": 4004,
      "FEW": 4005,
      "NURSE": 4006,
      "Vio": 4007,
      "iest": 4008,
      "mia": 4009,
      "ua": 4010,
      "ued": 4011,
      "ĊĊĊ": 4012,
      "lease": 4013,
      "Ġmeant": 4014,
      "ĠMURDER": 4015,
      "ĠHouse": 4016,
      "ĠBAL": 4017,
      "ified": 4018,
      "Ġspring": 4019,
      "ference": 4020,
      "OLPH": 4021,
      "ody": 4022,
      "ARDOLPH": 4023,
      "Ġhonours": 4024,
      "ontent": 4025,
      "HOTSPUR": 4026,
      "Ġskill": 4027,
      "ĠBarabas": 4028,
      "Ġstruck": 4029,
      "Ġsuspect": 4030,
      "AJA": 4031,
      "ULET": 4032,
      "cis": 4033,
      "eat": 4034,
      "sc": 4035,
      "there": 4036,
      "ounter": 4037,
      "Ġwives": 4038,
      "Ġbott": 4039,
      "Ġfee": 4040,
      "Ġpound": 4041,
      "Ġhorses": 4042,
      "Ġheed": 4043,
      "chilles": 4044,
      "ria": 4045,
      "Ġyourselves": 4046,
      "ained": 4047,
      "Ġride": 4048,
      "Ġimag": 4049,
      "SEBAST": 4050,
      "Ġways": 4051,
      "Ġendure": 4052,
      "UND": 4053,
      "Ġcorrupt": 4054,
      "Ġawhile": 4055,
      "NEZE": 4056,
      "Ġembrace": 4057,
      "Ġknees": 4058,
      "Ġtrouble": 4059,
      "Ġancient": 4060,
      "ĠSTEP": 4061,
      "Ġsafety": 4062,
      "SEBASTIAN": 4063,
      "17": 4064,
      "LOR": 4065,
      "nes": 4066,
      "take": 4067,
      "ĠQU": 4068,
      "Ġtree": 4069,
      "Ġsqu": 4070,
      "Ġwond": 4071,
      "ising": 4072,
      "utation": 4073,
      "ĊĠĠĠĠĠĠĠĠĠĠĠĠ": 4074,
      "Ġsto": 4075,
      "ĠMartius": 4076,
      "INC": 4077,
      "ART": 4078,
      "ico": 4079,
      "Ġswift": 4080,
      "istol": 4081,
      "Ġhonesty": 4082,
      "LAFEW": 4083,
      "ETR": 4084,
      "Ġcompan": 4085,
      "ission": 4086,
      "Ġexcept": 4087,
      "Ġvex": 4088,
      "Ġidle": 4089,
      "EPHIST": 4090,
      "Ġjewel": 4091,
      "ĠVenice": 4092,
      "ĠHamlet": 4093,
      "ĠHIERO": 4094,
      "omerset": 4095,
      "Bet": 4096,
      "CAM": 4097,
      "DAU": 4098,
      "King": 4099,
      "ras": 4100,
      "Ġaid": 4101,
      "Ġwings": 4102,
      "Ġdiffe": 4103,
      "Ġgross": 4104,
      "iment": 4105,
      "ĠTower": 4106,
      "rice": 4107,
      "Ġweight": 4108,
      "ĠCAL": 4109,
      "ĠBardolph": 4110,
      "ump": 4111,
      "Ġwhence": 4112,
      "Ġleaves": 4113,
      "lip": 4114,
      "Ġdesires": 4115,
      "Ġdesperate": 4116,
      "Ġcheek": 4117,
      "CAP": 4118,
      "Ġmonster": 4119,
      "Ġjudg": 4120,
      "Lodo": 4121,
      "ĠFERNEZE": 4122,
      "Ġkneel": 4123,
      "Under": 4124,
      "pla": 4125,
      "ront": 4126,
      "where": 4127,
      "ĠSomerset": 4128,
      "ĠMAT": 4129,
      "ĠCO": 4130,
      "Ġdebt": 4131,
      "cked": 4132,
      "ONIUS": 4133,
      "Ġblame": 4134,
      "Ġhadst": 4135,
      "ressed": 4136,
      "ollow": 4137,
      "Ġrude": 4138,
      "REW": 4139,
      "Ġpersu": 4140,
      "Ġborne": 4141,
      "ĠTroy": 4142,
      "ĠLeon": 4143,
      "orenzo": 4144,
      "ĠMURDERER": 4145,
      "18": 4146,
      "CR": 4147,
      "ECH": 4148,
      "IGO": 4149,
      "OO": 4150,
      "_]": 4151,
      "cus": 4152,
      "par": 4153,
      "son": 4154,
      "Ġsens": 4155,
      "Ġband": 4156,
      "Ġdue": 4157,
      "Ġdign": 4158,
      "Ġbew": 4159,
      "Ġease": 4160,
      "entio": 4161,
      "rain": 4162,
      "ĠMac": 4163,
      "ĠWest": 4164,
      "Ġsolemn": 4165,
      "Ġdemand": 4166,
      "pey": 4167,
      "LEM": 4168,
      "Ġdism": 4169,
      "Ġalso": 4170,
      "Ġdouble": 4171,
      "Ġsometimes": 4172,
      "Twas": 4173,
      "Ġdrop": 4174,
      "Ġtowards": 4175,
      "Ab": 4176,
      "HUM": 4177,
      "SO": 4178,
      "TEN": 4179,
      "ait": 4180,
      "acy": 4181,
      "Ã¨": 4182,
      "Ġsland": 4183,
      "Ġmaking": 4184,
      "Ġwont": 4185,
      "oral": 4186,
      "Ġfain": 4187,
      "Ġclaim": 4188,
      "Ġdet": 4189,
      "Ġincl": 4190,
      "Ġreco": 4191,
      "ĠMEPHIST": 4192,
      "ĠGre": 4193,
      "Ġshew": 4194,
      "erest": 4195,
      "Ġunless": 4196,
      "Ġalways": 4197,
      "Ġcover": 4198,
      "Ġwritten": 4199,
      "RIAN": 4200,
      "Ġbeggar": 4201,
      "Ġfollows": 4202,
      "Ġbestow": 4203,
      "Ġcourtes": 4204,
      "ĠTHO": 4205,
      "ĠTHER": 4206,
      "Ġthrone": 4207,
      "Ġbanished": 4208,
      "Ġdrum": 4209,
      "Ġfamil": 4210,
      "Ġwretch": 4211,
      "ĠTitus": 4212,
      "Ġcustom": 4213,
      "garet": 4214,
      "Hold": 4215,
      "Into": 4216,
      "VIUS": 4217,
      "kin": 4218,
      "some": 4219,
      "itic": 4220,
      "Ġlest": 4221,
      "Ġtop": 4222,
      "ators": 4223,
      "ĠSh": 4224,
      "ĠSay": 4225,
      "Ġkins": 4226,
      "ĠPol": 4227,
      "elt": 4228,
      "Ġsail": 4229,
      "Ġexam": 4230,
      "Ġ10": 4231,
      "Ġearn": 4232,
      "Ġsmile": 4233,
      "Ġtreasure": 4234,
      "UMBER": 4235,
      "Ġbird": 4236,
      "ĠFlore": 4237,
      "Ġsteel": 4238,
      "Ġsimple": 4239,
      "Ġmemory": 4240,
      "IDAMAS": 4241,
      "CLO": 4242,
      "LORD": 4243,
      "light": 4244,
      "Ġ9": 4245,
      "Ġfish": 4246,
      "Ġfond": 4247,
      "enance": 4248,
      "Ġpair": 4249,
      "ances": 4250,
      "ĠSe": 4251,
      "Ġstick": 4252,
      "ĠPis": 4253,
      "Ġnob": 4254,
      "THERS": 4255,
      "Ġunf": 4256,
      "Ġhearing": 4257,
      "Ġappears": 4258,
      "Ġdiscourse": 4259,
      "Unless": 4260,
      "Ġregard": 4261,
      "Ġtyrant": 4262,
      "Ġutter": 4263,
      "IGHT": 4264,
      "ĠTHERIDAMAS": 4265,
      "19": 4266,
      "FRIAR": 4267,
      "MED": 4268,
      "bb": 4269,
      "cil": 4270,
      "iance": 4271,
      "rat": 4272,
      "Ġfurn": 4273,
      "Ġpin": 4274,
      "Ġpaid": 4275,
      "Ġgirl": 4276,
      "Ġev": 4277,
      "ĠSen": 4278,
      "Ġstep": 4279,
      "Ġones": 4280,
      "amon": 4281,
      "ĠPROS": 4282,
      "ruly": 4283,
      "Ġvenge": 4284,
      "Ġdisgu": 4285,
      "Ġcoz": 4286,
      "itting": 4287,
      ".--_": 4288,
      "ITES": 4289,
      "IDE": 4290,
      "Ġbodies": 4291,
      "Ġassure": 4292,
      "LYS": 4293,
      "Ġtempt": 4294,
      "Ġpossible": 4295,
      "Ġwinter": 4296,
      "DEMETR": 4297,
      "Ġfoes": 4298,
      "Ġthroat": 4299,
      "lowe": 4300,
      "DEMETRIUS": 4301,
      "pass": 4302,
      "shall": 4303,
      "vious": 4304,
      "omb": 4305,
      "Ġstomach": 4306,
      "Ġdoing": 4307,
      "ĠDEL": 4308,
      "ĊĊĠĠĠĠĠĠ": 4309,
      "INGS": 4310,
      "Ġdesert": 4311,
      "Ġruin": 4312,
      "blood": 4313,
      "Ġbrothers": 4314,
      "Ġfalls": 4315,
      "TRANIO": 4316,
      "Ġloue": 4317,
      "THERSITES": 4318,
      ".)": 4319,
      "After": 4320,
      "Never": 4321,
      "OPH": 4322,
      "ZA": 4323,
      "ZO": 4324,
      "ope": 4325,
      "roth": 4326,
      "val": 4327,
      "Ġeter": 4328,
      "hest": 4329,
      "oun": 4330,
      "Ġbull": 4331,
      "Ġfate": 4332,
      "ĠAB": 4333,
      "ĠCAR": 4334,
      "ĠWere": 4335,
      "ĠBass": 4336,
      "Ġdefend": 4337,
      "Ġsell": 4338,
      "Ġseat": 4339,
      "ĠFORD": 4340,
      "ĠLorenzo": 4341,
      "Ġmanners": 4342,
      "Ġamaz": 4343,
      "ulous": 4344,
      "Ġworn": 4345,
      "eeth": 4346,
      "Ġflowers": 4347,
      "Ġperhaps": 4348,
      "Ġclot": 4349,
      "Ġkeeps": 4350,
      "acher": 4351,
      "Dog": 4352,
      "ADRIAN": 4353,
      "OCTOR": 4354,
      "ĠExeunt": 4355,
      "Ġoaths": 4356,
      "POST": 4357,
      "Ġbride": 4358,
      "Ġransom": 4359,
      "Bel": 4360,
      "BOL": 4361,
      "Lord": 4362,
      "SES": 4363,
      "dain": 4364,
      "eas": 4365,
      "mit": 4366,
      "vi": 4367,
      "Ġz": 4368,
      "Ġmil": 4369,
      "Ġfro": 4370,
      "Ġhu": 4371,
      "ĠAm": 4372,
      "ades": 4373,
      "Ġstart": 4374,
      "ĠCam": 4375,
      "ANNE": 4376,
      "UST": 4377,
      "oln": 4378,
      "Ġtwice": 4379,
      "Ġraise": 4380,
      "ANDER": 4381,
      "Ġremedy": 4382,
      "RUM": 4383,
      "Ġforest": 4384,
      "ointed": 4385,
      "ronic": 4386,
      "Ġexcuse": 4387,
      "Ġdirect": 4388,
      "HOSTESS": 4389,
      "Ġforbid": 4390,
      "Ġclouds": 4391,
      "ĠPompey": 4392,
      "Ã¨d": 4393,
      "First": 4394,
      "GON": 4395,
      "Mine": 4396,
      "Master": 4397,
      "Ġtort": 4398,
      "Ġbought": 4399,
      "ishop": 4400,
      "Ġow": 4401,
      "Ġdry": 4402,
      "Ġleng": 4403,
      "Ġheels": 4404,
      "Ġgrown": 4405,
      "Ġhap": 4406,
      "ĠAchilles": 4407,
      "ĠSweet": 4408,
      "raid": 4409,
      "ĠWas": 4410,
      "ĠBen": 4411,
      "thy": 4412,
      "Ġvol": 4413,
      "ustice": 4414,
      "ĠTheir": 4415,
      "THUMBER": 4416,
      "Ġshouldst": 4417,
      "Ġchall": 4418,
      "Ġwherein": 4419,
      "Ġgrand": 4420,
      "Ġcourage": 4421,
      "Ġtrade": 4422,
      "Ġimper": 4423,
      "SEY": 4424,
      "Ġarmour": 4425,
      "Ġbearing": 4426,
      "Ġbegg": 4427,
      "Ġpassage": 4428,
      "Ġempt": 4429,
      "Ġhanged": 4430,
      "ĠMargaret": 4431,
      "ĠANDREW": 4432,
      "Ġobject": 4433,
      "Ġacquaint": 4434,
      "Ġpunish": 4435,
      "MALVOLIO": 4436,
      "Ġpicture": 4437,
      "Ġetern": 4438,
      "THUMBERLAND": 4439,
      "Br": 4440,
      "ping": 4441,
      "vish": 4442,
      "Ġteeth": 4443,
      "Ġsits": 4444,
      "Ġwag": 4445,
      "Ġfancy": 4446,
      "Ġcal": 4447,
      "Ġnumber": 4448,
      "Ġgull": 4449,
      "cend": 4450,
      "Ġmelt": 4451,
      "ĠFRIAR": 4452,
      "Ġwash": 4453,
      "Ġfears": 4454,
      "Ġcontr": 4455,
      "ENTIO": 4456,
      "Ġpriest": 4457,
      "Ġholds": 4458,
      "Ġmaiden": 4459,
      "sooth": 4460,
      "Ġcolours": 4461,
      "POLONIUS": 4462,
      "Ġcursed": 4463,
      "EVANS": 4464,
      "Ġfinger": 4465,
      "Ġhorns": 4466,
      "Cud": 4467,
      "GA": 4468,
      "Ham": 4469,
      "Nothing": 4470,
      "ton": 4471,
      "Ġmart": 4472,
      "Ġball": 4473,
      "llow": 4474,
      "Ġfoe": 4475,
      "Ġpull": 4476,
      "uten": 4477,
      "Ġforsw": 4478,
      "Ġrevere": 4479,
      "uring": 4480,
      "ams": 4481,
      "ĠCLEM": 4482,
      "roy": 4483,
      "ĠPart": 4484,
      "INS": 4485,
      "Ġknaves": 4486,
      "Ġshut": 4487,
      "ement": 4488,
      "Ġlovely": 4489,
      "tos": 4490,
      "Ġsav": 4491,
      "Ġflies": 4492,
      "Ġflower": 4493,
      "Ġgreatness": 4494,
      "Ġfathers": 4495,
      "Ġappre": 4496,
      "Ġcompass": 4497,
      "prus": 4498,
      "Ġdevice": 4499,
      "Ġfamous": 4500,
      "LIFF": 4501,
      "ĠSoldiers": 4502,
      "Ġlanguage": 4503,
      "Ġrascal": 4504,
      "Cas": 4505,
      "KATHER": 4506,
      "NON": 4507,
      "cite": 4508,
      "do": 4509,
      "Ġtable": 4510,
      "Ġaim": 4511,
      "Ġaught": 4512,
      "Ġwaste": 4513,
      "Ġbastard": 4514,
      "Ġfol": 4515,
      "Ġlament": 4516,
      "Ġyea": 4517,
      "Ġweary": 4518,
      "ĠBol": 4519,
      "eave": 4520,
      "CHESS": 4521,
      "Ġmadness": 4522,
      "LEAR": 4523,
      "LOCK": 4524,
      "Ġrule": 4525,
      "ocks": 4526,
      "Ġnatural": 4527,
      "phin": 4528,
      "ĠAnne": 4529,
      "Ġhappiness": 4530,
      "Ġintent": 4531,
      "Ġbroken": 4532,
      "ĠCassius": 4533,
      "phew": 4534,
      "Ġundone": 4535,
      "HERM": 4536,
      "Ġtorment": 4537,
      "Ġequal": 4538,
      "Ġmalice": 4539,
      "Ġexecution": 4540,
      "ĠFriar": 4541,
      "Ġvictory": 4542,
      "Ġcharacter": 4543,
      "ĠUpon": 4544,
      "Ġpear": 4545,
      "ourney": 4546,
      "idence": 4547,
      "Ġrealm": 4548,
      "ĠCal": 4549,
      "Ġloath": 4550,
      "icy": 4551,
      "icate": 4552,
      "resent": 4553,
      "Ġarri": 4554,
      "ĠThough": 4555,
      "ILLO": 4556,
      "Ġlean": 4557,
      "Without": 4558,
      "Ġprevent": 4559,
      "FFIC": 4560,
      "ails": 4561,
      "DUCHESS": 4562,
      "Ġguilty": 4563,
      "Ġhumble": 4564,
      "Ġtrem": 4565,
      "Ġgrows": 4566,
      "Ġforgive": 4567,
      "Ġeasy": 4568,
      "YMBEL": 4569,
      "Ġproclaim": 4570,
      "Ġcloak": 4571,
      "YMBELINE": 4572,
      "CYMBELINE": 4573,
      "Des": 4574,
      "Indeed": 4575,
      "ead": 4576,
      "ext": 4577,
      "ivil": 4578,
      "pit": 4579,
      "tle": 4580,
      "Ġmain": 4581,
      "Ġcuck": 4582,
      "Ġdig": 4583,
      "Ġled": 4584,
      "Ġnaked": 4585,
      "Ġhit": 4586,
      "ator": 4587,
      "Ġbend": 4588,
      "ĠTill": 4589,
      "Ġstones": 4590,
      "ĠCall": 4591,
      "ĠBan": 4592,
      "iling": 4593,
      "Ġnephew": 4594,
      "ĠDis": 4595,
      "STER": 4596,
      "Ġgoodness": 4597,
      "orthi": 4598,
      "peci": 4599,
      "Ġrose": 4600,
      "Ġthinks": 4601,
      "Ġgreatest": 4602,
      "Ġwarm": 4603,
      "Ġwarlike": 4604,
      "Ġtricks": 4605,
      "CONST": 4606,
      "Ġguilt": 4607,
      "Ġbanqu": 4608,
      "Ġadvantage": 4609,
      "Ġtyran": 4610,
      "Ġmirth": 4611,
      "ĠCharles": 4612,
      "Ġneighbour": 4613,
      "Ġargument": 4614,
      "Ġpieces": 4615,
      "KATHERINA": 4616,
      "BARDOLPH": 4617,
      "PUC": 4618,
      "VIR": 4619,
      "came": 4620,
      "hor": 4621,
      "rees": 4622,
      "isbury": 4623,
      "Ġfood": 4624,
      "Ġfun": 4625,
      "Ġfirm": 4626,
      "ingbroke": 4627,
      "rius": 4628,
      "ĠWITH": 4629,
      "ĠPet": 4630,
      "Ġvan": 4631,
      "Ġshepherd": 4632,
      "igence": 4633,
      "Ġmayst": 4634,
      "ĠKAS": 4635,
      "Ġheavenly": 4636,
      "Ġbrains": 4637,
      "Ġsmell": 4638,
      "Ġconsider": 4639,
      "voc": 4640,
      "IANO": 4641,
      "Ġbuild": 4642,
      "Flu": 4643,
      "Ġfreely": 4644,
      "Ġconstant": 4645,
      "Ġadmir": 4646,
      "Ġstudy": 4647,
      "Ġcounterfeit": 4648,
      "ĠSENATOR": 4649,
      "ĠMilan": 4650,
      "Those": 4651,
      "eg": 4652,
      "oon": 4653,
      "pic": 4654,
      "Ġ7": 4655,
      "Ġmaint": 4656,
      "Ġbrow": 4657,
      "Ġbig": 4658,
      "Ġfought": 4659,
      "Ġfix": 4660,
      "Ġder": 4661,
      "Ġlines": 4662,
      "Ġnames": 4663,
      "Ġnaught": 4664,
      "omed": 4665,
      "Ġforsooth": 4666,
      "ĊĠĠĠĠĠ": 4667,
      "ĠMake": 4668,
      "ĠMAC": 4669,
      "ĠWATCH": 4670,
      "ros": 4671,
      "Ġsearch": 4672,
      "ĠPeace": 4673,
      "INO": 4674,
      "ĠLod": 4675,
      "Ġcomb": 4676,
      "STONE": 4677,
      "erers": 4678,
      "Ġblows": 4679,
      "ĠJack": 4680,
      "assad": 4681,
      "oses": 4682,
      "Ġmeaning": 4683,
      "Ġends": 4684,
      "ULYS": 4685,
      "Stay": 4686,
      "ĠLOVE": 4687,
      "CALUS": 4688,
      "NORTHUMBERLAND": 4689,
      "Ġgovernor": 4690,
      "Ġquality": 4691,
      "ĠRosal": 4692,
      "Ġdisgrace": 4693,
      "ULYSSES": 4694,
      "..": 4695,
      "GRAT": 4696,
      "Hear": 4697,
      "VO": 4698,
      "YLOCK": 4699,
      "fri": 4700,
      "net": 4701,
      "time": 4702,
      "rep": 4703,
      "reet": 4704,
      "Ġbrows": 4705,
      "Ġod": 4706,
      "Ġobed": 4707,
      "Ġowe": 4708,
      "Ġdust": 4709,
      "Ġdeter": 4710,
      "Ġnun": 4711,
      "idius": 4712,
      "Ġrece": 4713,
      "ENZO": 4714,
      "Ġknife": 4715,
      "Ġshot": 4716,
      "ESCALUS": 4717,
      "OLSEY": 4718,
      "Think": 4719,
      "auphin": 4720,
      "Ġquoth": 4721,
      "cian": 4722,
      "Ġ13": 4723,
      "Ġlooked": 4724,
      "Ġwhither": 4725,
      "Ġimport": 4726,
      "Ġsubstance": 4727,
      "Ġvirtues": 4728,
      "SHYLOCK": 4729,
      "altha": 4730,
      "Ġcondu": 4731,
      "cript": 4732,
      "incoln": 4733,
      "Ġiron": 4734,
      "Ġschool": 4735,
      "Ġvirgin": 4736,
      "Ġjudgment": 4737,
      "ADRIANA": 4738,
      "utenant": 4739,
      "ĠBolingbroke": 4740,
      "26": 4741,
      "?--": 4742,
      "CLIFF": 4743,
      "En": 4744,
      "Eyre": 4745,
      "HORT": 4746,
      "SON": 4747,
      "WOLSEY": 4748,
      "fall": 4749,
      "na": 4750,
      "ining": 4751,
      "Ġburd": 4752,
      "Ġcat": 4753,
      "Ġcure": 4754,
      "ences": 4755,
      "Ġmend": 4756,
      "ĠTECH": 4757,
      "ĠSince": 4758,
      "._,": 4759,
      "Ġstab": 4760,
      "ĠFran": 4761,
      "Ġspare": 4762,
      "Ġconvey": 4763,
      "ELLES": 4764,
      "ĠValent": 4765,
      "Ġfriar": 4766,
      "ILL": 4767,
      "Ġbreed": 4768,
      "Ġlived": 4769,
      "Ġchanged": 4770,
      "Ġmisery": 4771,
      "APT": 4772,
      "ĠNorth": 4773,
      "DERIGO": 4774,
      "Ġsubjects": 4775,
      "ĠDeath": 4776,
      "Ġfigure": 4777,
      "ĠCoriol": 4778,
      "ĠJuliet": 4779,
      "HUMUS": 4780,
      "Ġfamiliar": 4781,
      "Ġvengeance": 4782,
      "HORTENS": 4783,
      "ĠTECHELLES": 4784,
      "Ca": 4785,
      "Every": 4786,
      "Fortune": 4787,
      "VIA": 4788,
      "afe": 4789,
      "dig": 4790,
      "ped": 4791,
      "thi": 4792,
      "ym": 4793,
      "zz": 4794,
      "Ġwide": 4795,
      "Ġduc": 4796,
      "omas": 4797,
      "illo": 4798,
      "rald": 4799,
      "Ġstore": 4800,
      "Ġstol": 4801,
      "Ġreward": 4802,
      "Ġreasons": 4803,
      "ĠMust": 4804,
      "ĠMars": 4805,
      "verse": 4806,
      "amed": 4807,
      "ĠBaltha": 4808,
      "ANE": 4809,
      "Ġlovers": 4810,
      "Ġvows": 4811,
      "ĠDAP": 4812,
      "ĠDauphin": 4813,
      "Ġfaces": 4814,
      "inds": 4815,
      "ĠNever": 4816,
      "CHIMO": 4817,
      "IACHIMO": 4818,
      "Ġchain": 4819,
      "ASIDE": 4820,
      "ĠĠĠĠĠĠĠĠĠĠĠĠĠĠĠĠĠ": 4821,
      "udge": 4822,
      "Ġwrought": 4823,
      "Ġwhis": 4824,
      "Ġrain": 4825,
      "DUFF": 4826,
      "Ġkilled": 4827,
      "Ġbreathe": 4828,
      "ĠSpanish": 4829,
      "Ġsupper": 4830,
      "Ġsupposed": 4831,
      "ĠShallow": 4832,
      "ĠHero": 4833,
      "Ġgreet": 4834,
      "ĠProsper": 4835,
      "Ġjudgement": 4836,
      "umberland": 4837,
      "ĠCyprus": 4838,
      "ĠSECOND": 4839,
      "Ġviolent": 4840,
      "Ġencounter": 4841,
      "Ġelder": 4842,
      "fficers": 4843,
      "Ġearnest": 4844,
      "CLOTEN": 4845,
      "POSTHUMUS": 4846,
      "ĠFrancis": 4847,
      "20": 4848,
      "Lan": 4849,
      "Long": 4850,
      "WER": 4851,
      "Welcome": 4852,
      "dem": 4853,
      "hum": 4854,
      "ipe": 4855,
      "nat": 4856,
      "Ġsau": 4857,
      "ination": 4858,
      "Ġmild": 4859,
      "Ġcivil": 4860,
      "ĠIago": 4861,
      "Ġhol": 4862,
      "Ġgate": 4863,
      "Ġinform": 4864,
      "ĠTO": 4865,
      "Ġasleep": 4866,
      "ĠHOR": 4867,
      "ĠBEL": 4868,
      "Ġdoom": 4869,
      "Ġshare": 4870,
      "ember": 4871,
      "elve": 4872,
      "Ġsomewhat": 4873,
      "Ġabuse": 4874,
      "btle": 4875,
      "Ġdispatch": 4876,
      "ĠFaith": 4877,
      "Ġcondem": 4878,
      "Ġ159": 4879,
      "Ġsmooth": 4880,
      "ĠQUICK": 4881,
      "Ġbanquet": 4882,
      "ĠValentine": 4883,
      "23": 4884,
      "40": 4885,
      "CAR": 4886,
      "GR": 4887,
      "Know": 4888,
      "Ġtune": 4889,
      "ino": 4890,
      "Ġcried": 4891,
      "Ġreck": 4892,
      "ĠMal": 4893,
      "ĠCAP": 4894,
      "ĠPa": 4895,
      "Ġlover": 4896,
      "Ġves": 4897,
      "Ġvice": 4898,
      "allow": 4899,
      "Ġswell": 4900,
      "THUR": 4901,
      "Ġbrings": 4902,
      "Ġalt": 4903,
      "Ġflight": 4904,
      "Ġdeserve": 4905,
      "Ġplead": 4906,
      "Ġdeadly": 4907,
      "Ġtraged": 4908,
      "ĠEdm": 4909,
      "Ġhumbly": 4910,
      "Ġmischief": 4911,
      "Ġintell": 4912,
      "Ġcarried": 4913,
      "Ġwax": 4914,
      "Ġattempt": 4915,
      "ĠPalamon": 4916,
      "Ġapproach": 4917,
      "Ġabsence": 4918,
      "Ġjewels": 4919,
      "Ġgifts": 4920,
      "ughter": 4921,
      "Ġofficer": 4922,
      "ĠSalisbury": 4923,
      "Ġreverend": 4924,
      "ĠQUICKLY": 4925,
      "Hark": 4926,
      "OOL": 4927,
      "Sus": 4928,
      "den": 4929,
      "iam": 4930,
      "known": 4931,
      "oke": 4932,
      "was": 4933,
      "enoc": 4934,
      "Ġpill": 4935,
      "Ġbeyond": 4936,
      "etrius": 4937,
      "rible": 4938,
      "Ġweigh": 4939,
      "alks": 4940,
      "vert": 4941,
      "ĠCom": 4942,
      "ĠPy": 4943,
      "ĠLy": 4944,
      "Ġknee": 4945,
      "emetrius": 4946,
      ".]:": 4947,
      "INGBROKE": 4948,
      "Ġfright": 4949,
      "ILLES": 4950,
      "Ġgentlewoman": 4951,
      "thee": 4952,
      "Ġimm": 4953,
      "Ġbegins": 4954,
      "Ġfeather": 4955,
      "Ġcountenance": 4956,
      "Ġsingle": 4957,
      "IGAIL": 4958,
      "UCHSTONE": 4959,
      "upid": 4960,
      "Ġestate": 4961,
      "Ġshortly": 4962,
      "Ġtrumpet": 4963,
      "Ġtrumpets": 4964,
      "TOUCHSTONE": 4965,
      "ACHILLES": 4966,
      "Ġangel": 4967,
      "Ġfiery": 4968,
      "Ġinnocent": 4969,
      "Ġdearest": 4970,
      "ĠDELIO": 4971,
      "pecially": 4972,
      "enocrate": 4973,
      "Ad": 4974,
      "AUT": 4975,
      "Could": 4976,
      "Fie": 4977,
      "Lest": 4978,
      "Unto": 4979,
      "bes": 4980,
      "foot": 4981,
      "iate": 4982,
      "iving": 4983,
      "lay": 4984,
      "pet": 4985,
      "Ã¦": 4986,
      "inite": 4987,
      "hand": 4988,
      "ision": 4989,
      "Ġfart": 4990,
      "arm": 4991,
      "Ġpack": 4992,
      "Ġpier": 4993,
      "Ġgaz": 4994,
      "Ġgarden": 4995,
      "Ġhaz": 4996,
      "utch": 4997,
      "ĠMark": 4998,
      "ĠCOB": 4999,
      "ĠBl": 5000,
      "ĠBian": 5001,
      "asting": 5002,
      "ung": 5003,
      "Ġsack": 5004,
      "Ġuns": 5005,
      "Ġalas": 5006,
      "ague": 5007,
      "Ġflow": 5008,
      "Ġflood": 5009,
      "Ġ19": 5010,
      "fty": 5011,
      "mpet": 5012,
      "Ġfollowers": 5013,
      "ĠCapt": 5014,
      "Ġtreacher": 5015,
      "twill": 5016,
      "Reads": 5017,
      "ĠUn": 5018,
      "cape": 5019,
      "Ġminister": 5020,
      "ĠClifford": 5021,
      "ĠZenocrate": 5022,
      "Ġreceived": 5023,
      "Ġthrice": 5024,
      "Ġdishonour": 5025,
      "Ġfingers": 5026,
      "Ġmourn": 5027,
      "BASSANIO": 5028,
      "CAMILLO": 5029,
      "Ġvessel": 5030,
      "25": 5031,
      "Gifford": 5032,
      "IX": 5033,
      "Made": 5034,
      "Qu": 5035,
      "cap": 5036,
      "folk": 5037,
      "good": 5038,
      "uce": 5039,
      "Ġaud": 5040,
      "iny": 5041,
      "Ġwol": 5042,
      "Ġfin": 5043,
      "Ġfil": 5044,
      "itch": 5045,
      "Ġcla": 5046,
      "Ġcup": 5047,
      "Ġpainted": 5048,
      "ative": 5049,
      "uts": 5050,
      "Ġforty": 5051,
      "ĠSat": 5052,
      "rab": 5053,
      "Ġrevol": 5054,
      "ĠMe": 5055,
      "ĠMad": 5056,
      "aine": 5057,
      "ĠFRI": 5058,
      "INUS": 5059,
      "Ġjourney": 5060,
      "Ġpox": 5061,
      "Ġleis": 5062,
      "Inf": 5063,
      "Ġpurcha": 5064,
      "Ġmerit": 5065,
      "Ġyounger": 5066,
      "Ġservants": 5067,
      "Ġhuman": 5068,
      "Ġpleased": 5069,
      "ASTINGS": 5070,
      "Ġshoem": 5071,
      "ERVING": 5072,
      "Ġesteem": 5073,
      "Ġdespair": 5074,
      "Ġpractice": 5075,
      "ĠHastings": 5076,
      "ĠABIGAIL": 5077,
      "BOLINGBROKE": 5078,
      "?âĢĶ": 5079,
      "Fort": 5080,
      "IF": 5081,
      "NIA": 5082,
      "gam": 5083,
      "soe": 5084,
      "Ġsy": 5085,
      "Ġsins": 5086,
      "inary": 5087,
      "Ġmessenger": 5088,
      "Ġwat": 5089,
      "Ġcardinal": 5090,
      "Ġda": 5091,
      "Ġdurst": 5092,
      "Ġpick": 5093,
      "Ġherald": 5094,
      "omorrow": 5095,
      "Ġghost": 5096,
      "Ġhabit": 5097,
      "utes": 5098,
      "ĠST": 5099,
      "ĠWin": 5100,
      "ĠHad": 5101,
      "ĠLike": 5102,
      "ques": 5103,
      "Ġshine": 5104,
      "Ġworks": 5105,
      "ALBOT": 5106,
      "Ġusur": 5107,
      "Ġjoint": 5108,
      "Ġenvy": 5109,
      "Ġ(?": 5110,
      "Ġcompl": 5111,
      "Ġglorious": 5112,
      "Ġfollowing": 5113,
      "Ġstranger": 5114,
      "Ġburied": 5115,
      "pense": 5116,
      "opat": 5117,
      "Ġgriefs": 5118,
      "Ġshop": 5119,
      "Ġaffairs": 5120,
      "Ġburning": 5121,
      "ĠPercy": 5122,
      "Ġamongst": 5123,
      "ĠScot": 5124,
      "Ġpolicy": 5125,
      "Ġcourtesy": 5126,
      "ĠFlorence": 5127,
      "Ġempty": 5128,
      "HORTENSIO": 5129,
      "ĠProspero": 5130,
      "BRA": 5131,
      "CUT": 5132,
      "Love": 5133,
      "LANCE": 5134,
      "Ne": 5135,
      "dge": 5136,
      "ivers": 5137,
      "Ġcher": 5138,
      "Ġcere": 5139,
      "edious": 5140,
      "chio": 5141,
      "aded": 5142,
      "rave": 5143,
      "amas": 5144,
      "ĠHath": 5145,
      "Ġseas": 5146,
      "Ġvill": 5147,
      "ĠGI": 5148,
      "Ġshrew": 5149,
      "Ġgoods": 5150,
      "Ġquit": 5151,
      "Ġdisease": 5152,
      "Ġserved": 5153,
      "Ġprevail": 5154,
      "Ġruff": 5155,
      "overed": 5156,
      "Ġmerchant": 5157,
      "Ġtrial": 5158,
      "Ġturns": 5159,
      "ĠĠĠĠĠĠĠĠĠĠĠĠĠĠ": 5160,
      "Ġminds": 5161,
      "Ġcharity": 5162,
      "Ġgrieve": 5163,
      "Ġlawful": 5164,
      "Ġbesides": 5165,
      "Ġbeaut": 5166,
      "Ġslaughter": 5167,
      "Two": 5168,
      "Ġaccept": 5169,
      "Ġawake": 5170,
      "IPPOL": 5171,
      "ĠCapul": 5172,
      "ĠProteus": 5173,
      "Ġmiserable": 5174,
      "ĠRosalind": 5175,
      "ĠFRIEND": 5176,
      "opatra": 5177,
      "FLU": 5178,
      "Ge": 5179,
      "Jonson": 5180,
      "long": 5181,
      "port": 5182,
      "rit": 5183,
      "rough": 5184,
      "wixt": 5185,
      "Ġbur": 5186,
      "ism": 5187,
      "ora": 5188,
      "Ġheight": 5189,
      "ĠSer": 5190,
      "ĠShould": 5191,
      "Ġreach": 5192,
      "Ġliqu": 5193,
      "ĠBE": 5194,
      "ĠFirk": 5195,
      "ruchio": 5196,
      "Ġlock": 5197,
      "asted": 5198,
      "ĠEp": 5199,
      "OLY": 5200,
      "Ġprint": 5201,
      "unate": 5202,
      "Ġunkind": 5203,
      "osca": 5204,
      "Ġtwelve": 5205,
      "Ġparty": 5206,
      "Ġ14": 5207,
      "Ġprize": 5208,
      "Ġkindness": 5209,
      "ISTA": 5210,
      "ĠCaius": 5211,
      "Ġmonarch": 5212,
      "Ġstreets": 5213,
      "EXE": 5214,
      "ursed": 5215,
      "Ġrelig": 5216,
      "Ġsatisfied": 5217,
      "ĠGreek": 5218,
      "Ġremembrance": 5219,
      "Ġlength": 5220,
      "ĠBianca": 5221,
      "Ġleisure": 5222,
      "28": 5223,
      "29": 5224,
      "BR": 5225,
      "BEN": 5226,
      "BAPT": 5227,
      "Ere": 5228,
      "HASTINGS": 5229,
      "iver": 5230,
      "jax": 5231,
      "lu": 5232,
      "mend": 5233,
      "ws": 5234,
      "hether": 5235,
      "Ġsour": 5236,
      "Ġmess": 5237,
      "Ġmass": 5238,
      "Ġcease": 5239,
      "ĠIndeed": 5240,
      "Ġthick": 5241,
      "Ġtomb": 5242,
      "uted": 5243,
      "ĠAR": 5244,
      "Ġeag": 5245,
      "Ġung": 5246,
      "ĠSuch": 5247,
      "rand": 5248,
      "ida": 5249,
      "ĠMadam": 5250,
      "ĠPri": 5251,
      "eless": 5252,
      "Ġoutward": 5253,
      "Ġprosper": 5254,
      "Ġroot": 5255,
      "Ġcoat": 5256,
      "liz": 5257,
      "ICO": 5258,
      "Ġpleasures": 5259,
      "Ġdevils": 5260,
      "Ġhardly": 5261,
      "ELLEN": 5262,
      "ĠVII": 5263,
      "Ġframe": 5264,
      "Ġforbear": 5265,
      "Ġaffections": 5266,
      "Ġclothes": 5267,
      "ĠCamillo": 5268,
      "Ġchallenge": 5269,
      "GRATIANO": 5270,
      "Caesar": 5271,
      "ERVINGMAN": 5272,
      "FLUELLEN": 5273,
      "BAPTISTA": 5274,
      "Cont": 5275,
      "Fus": 5276,
      "Gives": 5277,
      "bacc": 5278,
      "pre": 5279,
      "shi": 5280,
      "Ġtou": 5281,
      "Ġtaught": 5282,
      "inius": 5283,
      "Ġwing": 5284,
      "Ġbuck": 5285,
      "ering": 5286,
      "ency": 5287,
      "Ġeight": 5288,
      "ĠMa": 5289,
      "uses": 5290,
      "Ġliv": 5291,
      "ĠCLOWN": 5292,
      "ĠHIS": 5293,
      "thou": 5294,
      "Ġsuper": 5295,
      "ARIUS": 5296,
      "Ġspe": 5297,
      "ĠDi": 5298,
      "iege": 5299,
      "fered": 5300,
      "----": 5301,
      "ĠRO": 5302,
      "hered": 5303,
      "them": 5304,
      "lando": 5305,
      "Wherein": 5306,
      "uteous": 5307,
      "Ġsentence": 5308,
      "ĠArcite": 5309,
      "Ġruns": 5310,
      "Ġmaids": 5311,
      "Ġinterest": 5312,
      "Ġslaves": 5313,
      "Ġbelly": 5314,
      "Ġlimbs": 5315,
      "Ġweapon": 5316,
      "Ġweapons": 5317,
      "CHARM": 5318,
      "ĠBritain": 5319,
      "AUTOLY": 5320,
      "AUTOLYCUS": 5321,
      "CAN": 5322,
      "DOL": 5323,
      "father": 5324,
      "pir": 5325,
      "upon": 5326,
      "yer": 5327,
      "Ġtedious": 5328,
      "hend": 5329,
      "Ġsaint": 5330,
      "Ġmas": 5331,
      "Ġbag": 5332,
      "Ġpage": 5333,
      "Ġhoney": 5334,
      "atus": 5335,
      "ldom": 5336,
      "ĠSy": 5337,
      "Ġstock": 5338,
      "ĠMosca": 5339,
      "ĠPIS": 5340,
      "ENES": 5341,
      "ruction": 5342,
      "ella": 5343,
      "ouses": 5344,
      "ORGE": 5345,
      "ieur": 5346,
      "selfe": 5347,
      "pper": 5348,
      "Ġarrest": 5349,
      "ists": 5350,
      "ĠJUL": 5351,
      "Ġbrook": 5352,
      "Ġdisdain": 5353,
      "Ġalthough": 5354,
      "Ġwhereof": 5355,
      "Ġ17": 5356,
      "Ġperish": 5357,
      "ISBURY": 5358,
      "RUG": 5359,
      "twixt": 5360,
      "MARCUS": 5361,
      "Ġadvance": 5362,
      "Ġslow": 5363,
      "Ġextrem": 5364,
      "asket": 5365,
      "enedick": 5366,
      "Ġinstrument": 5367,
      "ĠSilvia": 5368,
      "COMINIUS": 5369,
      "Ġstorm": 5370,
      "ĠLeonato": 5371,
      "Ġducats": 5372,
      "EXEUNT": 5373,
      "Agrip": 5374,
      "MA": 5375,
      "MONT": 5376,
      "NO": 5377,
      "Whilst": 5378,
      "gon": 5379,
      "vous": 5380,
      "Ġ*": 5381,
      "Ġsalt": 5382,
      "inct": 5383,
      "Ġwake": 5384,
      "Ġbark": 5385,
      "arus": 5386,
      "Ġhid": 5387,
      "Ġgent": 5388,
      "sequ": 5389,
      "ĠSic": 5390,
      "Ġrenown": 5391,
      "ĠMost": 5392,
      "ĠCress": 5393,
      "ested": 5394,
      "ĠPILIA": 5395,
      "Ġsuck": 5396,
      "INT": 5397,
      "ific": 5398,
      "Ġshed": 5399,
      "Ġseeing": 5400,
      "Ġprodig": 5401,
      "Ġdiss": 5402,
      "Ġchair": 5403,
      "Ġflatt": 5404,
      "Ġcock": 5405,
      "Ġmarks": 5406,
      "Ġtells": 5407,
      "ĠStand": 5408,
      "Stri": 5409,
      "Ġdischar": 5410,
      "Ġstrive": 5411,
      "Ġvillains": 5412,
      "Ġwindow": 5413,
      "Ġreading": 5414,
      "ouchs": 5415,
      "Ġlands": 5416,
      "Ġgallants": 5417,
      "Ġsometime": 5418,
      "Ġcrave": 5419,
      "Ġknights": 5420,
      "Ġbeaten": 5421,
      "PROVO": 5422,
      "POINS": 5423,
      "ĠEmilia": 5424,
      "Ġdreadful": 5425,
      "GHTER": 5426,
      "BORZA": 5427,
      "Ġwondrous": 5428,
      "Ġburden": 5429,
      "PROVOST": 5430,
      "24": 5431,
      "27": 5432,
      "30": 5433,
      "Serv": 5434,
      "ium": 5435,
      "oard": 5436,
      "rish": 5437,
      "Ġtall": 5438,
      "held": 5439,
      "inia": 5440,
      "reed": 5441,
      "Ġdar": 5442,
      "arse": 5443,
      "Ġph": 5444,
      "Ġpor": 5445,
      "Ġhall": 5446,
      "ĠSERVINGMAN": 5447,
      "ĠMATH": 5448,
      "ERIUS": 5449,
      "Ġallow": 5450,
      "ĠDian": 5451,
      "STEPH": 5452,
      "Ġsheep": 5453,
      "Ġblush": 5454,
      "ELE": 5455,
      "Ġhollow": 5456,
      "Ġdisple": 5457,
      "ILER": 5458,
      "Ġappare": 5459,
      "Ġpursu": 5460,
      "ethought": 5461,
      "Ġtraitors": 5462,
      "IDIUS": 5463,
      "aced": 5464,
      "Ġconfirm": 5465,
      "Ġcharm": 5466,
      "ĠStay": 5467,
      "ĠArt": 5468,
      "Ġsounds": 5469,
      "ĠNorfolk": 5470,
      "Ġminute": 5471,
      "Ġmodesty": 5472,
      "JAILER": 5473,
      "Ġdespite": 5474,
      "Ġfatal": 5475,
      "Ġthrive": 5476,
      "Art": 5477,
      "Ġauthority": 5478,
      "ĠArthur": 5479,
      "Ġhigher": 5480,
      "DAUGHTER": 5481,
      "Ġkinsman": 5482,
      "STEPHANO": 5483,
      "BAL": 5484,
      "Dost": 5485,
      "Gentle": 5486,
      "GRUM": 5487,
      "Lo": 5488,
      "Methinks": 5489,
      "OUS": 5490,
      "SOM": 5491,
      "While": 5492,
      "ache": 5493,
      "col": 5494,
      "mine": 5495,
      "than": 5496,
      "uries": 5497,
      "zar": 5498,
      "Ġmiss": 5499,
      "Ġbind": 5500,
      "ester": 5501,
      "Ġdress": 5502,
      "Ġdares": 5503,
      "Ġnine": 5504,
      "aries": 5505,
      "Ġthie": 5506,
      "anct": 5507,
      "ĠTri": 5508,
      "ado": 5509,
      "ĠMalt": 5510,
      "roll": 5511,
      "ĠPand": 5512,
      "Ġhers": 5513,
      "thren": 5514,
      "hoe": 5515,
      "ĠEven": 5516,
      "oths": 5517,
      "Ġsweat": 5518,
      "Ġperf": 5519,
      "Ġperil": 5520,
      "Ġprefer": 5521,
      "Ġcomplex": 5522,
      "Ġcontri": 5523,
      "forth": 5524,
      "Ġhark": 5525,
      "ABLE": 5526,
      "Ġcurt": 5527,
      "Ġimposs": 5528,
      "Ġwinds": 5529,
      "MARINA": 5530,
      "ĠWilliam": 5531,
      "Ġshoe": 5532,
      "Ġtemper": 5533,
      "Ġweeping": 5534,
      "Ġsickness": 5535,
      "Ġdrops": 5536,
      "Ġfiend": 5537,
      "Ġsuddenly": 5538,
      "Ġconceit": 5539,
      "Ġsighs": 5540,
      "Ġchaste": 5541,
      "Ġdegree": 5542,
      "Ġbounty": 5543,
      "place": 5544,
      "Ġcuckold": 5545,
      "ĠNorthumberland": 5546,
      "Ġ(?)": 5547,
      "BENVOLIO": 5548,
      "CHARMIAN": 5549,
      "GRUMIO": 5550,
      "ĠMalta": 5551,
      "DIO": 5552,
      "Hodge": 5553,
      "Old": 5554,
      "dy": 5555,
      "dle": 5556,
      "give": 5557,
      "lock": 5558,
      "sed": 5559,
      "then": 5560,
      "wear": 5561,
      "Ġworthi": 5562,
      "happy": 5563,
      "Ġfed": 5564,
      "Ġfits": 5565,
      "enes": 5566,
      "Ġinfect": 5567,
      "Ġbecomes": 5568,
      "imper": 5569,
      "adies": 5570,
      "idings": 5571,
      "ĠHipp": 5572,
      "ĠHumour": 5573,
      "ERTES": 5574,
      "ĠEyre": 5575,
      "ĠDu": 5576,
      "ĠDemetrius": 5577,
      "Ġorn": 5578,
      "Ġblest": 5579,
      "ĠThomas": 5580,
      "Ġcoff": 5581,
      "URN": 5582,
      "ILLI": 5583,
      "LAERTES": 5584,
      "ETER": 5585,
      "Ġafraid": 5586,
      "void": 5587,
      "LUCENTIO": 5588,
      "Ġslight": 5589,
      "Ġmarket": 5590,
      "Ġdenied": 5591,
      "ĠExit": 5592,
      "Ġcastle": 5593,
      "Ġtavern": 5594,
      "ĠPericles": 5595,
      "Ġshift": 5596,
      "iddle": 5597,
      "MERCUT": 5598,
      "ybalt": 5599,
      "ĠCleopatra": 5600,
      "ĠMontague": 5601,
      "Ġslander": 5602,
      "MEDES": 5603,
      "Ġhazard": 5604,
      "ĠCaptain": 5605,
      "ĠCapulet": 5606,
      "Geo": 5607,
      "DIOMEDES": 5608,
      "MERCUTIO": 5609,
      "BY": 5610,
      "FOLK": 5611,
      "Great": 5612,
      "NARD": 5613,
      "Se": 5614,
      "cer": 5615,
      "gn": 5616,
      "master": 5617,
      "ns": 5618,
      "po": 5619,
      "Ġfla": 5620,
      "Ġcries": 5621,
      "ĠIm": 5622,
      "Ġpour": 5623,
      "Ġtow": 5624,
      "atrice": 5625,
      "ĠAL": 5626,
      "ĠSH": 5627,
      "Ġstaff": 5628,
      "ĠMathe": 5629,
      "ĠCupid": 5630,
      "cket": 5631,
      "ĠFair": 5632,
      "ERT": 5633,
      "ĠOFFIC": 5634,
      "ĠEliz": 5635,
      "emp": 5636,
      "ortens": 5637,
      "ĠKnow": 5638,
      "LEY": 5639,
      "Ġexper": 5640,
      "ĠVirtue": 5641,
      "ĠĠĠĠĠĠĠĠĠĠĠĠĠĠĠĠĠĠ": 5642,
      "Ġscur": 5643,
      "lier": 5644,
      "Ġprey": 5645,
      "Ġcommission": 5646,
      "Ġbrethren": 5647,
      "QUES": 5648,
      "Ġguess": 5649,
      "Ġaccording": 5650,
      "Ġbelong": 5651,
      "Ġpeers": 5652,
      "Ġpromised": 5653,
      "Ġaffli": 5654,
      "Ġlusty": 5655,
      "umphrey": 5656,
      "volio": 5657,
      "ĠLODO": 5658,
      "Ġverse": 5659,
      "Ġ1604": 5660,
      "Ġschol": 5661,
      "ĠItalian": 5662,
      "SALISBURY": 5663,
      "Ġdignity": 5664,
      "Ġmilk": 5665,
      "USTICE": 5666,
      "Ġcontrary": 5667,
      "ĠBalthazar": 5668,
      "demona": 5669,
      "ĠMatheo": 5670,
      "Eng": 5671,
      "PIR": 5672,
      "PIS": 5673,
      "draw": 5674,
      "horse": 5675,
      "off": 5676,
      "side": 5677,
      "ually": 5678,
      "Ġtame": 5679,
      "Ġtaking": 5680,
      "ounce": 5681,
      "Ġsore": 5682,
      "Ġmult": 5683,
      "Ġwomb": 5684,
      "lly": 5685,
      "Ġcam": 5686,
      "Ġcens": 5687,
      "Ġdim": 5688,
      "Ġniece": 5689,
      "stant": 5690,
      "oms": 5691,
      "leans": 5692,
      "ĠBur": 5693,
      "ĠBenedick": 5694,
      "ĠPistol": 5695,
      "quire": 5696,
      "ivered": 5697,
      "olute": 5698,
      "ĠRich": 5699,
      "umes": 5700,
      "Ġsaying": 5701,
      "RODERIGO": 5702,
      "Ġcop": 5703,
      "Ġscour": 5704,
      "Ġraven": 5705,
      "Ġadieu": 5706,
      "Ġsmiles": 5707,
      "Ġtravel": 5708,
      "Ġprice": 5709,
      "IDERIUS": 5710,
      "Ġresc": 5711,
      "CADE": 5712,
      "Ġdiscover": 5713,
      "atience": 5714,
      "Ġmeeting": 5715,
      "Ġbids": 5716,
      "Ġcares": 5717,
      "hilos": 5718,
      "Ġclean": 5719,
      "Ġprofit": 5720,
      "VOLUM": 5721,
      "JAQUES": 5722,
      "RATE": 5723,
      "Ġmistake": 5724,
      "GUIDERIUS": 5725,
      "Ġapart": 5726,
      "Ġlodging": 5727,
      "Ġmidnight": 5728,
      "aptist": 5729,
      "Ġignorant": 5730,
      "ĠMACBETH": 5731,
      "ĠGIU": 5732,
      "ĠJULIA": 5733,
      "HECT": 5734,
      "IOR": 5735,
      "IEL": 5736,
      "Me": 5737,
      "Per": 5738,
      "Poor": 5739,
      "Sings": 5740,
      "Turn": 5741,
      "action": 5742,
      "beth": 5743,
      "eld": 5744,
      "ogue": 5745,
      "uf": 5746,
      "Ġtidings": 5747,
      "Ġsink": 5748,
      "erman": 5749,
      "onius": 5750,
      "Ġfif": 5751,
      "ital": 5752,
      "Ġoh": 5753,
      "Ġdistress": 5754,
      "Ġdagger": 5755,
      "ank": 5756,
      "owder": 5757,
      "Ġhaunt": 5758,
      "Ġfors": 5759,
      "oops": 5760,
      "Ġstoop": 5761,
      "ĠWales": 5762,
      "ĠBo": 5763,
      "ĠFare": 5764,
      "ĠĠĠĠĠĠĠĠĠĠĠĠĠ": 5765,
      "Ġnobl": 5766,
      "ĠOfficers": 5767,
      "ĠDol": 5768,
      "romio": 5769,
      "ĠNE": 5770,
      "Ġtherein": 5771,
      "ared": 5772,
      "CHIE": 5773,
      "onsieur": 5774,
      "cial": 5775,
      "ĠĠĠĠĠĠĠĠĠĠĠĠĠĠĠĠĠĠĠ": 5776,
      "oys": 5777,
      "Ġflourish": 5778,
      "thello": 5779,
      "Ġputs": 5780,
      "ULINA": 5781,
      "Ġhumours": 5782,
      "Ġtread": 5783,
      "Ġseeming": 5784,
      "Ġstream": 5785,
      "avinia": 5786,
      "Ġlaws": 5787,
      "ĠMarcus": 5788,
      "MART": 5789,
      "MARIA": 5790,
      "Ġdisposition": 5791,
      "Ġspoil": 5792,
      "Ġspoken": 5793,
      "Ġrecord": 5794,
      "ĠProv": 5795,
      "Ġmoved": 5796,
      "Ġuntil": 5797,
      "ĠOnly": 5798,
      "Ġpitch": 5799,
      "Ġobserve": 5800,
      "Ġduchess": 5801,
      "ĠLucentio": 5802,
      "PAULINA": 5803,
      "Ġreverence": 5804,
      "ĠEmperor": 5805,
      "Ġmonths": 5806,
      "Ġventure": 5807,
      "Ġcitizens": 5808,
      "Ġcompanion": 5809,
      "Ġeternal": 5810,
      "natural": 5811,
      "ILLIAM": 5812,
      "BAW": 5813,
      "Corn": 5814,
      "Heaven": 5815,
      "MOR": 5816,
      "MIR": 5817,
      "Pardon": 5818,
      "TALBOT": 5819,
      "chamber": 5820,
      "ias": 5821,
      "look": 5822,
      "pers": 5823,
      "ta": 5824,
      "Ġbury": 5825,
      "Ġcrow": 5826,
      "Ġlin": 5827,
      "Ġlun": 5828,
      "Ġluck": 5829,
      "ĠInd": 5830,
      "Ġga": 5831,
      "Ġhaw": 5832,
      "irty": 5833,
      "ention": 5834,
      "riff": 5835,
      "ride": 5836,
      "Ġrender": 5837,
      "ĠCob": 5838,
      "Ġnegle": 5839,
      "pping": 5840,
      "ĠRalph": 5841,
      "Ġsway": 5842,
      "ept": 5843,
      "ĠJUSTICE": 5844,
      "ĠKather": 5845,
      "IAS": 5846,
      "Ġrock": 5847,
      "Ġleague": 5848,
      "lied": 5849,
      "Ġclim": 5850,
      "Ġplaces": 5851,
      "Ġplayed": 5852,
      "EMIO": 5853,
      "ĠANA": 5854,
      "Ġfollowed": 5855,
      "Ġbelow": 5856,
      "Still": 5857,
      "Ġretire": 5858,
      "ĠOrleans": 5859,
      "Flourish": 5860,
      "otted": 5861,
      "Ġsorrows": 5862,
      "Ġbirds": 5863,
      "Ġincre": 5864,
      "Ġvoices": 5865,
      "Ġbooks": 5866,
      "Ġextre": 5867,
      "Ġmodest": 5868,
      "Ġprepar": 5869,
      "MACDUFF": 5870,
      "Ġacquainted": 5871,
      "NORFOLK": 5872,
      "BELARIUS": 5873,
      "Ġangels": 5874,
      "Ġtempest": 5875,
      "SILVIA": 5876,
      "Ġbenefit": 5877,
      "OPHELIA": 5878,
      "Ġhuge": 5879,
      "ronicus": 5880,
      "Ġmaintain": 5881,
      "GREMIO": 5882,
      "ĠDiomed": 5883,
      "ortensio": 5884,
      "PISANIO": 5885,
      "Am": 5886,
      "AAR": 5887,
      "Besides": 5888,
      "COL": 5889,
      "Draw": 5890,
      "EAR": 5891,
      "FLA": 5892,
      "Fair": 5893,
      "Too": 5894,
      "Win": 5895,
      "YER": 5896,
      "ele": 5897,
      "who": 5898,
      "Ġwra": 5899,
      "Ġdumb": 5900,
      "Ġhind": 5901,
      "adua": 5902,
      "ĠMerc": 5903,
      "ĠCar": 5904,
      "ĠCorn": 5905,
      "ĠWilt": 5906,
      "Ġdogs": 5907,
      "ĠFR": 5908,
      "ĠPeter": 5909,
      "geon": 5910,
      "eau": 5911,
      "ĠLAW": 5912,
      "outs": 5913,
      "igo": 5914,
      "ĠKN": 5915,
      "Ġunb": 5916,
      "Ġunse": 5917,
      "Ġdissem": 5918,
      "Ġheav": 5919,
      "aph": 5920,
      "Ġcler": 5921,
      "Ġprayer": 5922,
      "Ġarmed": 5923,
      "Ġbread": 5924,
      "Ġbegan": 5925,
      "IMP": 5926,
      "Ġreputation": 5927,
      "Ġtrif": 5928,
      "Ġguest": 5929,
      "Ġdiam": 5930,
      "Ġgrat": 5931,
      "Ġsilent": 5932,
      "ĠAlb": 5933,
      "Ġcrack": 5934,
      "Ġadvice": 5935,
      "iety": 5936,
      "mediate": 5937,
      "TAIN": 5938,
      "POLIX": 5939,
      "Ġundo": 5940,
      "Ġentertainment": 5941,
      "Ġwounded": 5942,
      "ĠĠĠĠĠĠĠĠĠĠĠĠĠĠĠĠĠĠĠĠĠĠ": 5943,
      "worthy": 5944,
      "LENDER": 5945,
      "ĠDesdemona": 5946,
      "viour": 5947,
      "Ġacquaintance": 5948,
      "Ġpearl": 5949,
      "ĠPaul": 5950,
      "VOLUMNIA": 5951,
      "HECTOR": 5952,
      "AARON": 5953,
      "POLIXENES": 5954,
      ");": 5955,
      "Bring": 5956,
      "Has": 5957,
      "MUND": 5958,
      "None": 5959,
      "Save": 5960,
      "bear": 5961,
      "cle": 5962,
      "des": 5963,
      "maid": 5964,
      "Ġsides": 5965,
      "inate": 5966,
      "rels": 5967,
      "Ġbred": 5968,
      "erd": 5969,
      "Ġfelt": 5970,
      "enius": 5971,
      "Ġdot": 5972,
      "Ġpil": 5973,
      "oment": 5974,
      "ĠAjax": 5975,
      "ĠMER": 5976,
      "ĠCourt": 5977,
      "ĠHans": 5978,
      "Ġseest": 5979,
      "Ġseason": 5980,
      "ĠPH": 5981,
      "ĠPR": 5982,
      "ctav": 5983,
      "ĠOthello": 5984,
      "Ġspake": 5985,
      "Ġshr": 5986,
      "emember": 5987,
      "Ġorig": 5988,
      "ĠNature": 5989,
      "ĠKATHER": 5990,
      "Ġsacri": 5991,
      "Ġrash": 5992,
      "Ġrotten": 5993,
      "ickle": 5994,
      "Ġremains": 5995,
      "Ġbeloved": 5996,
      "Ġassur": 5997,
      "Sirrah": 5998,
      "Ġvalue": 5999,
      "Ġsilk": 6000,
      "Ġcreatures": 6001,
      "earer": 6002,
      "LUCE": 6003,
      "Prithee": 6004,
      "Ġambition": 6005,
      "Ġexample": 6006,
      "Ġimpossible": 6007,
      "hilosop": 6008,
      "aptista": 6009,
      "CHIEF": 6010,
      "BAWD": 6011,
      "ĠKATHERINE": 6012,
      ",âĢĻ": 6013,
      "Gav": 6014,
      "Hel": 6015,
      "Kne": 6016,
      "Keep": 6017,
      "RENCE": 6018,
      "SLENDER": 6019,
      "VICO": 6020,
      "hist": 6021,
      "je": 6022,
      "jo": 6023,
      "wife": 6024,
      "~._": 6025,
      "Ġapt": 6026,
      "Ġwoes": 6027,
      "onest": 6028,
      "Ġfant": 6029,
      "Ġnon": 6030,
      "Ġnurse": 6031,
      "Ġpress": 6032,
      "Ġbecame": 6033,
      "chb": 6034,
      "ĊĠĠĠĠĠĠĠĠĠĠĠĠĠĠĠĠĠĠĠĠĠĠĠĠĠĠĠĠĠĠĠĠĠĠĠĠ": 6035,
      "Ġstain": 6036,
      "Ġrepe": 6037,
      "ĠCo": 6038,
      "ĠHence": 6039,
      "ĠHark": 6040,
      "ĠHumphrey": 6041,
      "ĠBaptista": 6042,
      "Ġsees": 6043,
      "ĠFore": 6044,
      "ĠPed": 6045,
      "ĠPadua": 6046,
      "eared": 6047,
      "run": 6048,
      "Ġven": 6049,
      "ĠDromio": 6050,
      "Ġgodd": 6051,
      "seless": 6052,
      "ĠRose": 6053,
      "Ġswore": 6054,
      "Ġthereof": 6055,
      "ALO": 6056,
      "Ġhereafter": 6057,
      "Ġabide": 6058,
      "Ġchase": 6059,
      "Ġscore": 6060,
      "Ġdesign": 6061,
      "ollo": 6062,
      "Ġappet": 6063,
      "ISE": 6064,
      "Ġharl": 6065,
      "Ġeverything": 6066,
      "Ġundertake": 6067,
      "Ġdearly": 6068,
      "ROSS": 6069,
      "ĠOrlando": 6070,
      "ĠBrother": 6071,
      "Ġsky": 6072,
      "ĠHermia": 6073,
      "Ġhateful": 6074,
      "Only": 6075,
      "IVE": 6076,
      "Ġgarments": 6077,
      "Ġempress": 6078,
      "Ġstrumpet": 6079,
      "Ġvarlet": 6080,
      "Ġconjure": 6081,
      "chance": 6082,
      "ĠPortia": 6083,
      "AJAX": 6084,
      "Ġdifference": 6085,
      "Ġconduct": 6086,
      "Ġreckon": 6087,
      "ouchsafe": 6088,
      "Ġcomplexion": 6089,
      "ĠLAWRENCE": 6090,
      "11": 6091,
      "AY": 6092,
      "Ant": 6093,
      "Acc": 6094,
      "Get": 6095,
      "ILE": 6096,
      "LAN": 6097,
      "Put": 6098,
      "Set": 6099,
      "Somet": 6100,
      "Tomorrow": 6101,
      "gged": 6102,
      "uer": 6103,
      "wor": 6104,
      "war": 6105,
      "ye": 6106,
      "Ġmoment": 6107,
      "reak": 6108,
      "Ġbill": 6109,
      "Ġbran": 6110,
      "Ġfen": 6111,
      "Ġcool": 6112,
      "Ġdame": 6113,
      "Ġdying": 6114,
      "Ġnation": 6115,
      "Ġparent": 6116,
      "Ġthrown": 6117,
      "aning": 6118,
      "ston": 6119,
      "Ġheere": 6120,
      "cellent": 6121,
      "ĠTw": 6122,
      "aled": 6123,
      "Ġstamp": 6124,
      "amour": 6125,
      "aments": 6126,
      "ĠCas": 6127,
      "ĠWelcome": 6128,
      "ĠHal": 6129,
      "ĠHugh": 6130,
      "Ġdeer": 6131,
      "ĠPat": 6132,
      "ĠPhoe": 6133,
      "ARCH": 6134,
      "Ġloyal": 6135,
      "Ġvs": 6136,
      "Ġspread": 6137,
      "ĠKent": 6138,
      "AMEM": 6139,
      "Ġprophe": 6140,
      "Ġscru": 6141,
      "itty": 6142,
      "Ġrap": 6143,
      "Ġcourtier": 6144,
      "AGAMEM": 6145,
      "Ġaccomp": 6146,
      "Ġbelie": 6147,
      "clock": 6148,
      "Ġfaithful": 6149,
      "Ġinfinite": 6150,
      "Ġprisoners": 6151,
      "DOG": 6152,
      "hadow": 6153,
      "Ġships": 6154,
      "Ġ--,\"": 6155,
      "Ġpossession": 6156,
      "Ġpolitic": 6157,
      "Ġoffended": 6158,
      "Ġjealousy": 6159,
      "Ġwedding": 6160,
      "ĠProtector": 6161,
      "Ġtribute": 6162,
      "ĠEdmund": 6163,
      "Ġrevolt": 6164,
      "Ġspecial": 6165,
      "Ġapparel": 6166,
      "ĠElizab": 6167,
      "Ġgoddess": 6168,
      "AGAMEMNON": 6169,
      "DOCTOR": 6170,
      "Either": 6171,
      "Hast": 6172,
      "Kn": 6173,
      "Lincoln": 6174,
      "Makes": 6175,
      "Ret": 6176,
      "TOM": 6177,
      "Wilt": 6178,
      "WILLIAM": 6179,
      "br": 6180,
      "part": 6181,
      "sing": 6182,
      "vest": 6183,
      "wh": 6184,
      "Ġ.": 6185,
      "Ġvers": 6186,
      "Ġmood": 6187,
      "Ġbla": 6188,
      "Ġnumb": 6189,
      "Ġpaint": 6190,
      "Ġphilosop": 6191,
      "Ġgather": 6192,
      "see": 6193,
      "hers": 6194,
      "Ġhist": 6195,
      "ĠMat": 6196,
      "ĠMore": 6197,
      "Ġliest": 6198,
      "ored": 6199,
      "Ġdozen": 6200,
      "Ġsubtle": 6201,
      "Ġnobles": 6202,
      "ĠGi": 6203,
      "ĠDost": 6204,
      "ORA": 6205,
      "ived": 6206,
      "umn": 6207,
      "akers": 6208,
      "Myself": 6209,
      "Ġthinking": 6210,
      "URE": 6211,
      "LAIN": 6212,
      "ISHO": 6213,
      "Ġclock": 6214,
      "Ġnights": 6215,
      "Ġfinds": 6216,
      "Ġoverth": 6217,
      "ĠStreet": 6218,
      "sander": 6219,
      "Ġmurderer": 6220,
      "Alarum": 6221,
      "Ġdelicate": 6222,
      "ELLUS": 6223,
      "Ġwishes": 6224,
      "ĠRomans": 6225,
      "Ġeasily": 6226,
      "Ġthreaten": 6227,
      "Ġconcern": 6228,
      "ĠHelena": 6229,
      "Ġinvention": 6230,
      "Show": 6231,
      "CAPULET": 6232,
      "Ġsenses": 6233,
      "ĠMacbeth": 6234,
      "Ġwhisper": 6235,
      "ĠRichmond": 6236,
      "ufidius": 6237,
      "Ġdiamond": 6238,
      "ISHOP": 6239,
      "?âĢĿ": 6240,
      "Ast": 6241,
      "GL": 6242,
      "HUB": 6243,
      "KS": 6244,
      "Le": 6245,
      "Mistress": 6246,
      "SAT": 6247,
      "TAM": 6248,
      "bet": 6249,
      "ser": 6250,
      "Ġsou": 6251,
      "Ġsli": 6252,
      "Ġsought": 6253,
      "Ġsanct": 6254,
      "Ġmask": 6255,
      "Ġwants": 6256,
      "Ġwander": 6257,
      "itable": 6258,
      "Ġcas": 6259,
      "Ġcalm": 6260,
      "Ġlying": 6261,
      "Ġnet": 6262,
      "Ġpomp": 6263,
      "otion": 6264,
      "Ġweek": 6265,
      "ĠMine": 6266,
      "Ġlift": 6267,
      "ĠCAST": 6268,
      "ĠBELL": 6269,
      "roach": 6270,
      "Ġwillingly": 6271,
      "andria": 6272,
      "ĠPost": 6273,
      "Ġsugg": 6274,
      "ANC": 6275,
      "Ġsple": 6276,
      "ĠDou": 6277,
      "ĠDRUG": 6278,
      "Ġshun": 6279,
      "alls": 6280,
      "elia": 6281,
      "ĠAndronicus": 6282,
      "ĠNe": 6283,
      "ĠNurse": 6284,
      "Ġpron": 6285,
      "oder": 6286,
      "ĠJAC": 6287,
      "THA": 6288,
      "Ġshoulders": 6289,
      "Ġprob": 6290,
      "ĠVer": 6291,
      "Ġriches": 6292,
      "Ġspeaking": 6293,
      "chester": 6294,
      "Ġotherwise": 6295,
      "ĠToby": 6296,
      "Ġperfection": 6297,
      "lesome": 6298,
      "they": 6299,
      "blet": 6300,
      "Ġstanding": 6301,
      "Ġmonument": 6302,
      "BERRY": 6303,
      "Ġblessing": 6304,
      "prise": 6305,
      "Ġvel": 6306,
      "Ġfavours": 6307,
      "racted": 6308,
      "Ġfairest": 6309,
      "Ġfierce": 6310,
      "Ġprofession": 6311,
      "Ġbottom": 6312,
      "Believe": 6313,
      "Ġfuner": 6314,
      "Ġintelligence": 6315,
      "Ġfarther": 6316,
      "Ġdaily": 6317,
      "Ġscholar": 6318,
      "ĠForest": 6319,
      "DOGBERRY": 6320,
      "HUBERT": 6321,
      "Bear": 6322,
      "CAT": 6323,
      "FAB": 6324,
      "Kent": 6325,
      "Unt": 6326,
      "ZALO": 6327,
      "from": 6328,
      "love": 6329,
      "roop": 6330,
      "sha": 6331,
      "hel": 6332,
      "Ġavoid": 6333,
      "Ġsiege": 6334,
      "ndy": 6335,
      "erved": 6336,
      "orp": 6337,
      "Ġlamb": 6338,
      "ĠIle": 6339,
      "ĠIrish": 6340,
      "stit": 6341,
      "sell": 6342,
      "ĠAufidius": 6343,
      "illy": 6344,
      "ĠSure": 6345,
      "Ġstat": 6346,
      "ĠCha": 6347,
      "Ġasham": 6348,
      "Ġsole": 6349,
      "rog": 6350,
      "hiles": 6351,
      "Ġdeceived": 6352,
      "ERD": 6353,
      "ĠOli": 6354,
      "ĠOctav": 6355,
      "Ġfact": 6356,
      "ously": 6357,
      "ORY": 6358,
      "ĠNothing": 6359,
      "ephist": 6360,
      "Ġblue": 6361,
      "together": 6362,
      "AMIR": 6363,
      "Ġunknown": 6364,
      "Ġalter": 6365,
      "Ġripe": 6366,
      "Ġserp": 6367,
      "RIP": 6368,
      "iously": 6369,
      "Ġglo": 6370,
      "Ġfriendship": 6371,
      "Ġchide": 6372,
      "clam": 6373,
      "CAIUS": 6374,
      "Ġassured": 6375,
      "Ġdiscontent": 6376,
      "gundy": 6377,
      "venture": 6378,
      "Ġdrums": 6379,
      "ĠUnto": 6380,
      "Ġbravely": 6381,
      "Ġfields": 6382,
      "PARIS": 6383,
      "Ġconquest": 6384,
      "ĠZEN": 6385,
      "Ġpawn": 6386,
      "GUE": 6387,
      "ĊĠĠĠĠĠĠĠĠĠĠĠ": 6388,
      "CHARLES": 6389,
      "hearted": 6390,
      "Ġnobility": 6391,
      "GONZALO": 6392,
      "CLIFFORD": 6393,
      "ĠBurgundy": 6394,
      "Ġsacrif": 6395,
      "SATURN": 6396,
      "ĠBELLAMIR": 6397,
      "FABIAN": 6398,
      "ephistop": 6399,
      "ĠBELLAMIRA": 6400,
      ",)": 6401,
      "App": 6402,
      "CEL": 6403,
      "Mark": 6404,
      "True": 6405,
      "bow": 6406,
      "ii": 6407,
      "rison": 6408,
      "upp": 6409,
      "ĠUS": 6410,
      "Ġtro": 6411,
      "Ġsnow": 6412,
      "rer": 6413,
      "Ġbree": 6414,
      "orough": 6415,
      "Ġcave": 6416,
      "enet": 6417,
      "stri": 6418,
      "Ġink": 6419,
      "ĠTam": 6420,
      "ĠTybalt": 6421,
      "ĠAM": 6422,
      "ĠShadow": 6423,
      "riel": 6424,
      "Ġwears": 6425,
      "rase": 6426,
      "Ġrecom": 6427,
      "ĠMethinks": 6428,
      "aming": 6429,
      "amine": 6430,
      "ĠHold": 6431,
      "ĠHortensio": 6432,
      "Ġsol": 6433,
      "ĠFie": 6434,
      "ifer": 6435,
      "ello": 6436,
      "antag": 6437,
      "emnon": 6438,
      "Ġsaved": 6439,
      "Ġprodu": 6440,
      "Ġplan": 6441,
      "ression": 6442,
      "Ġflat": 6443,
      "Ġfriendly": 6444,
      "their": 6445,
      "Ġfairly": 6446,
      "ertes": 6447,
      "ANDA": 6448,
      "Ġbreach": 6449,
      "ĠSirrah": 6450,
      "ULT": 6451,
      "Ġpassing": 6452,
      "Ġfeign": 6453,
      "Ġconfound": 6454,
      "ĠBecause": 6455,
      "OMO": 6456,
      "Ġnative": 6457,
      "Ġpleasant": 6458,
      "avy": 6459,
      "Thanks": 6460,
      "Ġwronged": 6461,
      "Ġhanging": 6462,
      "OCRATE": 6463,
      "Ġmov": 6464,
      "Ġsends": 6465,
      "MARGARET": 6466,
      "ĠSpens": 6467,
      "Ġdelay": 6468,
      "Ġtemple": 6469,
      "ATHAR": 6470,
      "Ġlately": 6471,
      "ĠChristians": 6472,
      "ERSET": 6473,
      "ĠTheseus": 6474,
      "ĠServants": 6475,
      "IBAN": 6476,
      "Ġdarkness": 6477,
      "CALIBAN": 6478,
      "ĠĠĠĠĠĠĠĠĠĠĠĠĠĠĠĠĠĠĠĠĠĠĠ": 6479,
      "Ġyester": 6480,
      "Ġfreed": 6481,
      "OURTH": 6482,
      "ybil": 6483,
      "Ġbehaviour": 6484,
      "Ġnecessity": 6485,
      "Ġmagic": 6486,
      "LYSANDER": 6487,
      "ĠBassanio": 6488,
      "Ġtorture": 6489,
      "Ġtyranny": 6490,
      "ĠPetruchio": 6491,
      "ĠCoriolanus": 6492,
      "Ġtragedy": 6493,
      "Ġpurchase": 6494,
      "gamemnon": 6495,
      "MARTIUS": 6496,
      "ĠOlivia": 6497,
      "AV": 6498,
      "BISHOP": 6499,
      "Might": 6500,
      "Pl": 6501,
      "Please": 6502,
      "Sc": 6503,
      "TTA": 6504,
      "Virtue": 6505,
      "bell": 6506,
      "fess": 6507,
      "gly": 6508,
      "just": 6509,
      "mes": 6510,
      "mitted": 6511,
      "pur": 6512,
      "rong": 6513,
      "tell": 6514,
      "would": 6515,
      "were": 6516,
      "inces": 6517,
      "Ġmill": 6518,
      "oria": 6519,
      "itol": 6520,
      "Ġcand": 6521,
      "Ġlap": 6522,
      "inger": 6523,
      "Ġgrew": 6524,
      "ĠTRI": 6525,
      "Ġisland": 6526,
      "riot": 6527,
      "Ġstroke": 6528,
      "Ġreu": 6529,
      "ĠBoth": 6530,
      "ĠPART": 6531,
      "ENCR": 6532,
      "ARENCE": 6533,
      "Ġknot": 6534,
      "Ġshown": 6535,
      "Ġconference": 6536,
      "Ġswallow": 6537,
      "Ġcannon": 6538,
      "Ġblown": 6539,
      "ĠJames": 6540,
      "ELLE": 6541,
      "Ġexerc": 6542,
      "Ġcozen": 6543,
      "uded": 6544,
      "ANTZ": 6545,
      "Ġpreced": 6546,
      "Ġrust": 6547,
      "Ġkingly": 6548,
      "Ġcompare": 6549,
      "Ġcontro": 6550,
      "Ġbegu": 6551,
      "enslowe": 6552,
      "ULL": 6553,
      "Ġkindly": 6554,
      "Ġstays": 6555,
      "Ġcrowned": 6556,
      "Ġafterwards": 6557,
      "Ġslew": 6558,
      "ROSENCR": 6559,
      "ĠWherein": 6560,
      "Ġbeauteous": 6561,
      "Ġterror": 6562,
      "COUR": 6563,
      "ĠRoger": 6564,
      "ĠRobert": 6565,
      "Ġsatire": 6566,
      "ĠClown": 6567,
      "Ġdreams": 6568,
      "ĠTroj": 6569,
      "Ġmouths": 6570,
      "ramus": 6571,
      "Ġoppos": 6572,
      "Ġtransl": 6573,
      "ĠIsabel": 6574,
      "Ġtroubled": 6575,
      "ogen": 6576,
      "ĠJulia": 6577,
      "ĠTurkish": 6578,
      "BOTTOM": 6579,
      "Ġingen": 6580,
      "Ġcreep": 6581,
      "ĠGentlemen": 6582,
      "Ġcircumstance": 6583,
      "Ġzeal": 6584,
      "Ġobedience": 6585,
      "humus": 6586,
      "Ġthieves": 6587,
      "imperia": 6588,
      "Ġrescue": 6589,
      "MIRANDA": 6590,
      "Ġappetite": 6591,
      "TAMORA": 6592,
      "ĠJACOMO": 6593,
      "ĠZENOCRATE": 6594,
      "SATURNINUS": 6595,
      "ATHARINE": 6596,
      "ROSENCRANTZ": 6597,
      ";--": 6598,
      "DEN": 6599,
      "IES": 6600,
      "Music": 6601,
      "Once": 6602,
      "PAT": 6603,
      "ded": 6604,
      "met": 6605,
      "rt": 6606,
      "ĠQUEEN": 6607,
      "ĠENTER": 6608,
      "Ġtest": 6609,
      "Ġtab": 6610,
      "Ġtap": 6611,
      "Ġafore": 6612,
      "Ġmor": 6613,
      "Ġwhip": 6614,
      "Ġbade": 6615,
      "Ġfront": 6616,
      "Ġcent": 6617,
      "Ġcell": 6618,
      "Ġdow": 6619,
      "Ġdain": 6620,
      "Ġhom": 6621,
      "Ġthread": 6622,
      "stable": 6623,
      "edge": 6624,
      "illing": 6625,
      "Ġrede": 6626,
      "ushes": 6627,
      "Ġlip": 6628,
      "Ġseldom": 6629,
      "ĠLie": 6630,
      "ĠLavinia": 6631,
      "ARIEL": 6632,
      "Ġshallow": 6633,
      "Ġknit": 6634,
      "ĠDutch": 6635,
      "Ġambit": 6636,
      "eline": 6637,
      "ranio": 6638,
      "Ġmayor": 6639,
      "Ġpop": 6640,
      "Ġpocket": 6641,
      "Ġunnatural": 6642,
      "Ġpartly": 6643,
      "IMER": 6644,
      "elsh": 6645,
      "Ġsupply": 6646,
      "ORTIMER": 6647,
      "Ġjoys": 6648,
      "Ġshoot": 6649,
      "hilis": 6650,
      "Ġpurposes": 6651,
      "mbeline": 6652,
      "Ġresolved": 6653,
      "ESTMOR": 6654,
      "Ġbeasts": 6655,
      "Ġespecially": 6656,
      "Ġofficers": 6657,
      "ĠCapitol": 6658,
      "Ġfairer": 6659,
      "mongst": 6660,
      "LORENZO": 6661,
      "Ġapprehend": 6662,
      "HERMIA": 6663,
      "picion": 6664,
      "Ġwolf": 6665,
      "ĠSaturn": 6666,
      "soever": 6667,
      "Ġincrease": 6668,
      "LUCETTA": 6669,
      "ephistophilis": 6670,
      ".).": 6671,
      "Dies": 6672,
      "Men": 6673,
      "SIMP": 6674,
      "mony": 6675,
      "work": 6676,
      "Ġ]": 6677,
      "Ġ|": 6678,
      "Ġmus": 6679,
      "Ġwest": 6680,
      "Ġwither": 6681,
      "Ġburst": 6682,
      "Ġoce": 6683,
      "Ġbeheld": 6684,
      "cho": 6685,
      "ĠTime": 6686,
      "rick": 6687,
      "Ġweather": 6688,
      "Ġstret": 6689,
      "urb": 6690,
      "ĠChamber": 6691,
      "Ġseize": 6692,
      "ANOR": 6693,
      "Ġload": 6694,
      "Ġvault": 6695,
      "arded": 6696,
      "quis": 6697,
      "iel": 6698,
      "Ġamorous": 6699,
      "olit": 6700,
      "ortion": 6701,
      "ods": 6702,
      "AMBER": 6703,
      "ĠThink": 6704,
      "Ġhandker": 6705,
      "Ġmarvel": 6706,
      "Ġperj": 6707,
      "Ġpert": 6708,
      "Ġimage": 6709,
      "Ġimmediate": 6710,
      "Ġtravell": 6711,
      "Ġconfusion": 6712,
      "Ġgild": 6713,
      "ĠBeatrice": 6714,
      "Ġcurrent": 6715,
      "Ġcheat": 6716,
      "OMAN": 6717,
      "AGUS": 6718,
      "ĠMarch": 6719,
      "Ġ20": 6720,
      "Ġrunning": 6721,
      "Ġcountrymen": 6722,
      "Ġedge": 6723,
      "Ġpoints": 6724,
      "Ġboast": 6725,
      "Ġpenny": 6726,
      "Ġresolve": 6727,
      "EPHERD": 6728,
      "Cannot": 6729,
      "Ġactions": 6730,
      "ĠIsabella": 6731,
      "Ġmountain": 6732,
      "Ġsatisfaction": 6733,
      "Ġdrive": 6734,
      "Ġdestroy": 6735,
      "Marg": 6736,
      "ĠItaly": 6737,
      "ĠVols": 6738,
      "ĊĠĠĠĠĠĠĠĠĠĠĠĠĠĠĠ": 6739,
      "Between": 6740,
      "Ġrecover": 6741,
      "Ġforsworn": 6742,
      "VIRAGUS": 6743,
      "Ġmessage": 6744,
      "bacco": 6745,
      "Ġphrase": 6746,
      "SOMERSET": 6747,
      "Ġextreme": 6748,
      "FLAVIUS": 6749,
      "Ġdainty": 6750,
      "Bl": 6751,
      "Bid": 6752,
      "Cy": 6753,
      "DIANA": 6754,
      "MON": 6755,
      "Very": 6756,
      "cont": 6757,
      "mo": 6758,
      "mar": 6759,
      "mian": 6760,
      "vis": 6761,
      "xford": 6762,
      "Ġaunt": 6763,
      "Ġwore": 6764,
      "Ġbent": 6765,
      "Ġodd": 6766,
      "Ġlower": 6767,
      "Ġhill": 6768,
      "Ġtoken": 6769,
      "ĠTR": 6770,
      "Ġforfeit": 6771,
      "ĠSle": 6772,
      "Ġsty": 6773,
      "Ġreal": 6774,
      "ĠWor": 6775,
      "Ġdew": 6776,
      "ĠFear": 6777,
      "think": 6778,
      "INCH": 6779,
      "ĠLeave": 6780,
      "ica": 6781,
      "icer": 6782,
      "ĠRoss": 6783,
      "Ġju": 6784,
      "ĠKeep": 6785,
      "Ġpoets": 6786,
      "Ġprose": 6787,
      "Ġabhor": 6788,
      "ickly": 6789,
      "Ġriot": 6790,
      "aged": 6791,
      "Ġparted": 6792,
      "ILIP": 6793,
      "LAUN": 6794,
      "Ġperforce": 6795,
      "Ġcommit": 6796,
      "Ġkey": 6797,
      "new": 6798,
      "Sold": 6799,
      "Ġpreserve": 6800,
      "Ġnorth": 6801,
      "Ġhousehold": 6802,
      "Ġpursue": 6803,
      "Ġmerc": 6804,
      "Ġladyship": 6805,
      "Ġprick": 6806,
      "Ġgiving": 6807,
      "Ġchur": 6808,
      "Ġaccus": 6809,
      "Ġaccuse": 6810,
      "Ġimpud": 6811,
      "Ġsecure": 6812,
      "ipho": 6813,
      "Ġhangs": 6814,
      "UMCAS": 6815,
      "Ġdepend": 6816,
      "Twere": 6817,
      "Ġattending": 6818,
      "Ġbox": 6819,
      "Ġpublished": 6820,
      "Ġdefence": 6821,
      "ĠCymbeline": 6822,
      "Ġviolence": 6823,
      "Ġhung": 6824,
      "Ġprepared": 6825,
      "Ġtremble": 6826,
      "indsor": 6827,
      "Ġpierce": 6828,
      "Ġliquor": 6829,
      "ĠDuchess": 6830,
      "ĠImogen": 6831,
      "ĠLODOWICK": 6832,
      "ĠPosthumus": 6833,
      "ĠUSUMCAS": 6834,
      "ĠSpenser": 6835,
      "Ġambitious": 6836,
      "ĠUSUMCASANE": 6837,
      "Amp": 6838,
      "BIAN": 6839,
      "Each": 6840,
      "FER": 6841,
      "FLOR": 6842,
      "FIDIUS": 6843,
      "Hang": 6844,
      "Rome": 6845,
      "SUR": 6846,
      "WOO": 6847,
      "dra": 6848,
      "fold": 6849,
      "know": 6850,
      "live": 6851,
      "make": 6852,
      "pence": 6853,
      "rite": 6854,
      "wit": 6855,
      "Ġtide": 6856,
      "Ġach": 6857,
      "Ġscept": 6858,
      "Ġbite": 6859,
      "enc": 6860,
      "arth": 6861,
      "Ġgently": 6862,
      "Ġinward": 6863,
      "Ġforced": 6864,
      "Ġisle": 6865,
      "asy": 6866,
      "Ġweeds": 6867,
      "Ġstale": 6868,
      "ĠWelsh": 6869,
      "ĠWindsor": 6870,
      "Ġnobly": 6871,
      "ARVIRAGUS": 6872,
      "ĠEn": 6873,
      "ĠDoth": 6874,
      "olt": 6875,
      "igail": 6876,
      "Ġprovo": 6877,
      "Ġunhappy": 6878,
      "Ġrhy": 6879,
      "Ġgraces": 6880,
      "Ġperpet": 6881,
      "Ġcommitted": 6882,
      "Ġapparent": 6883,
      "Ġtrim": 6884,
      "cythi": 6885,
      "IDES": 6886,
      "Ġsets": 6887,
      "acles": 6888,
      "Ġslept": 6889,
      "Ġaccident": 6890,
      "Ġearthly": 6891,
      "Ġmatters": 6892,
      "comp": 6893,
      "Ġexceed": 6894,
      "formed": 6895,
      "IZEL": 6896,
      "Ġinfer": 6897,
      "SHEPHERD": 6898,
      "Ġcraft": 6899,
      "Ġskin": 6900,
      "Ġforeign": 6901,
      "Ġforehead": 6902,
      "EXETER": 6903,
      "upiter": 6904,
      "Ġcorre": 6905,
      "eys": 6906,
      "Ġgarland": 6907,
      "ĠTurks": 6908,
      "Ġobserv": 6909,
      "Ġcircle": 6910,
      "Ġsuspicion": 6911,
      "ĠAbigail": 6912,
      "Ġdrama": 6913,
      "Ġdramat": 6914,
      "Ġkingdoms": 6915,
      "moreland": 6916,
      "Ġbehalf": 6917,
      "ovico": 6918,
      "PUCELLE": 6919,
      "cription": 6920,
      "ĠCAPULET": 6921,
      "Ġshrewd": 6922,
      "CANES": 6923,
      "ĠPHILIP": 6924,
      "oderigo": 6925,
      "antagenet": 6926,
      "BIANCA": 6927,
      "FLORIZEL": 6928,
      "?_": 6929,
      "AK": 6930,
      "AENE": 6931,
      "Another": 6932,
      "FOOL": 6933,
      "Hence": 6934,
      "HIPPOL": 6935,
      "Lay": 6936,
      "Po": 6937,
      "SC": 6938,
      "WESTMOR": 6939,
      "bel": 6940,
      "fl": 6941,
      "fellow": 6942,
      "say": 6943,
      "weal": 6944,
      "Ã©": 6945,
      "Ġsand": 6946,
      "lling": 6947,
      "Ġfold": 6948,
      "Ġfret": 6949,
      "Ġpounds": 6950,
      "Ġhouses": 6951,
      "Ġinher": 6952,
      "ĠTrue": 6953,
      "Ġforces": 6954,
      "Ġugly": 6955,
      "ĠBrach": 6956,
      "ĠBesides": 6957,
      "Ġsooth": 6958,
      "Ġwilling": 6959,
      "Ġspur": 6960,
      "ĠDU": 6961,
      "umer": 6962,
      "Three": 6963,
      "ĠYea": 6964,
      "CHANT": 6965,
      "CHAMBER": 6966,
      "Ġdisci": 6967,
      "Ġpledge": 6968,
      "Ġalike": 6969,
      "Ġcovet": 6970,
      "ITION": 6971,
      "Ġtroops": 6972,
      "Ġhart": 6973,
      "Ġnewly": 6974,
      "Ġrepair": 6975,
      "Ġpassed": 6976,
      "Ġassist": 6977,
      "lete": 6978,
      "Ġhangman": 6979,
      "Ġdrew": 6980,
      "OCK": 6981,
      "Ġsleeps": 6982,
      "Ġsleeping": 6983,
      "Ġkisses": 6984,
      "Ġreturned": 6985,
      "Although": 6986,
      "Ġmetal": 6987,
      "Ġdelivered": 6988,
      "Ġdistance": 6989,
      "Ġdevise": 6990,
      "ception": 6991,
      "Ġshield": 6992,
      "Ġdefy": 6993,
      "Ġagree": 6994,
      "HERO": 6995,
      "AUFIDIUS": 6996,
      "Ġdramatic": 6997,
      "Ġhungry": 6998,
      "Ġbleed": 6999,
      "ĠGuild": 7000,
      "CLARENCE": 7001,
      "Ġinjury": 7002,
      "Ġignorance": 7003,
      "ortunatus": 7004,
      "ĠCOUNT": 7005,
      "Ġbeggars": 7006,
      "Ġmartial": 7007,
      "ĠLysander": 7008,
      "Ġimmortal": 7009,
      "Ġshoemaker": 7010,
      "ĠPriam": 7011,
      "ĠProvost": 7012,
      "CELET": 7013,
      "Ġredeem": 7014,
      "Ġocean": 7015,
      "LAUNCELET": 7016,
      "AENEAS": 7017,
      "CHAMBERLAIN": 7018,
      "Bots": 7019,
      "Fear": 7020,
      "Rose": 7021,
      "SIMON": 7022,
      "TY": 7023,
      "ULO": 7024,
      "ZETH": 7025,
      "gentle": 7026,
      "leness": 7027,
      "piece": 7028,
      "when": 7029,
      "oubt": 7030,
      "inent": 7031,
      "Ġmoral": 7032,
      "reg": 7033,
      "Ġwitty": 7034,
      "Ġbore": 7035,
      "Ġfem": 7036,
      "ese": 7037,
      "Ġdice": 7038,
      "Ġdiff": 7039,
      "ĠĠĠĠĠĠ": 7040,
      "arrow": 7041,
      "Ġpee": 7042,
      "celet": 7043,
      "ĠAgamemnon": 7044,
      "Ġeast": 7045,
      "ĠScythi": 7046,
      "Ġstout": 7047,
      "ĠMephistophilis": 7048,
      "ĠBring": 7049,
      "room": 7050,
      "Ġseiz": 7051,
      "Ġspell": 7052,
      "Ġspurn": 7053,
      "ĠGar": 7054,
      "Ġfares": 7055,
      "Ġshines": 7056,
      "Ġconceive": 7057,
      "uns": 7058,
      "Ġblunt": 7059,
      "ĠJupiter": 7060,
      "Ġlikewise": 7061,
      "Ġexact": 7062,
      "Ġplant": 7063,
      "Ġenforce": 7064,
      "Ġchap": 7065,
      "osing": 7066,
      "cians": 7067,
      "aby": 7068,
      "ILIUS": 7069,
      "Ġwrink": 7070,
      "ANTIO": 7071,
      "Ġdeaths": 7072,
      "Ġappointed": 7073,
      "Ġrum": 7074,
      "Ġimit": 7075,
      "Ġharsh": 7076,
      "Ġremove": 7077,
      "swer": 7078,
      "Ġdivers": 7079,
      "Ġpeas": 7080,
      "Ġpersons": 7081,
      "leton": 7082,
      "Ġstrikes": 7083,
      "comb": 7084,
      "Ġvillainy": 7085,
      "Ġterrible": 7086,
      "hesus": 7087,
      "LUCIANA": 7088,
      "Ġstronger": 7089,
      "Ġstrain": 7090,
      "cover": 7091,
      "Ġpromis": 7092,
      "Ġpersonal": 7093,
      "Ġbroad": 7094,
      "ĠExeter": 7095,
      "Ġbarren": 7096,
      "Ġcoron": 7097,
      "ridamas": 7098,
      "GEORGE": 7099,
      "Ġabsent": 7100,
      "Ġabsolute": 7101,
      "Ġprivile": 7102,
      "Ġescape": 7103,
      "headed": 7104,
      "Whither": 7105,
      "Ġdecay": 7106,
      "Ġphysician": 7107,
      "minster": 7108,
      "Ġbanishment": 7109,
      "ĠGentleman": 7110,
      "Ġfleet": 7111,
      "AJAZETH": 7112,
      "ĠWestmoreland": 7113,
      "ĠGrecian": 7114,
      "Ġunfold": 7115,
      "ĠLodovico": 7116,
      "ĠPyramus": 7117,
      "ĠWinchester": 7118,
      "Ġscurvy": 7119,
      "ĠSlender": 7120,
      "ĠDUKE": 7121,
      "ĠCOUNTRY": 7122,
      "!_": 7123,
      "Ed": 7124,
      "OT": 7125,
      "Ser": 7126,
      "Sblood": 7127,
      "Truly": 7128,
      "UE": 7129,
      "UGH": 7130,
      "aches": 7131,
      "sy": 7132,
      "ubert": 7133,
      "Ġtarry": 7134,
      "Ġwink": 7135,
      "Ġbon": 7136,
      "Ġbud": 7137,
      "isons": 7138,
      "oned": 7139,
      "Ġcro": 7140,
      "Ġlent": 7141,
      "Ġpause": 7142,
      "Ġtobacco": 7143,
      "ano": 7144,
      "owl": 7145,
      "imate": 7146,
      "ĠThose": 7147,
      "Ġnotes": 7148,
      "Ġnotice": 7149,
      "key": 7150,
      "keep": 7151,
      "raft": 7152,
      "ĠMon": 7153,
      "ĠHodge": 7154,
      "ĠBer": 7155,
      "ĠBet": 7156,
      "ĠBAJAZETH": 7157,
      "Ġsex": 7158,
      "Ġwills": 7159,
      "ĠOxford": 7160,
      "Ġspy": 7161,
      "Ġspect": 7162,
      "ĠGet": 7163,
      "ĠDen": 7164,
      "Ġconv": 7165,
      "venge": 7166,
      "Ġknowing": 7167,
      "ALON": 7168,
      "Ġunw": 7169,
      "Ġenvious": 7170,
      "ĠĠĠĠĠĠĠĠĠĠĠĠĠĠĠĠĠĠĠĠĠĠĠĠĠ": 7171,
      "Ġparting": 7172,
      "Ġgraves": 7173,
      "ĠThisbe": 7174,
      "Ġtrees": 7175,
      "CASTER": 7176,
      "Ġhusbands": 7177,
      "Ġlightning": 7178,
      "Ġbank": 7179,
      "Ġexcell": 7180,
      "Ġbusy": 7181,
      "Ġgallows": 7182,
      "Ġveins": 7183,
      "cribe": 7184,
      "Ġtowns": 7185,
      "ĠFlamine": 7186,
      "Ġrecon": 7187,
      "Ġwhoreson": 7188,
      "Ġresolution": 7189,
      "Ġaddition": 7190,
      "Ġrefuse": 7191,
      "urio": 7192,
      "ĠAbout": 7193,
      "Ġshadows": 7194,
      "Ġmiracle": 7195,
      "Ġinvis": 7196,
      "Ġinnocence": 7197,
      "Ġcharacters": 7198,
      "Ġbabe": 7199,
      "Ġtailor": 7200,
      "ĠORCANES": 7201,
      "ĠPisanio": 7202,
      "Ġfurnish": 7203,
      "Ġsteps": 7204,
      "Ġdisguise": 7205,
      "Brother": 7206,
      "Ġcombat": 7207,
      "Ġceremony": 7208,
      "Ġburnt": 7209,
      "ĠEphesus": 7210,
      "Ġdispleasure": 7211,
      "Ġscourge": 7212,
      "ĠBohe": 7213,
      "ĠNEI": 7214,
      "Ġspleen": 7215,
      "Ġfuneral": 7216,
      "SIMONIDES": 7217,
      "ĠCOUNTRYMAN": 7218,
      "ĠFlamineo": 7219,
      "45": 7220,
      "BION": 7221,
      "Cam": 7222,
      "CIO": 7223,
      "CIB": 7224,
      "DIS": 7225,
      "Many": 7226,
      "Rog": 7227,
      "Sha": 7228,
      "Whether": 7229,
      "cure": 7230,
      "char": 7231,
      "pret": 7232,
      "Ġsilly": 7233,
      "Ġbatt": 7234,
      "orus": 7235,
      "Ġcurious": 7236,
      "Ġnought": 7237,
      "oted": 7238,
      "Ġbeams": 7239,
      "imp": 7240,
      "ĠTranio": 7241,
      "ĠAss": 7242,
      "Ġep": 7243,
      "ĠSol": 7244,
      "Ġsting": 7245,
      "ids": 7246,
      "Ġrev": 7247,
      "Ġlivery": 7248,
      "ĠHy": 7249,
      "ĠBell": 7250,
      "Ġdeceive": 7251,
      "ĠFather": 7252,
      "ENCH": 7253,
      "ilius": 7254,
      "ĠGerman": 7255,
      "ĠTheridamas": 7256,
      "emper": 7257,
      "Ġsirs": 7258,
      "ĠNap": 7259,
      "Ġworm": 7260,
      "umed": 7261,
      "Ġquench": 7262,
      "Ġdiseas": 7263,
      "orns": 7264,
      "Ġabused": 7265,
      "Ġheartily": 7266,
      "Ġriver": 7267,
      "Ġleap": 7268,
      "Ġdescend": 7269,
      "Ġserves": 7270,
      "Ġbetwixt": 7271,
      "Ġado": 7272,
      "EDMUND": 7273,
      "retion": 7274,
      "ĠPrithee": 7275,
      "Ġguide": 7276,
      "Ġimprison": 7277,
      "Ġanswered": 7278,
      "atesby": 7279,
      "ĠMarlowe": 7280,
      "ĠWithin": 7281,
      "Ġinflu": 7282,
      "Ġdraws": 7283,
      "Ġlearning": 7284,
      "Ġcertainly": 7285,
      "Ġparley": 7286,
      "Ġattended": 7287,
      "Ġbarbar": 7288,
      "Ġexped": 7289,
      "Ġwriters": 7290,
      "Ġfox": 7291,
      "ivity": 7292,
      "standing": 7293,
      "Ġago": 7294,
      "Ġmedic": 7295,
      "ĠVenus": 7296,
      "Ġpoetry": 7297,
      "Ġelements": 7298,
      "ĠLacy": 7299,
      "ĠPersia": 7300,
      "ĠApollo": 7301,
      "Ġdeserved": 7302,
      "Ġpatron": 7303,
      "Ġcitizen": 7304,
      "About": 7305,
      "ĠMalvolio": 7306,
      "Ġornament": 7307,
      "Help": 7308,
      "Ġharlot": 7309,
      "Ġhistory": 7310,
      "ĠTamora": 7311,
      "Ġhandkerchief": 7312,
      "ALONSO": 7313,
      "Amen": 7314,
      "AUM": 7315,
      "ACHIO": 7316,
      "Ch": 7317,
      "Cons": 7318,
      "Follow": 7319,
      "KN": 7320,
      "NEST": 7321,
      "Rep": 7322,
      "WOR": 7323,
      "Whiles": 7324,
      "YTA": 7325,
      "bours": 7326,
      "grim": 7327,
      "iven": 7328,
      "lse": 7329,
      "mir": 7330,
      "nard": 7331,
      "nel": 7332,
      "vity": 7333,
      "wind": 7334,
      "water": 7335,
      "Ġsine": 7336,
      "Ġbul": 7337,
      "Ġbasket": 7338,
      "ishes": 7339,
      "Ġcrest": 7340,
      "Ġcaught": 7341,
      "Ġlame": 7342,
      "aron": 7343,
      "Ġpath": 7344,
      "ingu": 7345,
      "Ġhal": 7346,
      "ĠAriel": 7347,
      "ourage": 7348,
      "ased": 7349,
      "ĠSig": 7350,
      "ĠSimon": 7351,
      "Ġstro": 7352,
      "Ġrend": 7353,
      "ĠMer": 7354,
      "Ġlikes": 7355,
      "ĠChe": 7356,
      "ĠCand": 7357,
      "hia": 7358,
      "Ġsuits": 7359,
      "Ġbutcher": 7360,
      "INN": 7361,
      "ANLEY": 7362,
      "ĠEast": 7363,
      "hange": 7364,
      "embroke": 7365,
      "ĠRoderigo": 7366,
      "ĠJustice": 7367,
      "orney": 7368,
      "Ġwholesome": 7369,
      "Ġenfor": 7370,
      "Ġhowever": 7371,
      "LODO": 7372,
      "Ġtwain": 7373,
      "Ġflame": 7374,
      "Young": 7375,
      "Ġoffices": 7376,
      "Ġdeserv": 7377,
      "Ġ(\"": 7378,
      "Ġwhit": 7379,
      "Ġappoint": 7380,
      "Ġcloth": 7381,
      "Ġended": 7382,
      "Ġpurge": 7383,
      "IMACH": 7384,
      "mph": 7385,
      "Wherefore": 7386,
      "Ġpleasing": 7387,
      "Ġlights": 7388,
      "Ġhappily": 7389,
      "Ġstrife": 7390,
      "GOWER": 7391,
      "Ġcommanded": 7392,
      "nobar": 7393,
      "Ġcouncil": 7394,
      "Ġwriting": 7395,
      "cribed": 7396,
      "ramat": 7397,
      "Ġfeeling": 7398,
      "Ġinstruct": 7399,
      "Ġsatisfy": 7400,
      "Ġgovernment": 7401,
      "Ġduked": 7402,
      "Ġerror": 7403,
      "Ġrebell": 7404,
      "BORACHIO": 7405,
      "Ġpetition": 7406,
      "Ġinstantly": 7407,
      "Ġhighest": 7408,
      "CASCA": 7409,
      "Ġpersuade": 7410,
      "LYSIMACH": 7411,
      "resented": 7412,
      "ĠBanks": 7413,
      "Ġadmirable": 7414,
      "Ġfixed": 7415,
      "Ġodds": 7416,
      "Ġfifty": 7417,
      "Ġforsake": 7418,
      "Ġnumbers": 7419,
      "clamation": 7420,
      "Ġbreeches": 7421,
      "Ġfreedom": 7422,
      "HIPPOLYTA": 7423,
      "ĠNaples": 7424,
      "LODOVICO": 7425,
      "LYSIMACHUS": 7426,
      "38": 7427,
      "CY": 7428,
      "Dear": 7429,
      "DELLO": 7430,
      "HE": 7431,
      "Light": 7432,
      "Mis": 7433,
      "Much": 7434,
      "OD": 7435,
      "RAM": 7436,
      "Sw": 7437,
      "TLE": 7438,
      "Zan": 7439,
      "bast": 7440,
      "faced": 7441,
      "homet": 7442,
      "iqu": 7443,
      "ibly": 7444,
      "lasting": 7445,
      "made": 7446,
      "should": 7447,
      "upt": 7448,
      "yne": 7449,
      "Ġsings": 7450,
      "Ġstern": 7451,
      "Ġmat": 7452,
      "Ġmiddle": 7453,
      "reland": 7454,
      "Ġwet": 7455,
      "Ġdun": 7456,
      "Ġlaughter": 7457,
      "Ġpate": 7458,
      "Ġthirty": 7459,
      "anley": 7460,
      "Ġgap": 7461,
      "Ġgidd": 7462,
      "ĠTr": 7463,
      "ĠSur": 7464,
      "ril": 7465,
      "Ġstink": 7466,
      "iding": 7467,
      "Ġrejo": 7468,
      "ĠCON": 7469,
      "ĠHost": 7470,
      "ĠHenslowe": 7471,
      "aining": 7472,
      "Ġshapes": 7473,
      "ĠFortunatus": 7474,
      "ĠĠĠĠĠĠĠĠĠĠ": 7475,
      "Ġsust": 7476,
      "ĠLadies": 7477,
      "ĠOUT": 7478,
      "Ġvoy": 7479,
      "icient": 7480,
      "Ġshirt": 7481,
      "Ġamiss": 7482,
      "Ġwheel": 7483,
      "olve": 7484,
      "ĠNew": 7485,
      "Ġtheirs": 7486,
      "ALCIB": 7487,
      "aug": 7488,
      "ounded": 7489,
      "CHOL": 7490,
      "Ġmadman": 7491,
      "Ġshoulder": 7492,
      "Ġunjust": 7493,
      "ROCL": 7494,
      "irect": 7495,
      "IADES": 7496,
      "ATION": 7497,
      "Ġcoach": 7498,
      "Ġleather": 7499,
      "Ġwrote": 7500,
      "Ġadvers": 7501,
      "ension": 7502,
      "mpets": 7503,
      "Ġmerri": 7504,
      "Ġtried": 7505,
      "Ġlieutenant": 7506,
      "Ġconsul": 7507,
      "Ġkindred": 7508,
      "Ġdaughters": 7509,
      "Ġsurely": 7510,
      "Ġhenceforth": 7511,
      "ĠHereford": 7512,
      "Ġbeside": 7513,
      "ĠMarina": 7514,
      "Ġstrongly": 7515,
      "Ġadvise": 7516,
      "TRINC": 7517,
      "Ġedition": 7518,
      "Ġdrinking": 7519,
      "logue": 7520,
      "Ġquarter": 7521,
      "ĠVICE": 7522,
      "Ġpitiful": 7523,
      "Ġcurses": 7524,
      "YMATH": 7525,
      "Ġstarve": 7526,
      "Ġsmoke": 7527,
      "ĠCharmian": 7528,
      "Ġrebels": 7529,
      "ĠPlantagenet": 7530,
      "Ġdrowned": 7531,
      "Ġambassad": 7532,
      "Ġdeserves": 7533,
      "ĠCALYMATH": 7534,
      "ĠWestminster": 7535,
      "ĠCARIOLA": 7536,
      "CONSTABLE": 7537,
      "Ġwaters": 7538,
      "NARDINE": 7539,
      "Ġcensure": 7540,
      "chbishop": 7541,
      "ĠTwo": 7542,
      "Ġrapier": 7543,
      "ĠBrachiano": 7544,
      "nobarbus": 7545,
      "ALCIBIADES": 7546,
      "TRINCULO": 7547,
      "35": 7548,
      "37": 7549,
      "Came": 7550,
      "CARDINAL": 7551,
      "Henry": 7552,
      "Lady": 7553,
      "PL": 7554,
      "PID": 7555,
      "Signior": 7556,
      "fast": 7557,
      "gin": 7558,
      "ien": 7559,
      "ips": 7560,
      "kn": 7561,
      "mark": 7562,
      "oft": 7563,
      "Ġtal": 7564,
      "Ġav": 7565,
      "inand": 7566,
      "Ġwalks": 7567,
      "ories": 7568,
      "enches": 7569,
      "Ġnice": 7570,
      "Ġnails": 7571,
      "arius": 7572,
      "arms": 7573,
      "ĠIreland": 7574,
      "Ġped": 7575,
      "Ġhur": 7576,
      "Ġthin": 7577,
      "aniel": 7578,
      "stone": 7579,
      "Ġhero": 7580,
      "Ġheare": 7581,
      "eder": 7582,
      "ĠTra": 7583,
      "Ġnoted": 7584,
      "ĠSpen": 7585,
      "ĠSec": 7586,
      "iday": 7587,
      "ushing": 7588,
      "ĠChi": 7589,
      "Ġaspect": 7590,
      "ĠWAG": 7591,
      "ĠHo": 7592,
      "ĠHol": 7593,
      "ĠBON": 7594,
      "ĠBoy": 7595,
      "Ġdeb": 7596,
      "Ġdecl": 7597,
      "ĠField": 7598,
      "ĠPhil": 7599,
      "ERLE": 7600,
      "ĠĠĠĠĠĠĠĠĠĠĠ": 7601,
      "Ġalleg": 7602,
      "ilful": 7603,
      "Ġsuc": 7604,
      "Ġbutter": 7605,
      "ĠLat": 7606,
      "ĠLong": 7607,
      "rung": 7608,
      "Ġvul": 7609,
      "Ġvantage": 7610,
      "iced": 7611,
      "Ġmanage": 7612,
      "oler": 7613,
      "Ġswears": 7614,
      "ĠJane": 7615,
      "ELAND": 7616,
      "Ġlikely": 7617,
      "Ġproject": 7618,
      "ĠVillain": 7619,
      "Ġtrunk": 7620,
      "Ġaboard": 7621,
      "udes": 7622,
      "Ġcommod": 7623,
      "Ġapple": 7624,
      "Ġsweetest": 7625,
      "eneas": 7626,
      "Ġfairy": 7627,
      "Ġbeget": 7628,
      "QUINCE": 7629,
      "Ġfalling": 7630,
      "Ġgrievous": 7631,
      "Ġstately": 7632,
      "Ġ25": 7633,
      "hamore": 7634,
      "ĠBrook": 7635,
      "Ġfalsehood": 7636,
      "Ġcommonweal": 7637,
      "noon": 7638,
      "BOULT": 7639,
      "Ġleads": 7640,
      "Ġcholer": 7641,
      "Ġwisely": 7642,
      "Ġmodern": 7643,
      "Ġresolv": 7644,
      "Ġsimp": 7645,
      "Ġpossessed": 7646,
      "Ġconceal": 7647,
      "Ġliberal": 7648,
      "Ġgranted": 7649,
      "ĠLaertes": 7650,
      "Ġqualities": 7651,
      "glas": 7652,
      "ĠĠĠĠĠĠĠĠĠĠĠĠĠĠĠĠĠĠĠĠĠĠĠĠĠĠ": 7653,
      "Ġhunger": 7654,
      "ĠSENIOR": 7655,
      "Ġconditions": 7656,
      "Ġemployed": 7657,
      "ĠSenators": 7658,
      "Ġdisguised": 7659,
      "Ġaudience": 7660,
      "ĠMahomet": 7661,
      "ĠDiana": 7662,
      "ĠOFFICER": 7663,
      "erdinand": 7664,
      "Ġoverthrow": 7665,
      "Ġvelvet": 7666,
      "PATROCL": 7667,
      "Ġ||": 7668,
      "Ġdiscipl": 7669,
      "Ġpeevish": 7670,
      "BIONDELLO": 7671,
      "NESTOR": 7672,
      "ĠWAGNER": 7673,
      "PATROCLUS": 7674,
      "Alack": 7675,
      "BAR": 7676,
      "CUR": 7677,
      "Jane": 7678,
      "PED": 7679,
      "RING": 7680,
      "Sound": 7681,
      "ae": 7682,
      "ape": 7683,
      "ached": 7684,
      "bin": 7685,
      "bble": 7686,
      "back": 7687,
      "join": 7688,
      "lst": 7689,
      "lus": 7690,
      "ming": 7691,
      "mouth": 7692,
      "oci": 7693,
      "pire": 7694,
      "rings": 7695,
      "same": 7696,
      "ule": 7697,
      "vir": 7698,
      "vius": 7699,
      "wd": 7700,
      "Ġought": 7701,
      "Ġtut": 7702,
      "Ġtur": 7703,
      "Ġtum": 7704,
      "Ġtren": 7705,
      "Ġtied": 7706,
      "Ġale": 7707,
      "Ġsignior": 7708,
      "Ġmak": 7709,
      "Ġwrest": 7710,
      "hast": 7711,
      "hant": 7712,
      "Ġbatter": 7713,
      "esu": 7714,
      "Ġobt": 7715,
      "Ġded": 7716,
      "Ġnim": 7717,
      "Ġtooth": 7718,
      "Ġbeats": 7719,
      "ĠAgrip": 7720,
      "Ġforms": 7721,
      "ĠSister": 7722,
      "Ġwept": 7723,
      "Ġstool": 7724,
      "Ġrear": 7725,
      "Ġrent": 7726,
      "urity": 7727,
      "ĠMY": 7728,
      "ĠMess": 7729,
      "ĠMESSENGER": 7730,
      "ĠHear": 7731,
      "ĠBIA": 7732,
      "Ġsoci": 7733,
      "Ġdoe": 7734,
      "ĠFerdinand": 7735,
      "andal": 7736,
      "ĠPhi": 7737,
      "ĠPembroke": 7738,
      "ĠLaw": 7739,
      "Ġlofty": 7740,
      "ĠEur": 7741,
      "Ġvouchsafe": 7742,
      "Ġspark": 7743,
      "Ġmanhood": 7744,
      "STANLEY": 7745,
      "ĠNat": 7746,
      "ĠRE": 7747,
      "uncelet": 7748,
      "ELY": 7749,
      "Ġrate": 7750,
      "ĠVice": 7751,
      "ĠVery": 7752,
      "ĠThor": 7753,
      "Ġalarum": 7754,
      "Ġchariot": 7755,
      "cile": 7756,
      "Ġflames": 7757,
      "Ġcox": 7758,
      "Ġlooking": 7759,
      "Ġrail": 7760,
      "Behold": 7761,
      "ACK": 7762,
      "Ġbreeds": 7763,
      "Ġentered": 7764,
      "Ġsmiling": 7765,
      "Ġservices": 7766,
      "Ġpassages": 7767,
      "Ġresist": 7768,
      "Ġcurst": 7769,
      "Ġdial": 7770,
      "ĠStep": 7771,
      "Ġemper": 7772,
      "Ġdiscovered": 7773,
      "Ġdiscretion": 7774,
      "Ġbuff": 7775,
      "Ġpeep": 7776,
      "aterial": 7777,
      "Ġcareful": 7778,
      "Ġacted": 7779,
      "Ġmurdered": 7780,
      "Ġshoes": 7781,
      "ĠRobin": 7782,
      "IGN": 7783,
      "Ġafford": 7784,
      "Ġwrites": 7785,
      "Ġsignify": 7786,
      "Ġcrim": 7787,
      "Ġenterprise": 7788,
      "speak": 7789,
      "Ġresolute": 7790,
      "Ġinstruments": 7791,
      "Ġbeginning": 7792,
      "OLIVER": 7793,
      "itizens": 7794,
      "ĠPerson": 7795,
      "Ġthroats": 7796,
      "Ġflattery": 7797,
      "Ġeldest": 7798,
      "Ġchastity": 7799,
      "Ġpetty": 7800,
      "Ġwhiles": 7801,
      "Ġconclude": 7802,
      "ĠQuickly": 7803,
      "Ġpunishment": 7804,
      "vocate": 7805,
      "Ġcondemn": 7806,
      "Ġtreacherous": 7807,
      "ĠPandarus": 7808,
      "ĠElizabeth": 7809,
      "Ġverses": 7810,
      "Ġashamed": 7811,
      "WOOER": 7812,
      "Ġcovetous": 7813,
      "AUMERLE": 7814,
      "bastian": 7815,
      "ĠAgripyne": 7816,
      "CESTER": 7817,
      "CELLUS": 7818,
      "GRE": 7819,
      "SER": 7820,
      "Send": 7821,
      "great": 7822,
      "pri": 7823,
      "rot": 7824,
      "yr": 7825,
      "yet": 7826,
      "Ġmort": 7827,
      "Ġwand": 7828,
      "Ġward": 7829,
      "isc": 7830,
      "Ġthrew": 7831,
      "Ġtoil": 7832,
      "edies": 7833,
      "Ġbefall": 7834,
      "sec": 7835,
      "cel": 7836,
      "ĠAmb": 7837,
      "ĠArab": 7838,
      "Ġec": 7839,
      "alter": 7840,
      "idus": 7841,
      "ĠME": 7842,
      "ĠMAL": 7843,
      "Ġkin": 7844,
      "ĠHall": 7845,
      "ĠHang": 7846,
      "ĠHubert": 7847,
      "Ġdeaf": 7848,
      "cknow": 7849,
      "ĠFollow": 7850,
      "estor": 7851,
      "ĠPES": 7852,
      "ĠPoor": 7853,
      "ĠEre": 7854,
      "Ġspee": 7855,
      "Ġneat": 7856,
      "arts": 7857,
      "ics": 7858,
      "Ġupright": 7859,
      "ulf": 7860,
      "eliver": 7861,
      "umpt": 7862,
      "LEANS": 7863,
      "Ġquest": 7864,
      "Ġrouse": 7865,
      "ĠĠĠĠĠĠĠĠĠĠĠĠĠĠĠĠĠĠĠĠĠ": 7866,
      "Ġlewd": 7867,
      "LAW": 7868,
      "ICANUS": 7869,
      "ISSA": 7870,
      "these": 7871,
      "Ġsweetly": 7872,
      "âĢĿ.": 7873,
      "EDWARD": 7874,
      "Ġbegun": 7875,
      "Ġlively": 7876,
      "Ġremorse": 7877,
      "ĠIthamore": 7878,
      "Ġturning": 7879,
      "ĠBeing": 7880,
      "Ġfallen": 7881,
      "ixed": 7882,
      "Ġfortunate": 7883,
      "Ġaccess": 7884,
      "Ġaccursed": 7885,
      "urder": 7886,
      "ĠAntipho": 7887,
      "Ġshowed": 7888,
      "clus": 7889,
      "Ġstrang": 7890,
      "Ġhandsome": 7891,
      "Ġ164": 7892,
      "Ġsounded": 7893,
      "ASTER": 7894,
      "Ġbreaks": 7895,
      "Ġcarri": 7896,
      "Ġstrangely": 7897,
      "Ġlesser": 7898,
      "ĠHercul": 7899,
      "Ġwearing": 7900,
      "Twill": 7901,
      "Ġgrey": 7902,
      "Ġrevenged": 7903,
      "Attend": 7904,
      "Ġcounsell": 7905,
      "Ġminion": 7906,
      "Ġsigns": 7907,
      "Ġrequite": 7908,
      "POET": 7909,
      "play": 7910,
      "ĠFlourish": 7911,
      "Ġhairs": 7912,
      "Ġwhores": 7913,
      "HELICANUS": 7914,
      "Ġcowards": 7915,
      "ITHOUS": 7916,
      "Ġdirection": 7917,
      "Ġinsol": 7918,
      "Ġgroan": 7919,
      "Ġwoeful": 7920,
      "ĠPope": 7921,
      "Ġprovide": 7922,
      "Ġridic": 7923,
      "Ġproperty": 7924,
      "Ġcruelty": 7925,
      "PAIN": 7926,
      "MALCOL": 7927,
      "FRENCH": 7928,
      "ĠWhither": 7929,
      "Ġconclusion": 7930,
      "NERISSA": 7931,
      "ĠAlexandria": 7932,
      "Ġbottle": 7933,
      "ĠPolonius": 7934,
      "Ġimperial": 7935,
      "CONSTANCE": 7936,
      "ĠLodow": 7937,
      "friend": 7938,
      "CARA": 7939,
      "Ġgaze": 7940,
      "Ġclap": 7941,
      "ĠScotland": 7942,
      "shire": 7943,
      "ĠSyrac": 7944,
      "Ġprodigal": 7945,
      "Ġdischarge": 7946,
      "PIRITHOUS": 7947,
      "Ġlinen": 7948,
      "Ġneglect": 7949,
      "Ġpreparation": 7950,
      "Ġclerk": 7951,
      "Ġpilgrim": 7952,
      "ARCHBISHOP": 7953,
      "Knock": 7954,
      "ĠDouglas": 7955,
      "Ġserpent": 7956,
      "olito": 7957,
      "Ġsceptre": 7958,
      "Ġinvisible": 7959,
      "ramatis": 7960,
      "Ġgiddy": 7961,
      "Ġvoyage": 7962,
      "PIDUS": 7963,
      "Ġsucceed": 7964,
      "ĠLatin": 7965,
      "ĠPESCARA": 7966,
      "MALCOLM": 7967,
      "22": 7968,
      "BAN": 7969,
      "Hail": 7970,
      "Just": 7971,
      "NYM": 7972,
      "Tru": 7973,
      "Up": 7974,
      "UIS": 7975,
      "ez": 7976,
      "fool": 7977,
      "mist": 7978,
      "oqu": 7979,
      "sen": 7980,
      "sar": 7981,
      "tled": 7982,
      "ux": 7983,
      "ymph": 7984,
      "Ġtea": 7985,
      "Ġtie": 7986,
      "Ġtask": 7987,
      "iner": 7988,
      "Ġma": 7989,
      "reck": 7990,
      "Ġwot": 7991,
      "Ġcel": 7992,
      "Ġcele": 7993,
      "Ġlance": 7994,
      "Ġyellow": 7995,
      "Ġnamed": 7996,
      "Ġpi": 7997,
      "Ġpul": 7998,
      "Ġhie": 7999,
      "oten": 8000,
      "ann": 8001,
      "ching": 8002,
      "ĠTom": 8003,
      "ĠAeneas": 8004,
      "illings": 8005,
      "ĠSignor": 8006,
      "ĠCOM": 8007,
      "ĠComp": 8008,
      "ĠCatesby": 8009,
      "ĠWhile": 8010,
      "ĠHim": 8011,
      "ĠBed": 8012,
      "Ġdove": 8013,
      "ĠPla": 8014,
      "Ġsup": 8015,
      "ĠLear": 8016,
      "ĠEnobarbus": 8017,
      "ĠGall": 8018,
      "ĠGaunt": 8019,
      "ĠDE": 8020,
      "ĠDam": 8021,
      "ĠDOCTOR": 8022,
      "quo": 8023,
      "alled": 8024,
      "epidus": 8025,
      "Ġproved": 8026,
      "Ġruth": 8027,
      "Ġroof": 8028,
      "ĠThird": 8029,
      "Ġaloud": 8030,
      "Ġaltogether": 8031,
      "iov": 8032,
      "LAP": 8033,
      "Ġraised": 8034,
      "sses": 8035,
      "âĢĿ,": 8036,
      "Ġcomplain": 8037,
      "aws": 8038,
      "Ġplaced": 8039,
      "Ġcouldst": 8040,
      "UNDY": 8041,
      "Ġpassions": 8042,
      "Ġresign": 8043,
      "Ġcheap": 8044,
      "Ġholding": 8045,
      "Ġdoublet": 8046,
      "ADE": 8047,
      "ĠMarston": 8048,
      "ajaz": 8049,
      "OCTA": 8050,
      "Ġexceeding": 8051,
      "days": 8052,
      "Ġacts": 8053,
      "Ġgrowing": 8054,
      "Ġsatir": 8055,
      "IONE": 8056,
      "Ġchoke": 8057,
      "Ġdivor": 8058,
      "ossess": 8059,
      "Ġordinary": 8060,
      "Ġprincess": 8061,
      "Ġsteep": 8062,
      "MENAS": 8063,
      "Ġconstable": 8064,
      "Ġsimil": 8065,
      "Ġbowels": 8066,
      "Ġmedit": 8067,
      "Ġpractise": 8068,
      "Ġfigures": 8069,
      "ĠCountess": 8070,
      "ĠGreeks": 8071,
      "Ġbleeding": 8072,
      "Ġdeceit": 8073,
      "Ġurge": 8074,
      "Ġnecessary": 8075,
      "Ġboots": 8076,
      "ĠAlexander": 8077,
      "Ġaffected": 8078,
      "ĠPiso": 8079,
      "Ġhaply": 8080,
      "Ġsavage": 8081,
      "HERMIONE": 8082,
      "PUCK": 8083,
      "THURIO": 8084,
      "Ġreligion": 8085,
      "BRAB": 8086,
      "Contents": 8087,
      "Ġassurance": 8088,
      "Ġfencing": 8089,
      "Until": 8090,
      "Ġexercise": 8091,
      "WESTMORELAND": 8092,
      "ĠBohemia": 8093,
      "Ġinfluence": 8094,
      "ĠPersonÃ¦": 8095,
      "Ġspeeches": 8096,
      "ĠAntipholus": 8097,
      "ĠHercules": 8098,
      "ĠLodowick": 8099,
      "AIN": 8100,
      "CER": 8101,
      "Cry": 8102,
      "Drink": 8103,
      "Fore": 8104,
      "FOURTH": 8105,
      "GEL": 8106,
      "Hans": 8107,
      "Leave": 8108,
      "Res": 8109,
      "Ralph": 8110,
      "Sybil": 8111,
      "WITH": 8112,
      "],": 8113,
      "bray": 8114,
      "cock": 8115,
      "gan": 8116,
      "lon": 8117,
      "pol": 8118,
      "rors": 8119,
      "rates": 8120,
      "wright": 8121,
      "~,": 8122,
      "Ġsed": 8123,
      "inus": 8124,
      "into": 8125,
      "Ġmention": 8126,
      "reason": 8127,
      "Ġtheat": 8128,
      "Ġbay": 8129,
      "Ġbrid": 8130,
      "lled": 8131,
      "itter": 8132,
      "Ġcord": 8133,
      "Ġcorse": 8134,
      "Ġope": 8135,
      "ening": 8136,
      "Ġdate": 8137,
      "Ġdote": 8138,
      "Ġliter": 8139,
      "Ġyond": 8140,
      "Ġyoke": 8141,
      "Ġnest": 8142,
      "stances": 8143,
      "Ġhey": 8144,
      "atest": 8145,
      "owbray": 8146,
      "sey": 8147,
      "ĠTroth": 8148,
      "ĠSCHOL": 8149,
      "lysses": 8150,
      "Ġliking": 8151,
      "ĠCade": 8152,
      "ĠBishop": 8153,
      "ĠBajaz": 8154,
      "rodu": 8155,
      "roclus": 8156,
      "Ġdeli": 8157,
      "ĠLepidus": 8158,
      "ĠOL": 8159,
      "Ġspace": 8160,
      "Ġspec": 8161,
      "ulate": 8162,
      "Ġswim": 8163,
      "Ġbliss": 8164,
      "Through": 8165,
      "ooks": 8166,
      "Ġexile": 8167,
      "Ġroar": 8168,
      "cip": 8169,
      "Ġcoarse": 8170,
      "about": 8171,
      "ittoria": 8172,
      "Ġserious": 8173,
      "Ġwarri": 8174,
      "Ġappla": 8175,
      "ISA": 8176,
      "thelst": 8177,
      "Ġtrad": 8178,
      "Ġplayers": 8179,
      "Ġiv": 8180,
      "Ġglove": 8181,
      "Ġbraw": 8182,
      "Ġcourteous": 8183,
      "Doct": 8184,
      "ĠAsia": 8185,
      "Ġsubdu": 8186,
      "Ġevening": 8187,
      "ĠArchbishop": 8188,
      "Ġtalking": 8189,
      "Ġpalm": 8190,
      "Ġinfam": 8191,
      "Ġcommands": 8192,
      "Ġjoyful": 8193,
      "Ġpupp": 8194,
      "Ġslay": 8195,
      "Ġbargain": 8196,
      "Ġtax": 8197,
      "Ġpenit": 8198,
      "Ġadded": 8199,
      "Ġsecrets": 8200,
      "Ġtitles": 8201,
      "ĠHelp": 8202,
      "ĠBelieve": 8203,
      "Ġbowl": 8204,
      "Ġprovided": 8205,
      "Ġlawn": 8206,
      "ĠLucifer": 8207,
      "Ġmerely": 8208,
      "ĠGreece": 8209,
      "Ġcontinue": 8210,
      "FRONT": 8211,
      "Ġchiefest": 8212,
      "Ġevils": 8213,
      "Ġimagination": 8214,
      "ĠSebastian": 8215,
      "Ġamazed": 8216,
      "Longa": 8217,
      "ĠCressid": 8218,
      "ĠMATHIAS": 8219,
      "ĠKNIGHT": 8220,
      "Ġsacrifice": 8221,
      "Ġpopular": 8222,
      "Ġstyle": 8223,
      "Ġfemale": 8224,
      "Ġexcellence": 8225,
      "WORCESTER": 8226,
      "ĠEurope": 8227,
      "\"?": 8228,
      ".:": 8229,
      "36": 8230,
      "39": 8231,
      "44": 8232,
      "Cl": 8233,
      "EE": 8234,
      "FL": 8235,
      "John": 8236,
      "KATHARINE": 8237,
      "Off": 8238,
      "VELL": 8239,
      "WOMAN": 8240,
      "bon": 8241,
      "car": 8242,
      "cal": 8243,
      "ffered": 8244,
      "how": 8245,
      "kins": 8246,
      "pul": 8247,
      "tered": 8248,
      "Ġtu": 8249,
      "Ġtar": 8250,
      "Ġtents": 8251,
      "inous": 8252,
      "Ġmould": 8253,
      "Ġmuse": 8254,
      "Ġmaterial": 8255,
      "Ġwail": 8256,
      "Ġbru": 8257,
      "Ġbrown": 8258,
      "Ġbail": 8259,
      "Ġfount": 8260,
      "Ġoak": 8261,
      "Ġdat": 8262,
      "Ġly": 8263,
      "Ġyon": 8264,
      "Ġnearer": 8265,
      "ĠIS": 8266,
      "Ġpite": 8267,
      "Ġpuff": 8268,
      "Ġthirst": 8269,
      "anced": 8270,
      "ingale": 8271,
      "atcl": 8272,
      "Ġgn": 8273,
      "Ġgird": 8274,
      "lean": 8275,
      "iring": 8276,
      "chor": 8277,
      "ĠAng": 8278,
      "Ġevent": 8279,
      "illon": 8280,
      "Ġstub": 8281,
      "idered": 8282,
      "ĠMus": 8283,
      "ĠMAN": 8284,
      "verb": 8285,
      "verty": 8286,
      "ĠCOS": 8287,
      "ĠComin": 8288,
      "ĠWH": 8289,
      "ĠBots": 8290,
      "ĠBastard": 8291,
      "Ġsolic": 8292,
      "Ġsem": 8293,
      "ĠFool": 8294,
      "Ġsubs": 8295,
      "Ġvn": 8296,
      "ĠGoths": 8297,
      "ĠDIS": 8298,
      "icature": 8299,
      "Ġmanif": 8300,
      "Ġconception": 8301,
      "Ġgoss": 8302,
      "ulter": 8303,
      "ola": 8304,
      "olia": 8305,
      "OLO": 8306,
      "Ġknowest": 8307,
      "Ġlets": 8308,
      "ĠJEW": 8309,
      "Ġpoverty": 8310,
      "LEPIDUS": 8311,
      "Ġhose": 8312,
      "Ġunm": 8313,
      "Ġunworthy": 8314,
      "IRON": 8315,
      "Ġrhe": 8316,
      "Ġhonoured": 8317,
      "ioch": 8318,
      "Ġcoast": 8319,
      "Ġscope": 8320,
      "Ġmarble": 8321,
      "ILDEN": 8322,
      "Ġlecher": 8323,
      "Ġlevel": 8324,
      "Ġgrain": 8325,
      "lia": 8326,
      "liest": 8327,
      "Ġdesc": 8328,
      "ICA": 8329,
      "Ġclown": 8330,
      "Ġtroop": 8331,
      "Ġcomplete": 8332,
      "PHIN": 8333,
      "Ġbreeding": 8334,
      "issa": 8335,
      "Ġfever": 8336,
      "Ġconfeder": 8337,
      "Ġafternoon": 8338,
      "ĠStanley": 8339,
      "Ġstrew": 8340,
      "atient": 8341,
      "ĠWherefore": 8342,
      "ĠMarce": 8343,
      "ĠWithout": 8344,
      "Ġjustly": 8345,
      "Ġinstance": 8346,
      "MARCELLUS": 8347,
      "Ġsuppose": 8348,
      "ĠMOSCA": 8349,
      "Ġneedful": 8350,
      "Ġprompt": 8351,
      "Ġwaves": 8352,
      "Ġgenerally": 8353,
      "ĠUlysses": 8354,
      "Ġweeps": 8355,
      "BOY": 8356,
      "Ġboard": 8357,
      "Ġextra": 8358,
      "Ġsovereig": 8359,
      "Ġcaptains": 8360,
      "essengers": 8361,
      "Ġvisage": 8362,
      "idden": 8363,
      "ĠBarnard": 8364,
      "Ġequally": 8365,
      "remio": 8366,
      "Having": 8367,
      "ĠLauncelet": 8368,
      "ĠSoldan": 8369,
      "Ġcreate": 8370,
      "Ġwhipped": 8371,
      "Ġdirectly": 8372,
      "STERN": 8373,
      "Ġcondemned": 8374,
      "Ġtreachery": 8375,
      "Gentlemen": 8376,
      "Ġexperience": 8377,
      "Ġfantast": 8378,
      "Ġvenom": 8379,
      "hersites": 8380,
      "Ġprobably": 8381,
      "ĠChap": 8382,
      "Ġcandle": 8383,
      "Ġcontrol": 8384,
      "ĠTrojan": 8385,
      "ĠChamberlain": 8386,
      "FERDINAND": 8387,
      "Ġinherit": 8388,
      "ĠSCHOLAR": 8389,
      "ĠCominius": 8390,
      "ILDENSTERN": 8391,
      "!âĢĻ": 8392,
      "Cousin": 8393,
      "GRI": 8394,
      "Giving": 8395,
      "GUNDY": 8396,
      "ILO": 8397,
      "Lie": 8398,
      "MOW": 8399,
      "Pio": 8400,
      "SOL": 8401,
      "eche": 8402,
      "face": 8403,
      "lings": 8404,
      "occ": 8405,
      "turn": 8406,
      "wood": 8407,
      "Ġtim": 8408,
      "heard": 8409,
      "Ġacknow": 8410,
      "Ġsitting": 8411,
      "Ġwished": 8412,
      "Ġbeds": 8413,
      "lles": 8414,
      "Ġfift": 8415,
      "ĠĠĠĠĠĠĠ": 8416,
      "Ġpest": 8417,
      "Ġpace": 8418,
      "Ġpowder": 8419,
      "vered": 8420,
      "Ġmyster": 8421,
      "ĠTyre": 8422,
      "ĠTeche": 8423,
      "Ġeg": 8424,
      "asp": 8425,
      "ĠSu": 8426,
      "raced": 8427,
      "ĠMusic": 8428,
      "ĠCould": 8429,
      "Ġashes": 8430,
      "ĠHIM": 8431,
      "ĠFIS": 8432,
      "estial": 8433,
      "ĠPO": 8434,
      "ERON": 8435,
      "nty": 8436,
      "eav": 8437,
      "Ġanc": 8438,
      "Ġsue": 8439,
      "Ġvanish": 8440,
      "Ġmanly": 8441,
      "Ġconvert": 8442,
      "Ġgoe": 8443,
      "ppa": 8444,
      "range": 8445,
      "AME": 8446,
      "Ġprog": 8447,
      "ROE": 8448,
      "ĠVirg": 8449,
      "ĠVittoria": 8450,
      "ĠThree": 8451,
      "Ġenm": 8452,
      "Ġabst": 8453,
      "ioy": 8454,
      "Ġroses": 8455,
      "Ġcoats": 8456,
      "Ġscandal": 8457,
      "abs": 8458,
      "berg": 8459,
      "Ġtelling": 8460,
      "Ġperi": 8461,
      "Ġrack": 8462,
      "Ġappeared": 8463,
      "Ġrub": 8464,
      "Ġkeys": 8465,
      "RIV": 8466,
      "ertram": 8467,
      "Ġcontract": 8468,
      "Ġbragg": 8469,
      "Ġkeeper": 8470,
      "Ġcourts": 8471,
      "ailer": 8472,
      "UNG": 8473,
      "Does": 8474,
      "Ġchang": 8475,
      "AGRIP": 8476,
      "Ġcharms": 8477,
      "ected": 8478,
      "Ġburi": 8479,
      "Ġstrict": 8480,
      "ĠAthen": 8481,
      "Ġcareless": 8482,
      "Ġpraises": 8483,
      "Ġmoves": 8484,
      "fortunate": 8485,
      "Ġbush": 8486,
      "Ġvict": 8487,
      "Ġyouthful": 8488,
      "ĠChurch": 8489,
      "Ġcrying": 8490,
      "Ġpuiss": 8491,
      "Anon": 8492,
      "Ġsumm": 8493,
      "Ġcontented": 8494,
      "ĠDevil": 8495,
      "Ġbeholding": 8496,
      "ELLAFRONT": 8497,
      "Ġredress": 8498,
      "Ġexchange": 8499,
      "HERMAN": 8500,
      "Ġgroans": 8501,
      "Ġtorch": 8502,
      "Ġhostess": 8503,
      "Ġfrowns": 8504,
      "Ġmourning": 8505,
      "ĠMenenius": 8506,
      "Ġborrowed": 8507,
      "rumio": 8508,
      "Ġpotent": 8509,
      "Ġexpectation": 8510,
      "DAUPHIN": 8511,
      "Ġdifferent": 8512,
      "Ġnobody": 8513,
      "Ġpinch": 8514,
      "ĠBanquo": 8515,
      "Ġ190": 8516,
      "BRAY": 8517,
      "achel": 8518,
      "THAISA": 8519,
      "Ġyesterday": 8520,
      "Ġopposite": 8521,
      "Ġdowry": 8522,
      "Ġperpetual": 8523,
      "umerle": 8524,
      "ĠGarter": 8525,
      "Ġvulgar": 8526,
      "Ġsimilar": 8527,
      "ĠCOSROE": 8528,
      "Ġsovereignty": 8529,
      "ĠTechelles": 8530,
      "ĠFISHERMAN": 8531,
      "):": 8532,
      "?[": 8533,
      "Cla": 8534,
      "DIT": 8535,
      "Full": 8536,
      "Kiss": 8537,
      "OY": 8538,
      "POR": 8539,
      "Sat": 8540,
      "bo": 8541,
      "down": 8542,
      "fav": 8543,
      "ique": 8544,
      "ky": 8545,
      "mother": 8546,
      "too": 8547,
      "wall": 8548,
      "Ġrom": 8549,
      "Ġax": 8550,
      "Ġactor": 8551,
      "Ġsig": 8552,
      "Ġbast": 8553,
      "Ġbaw": 8554,
      "Ġbounds": 8555,
      "orter": 8556,
      "lle": 8557,
      "ense": 8558,
      "enster": 8559,
      "Ġdut": 8560,
      "Ġlam": 8561,
      "Ġtoy": 8562,
      "vels": 8563,
      "ingle": 8564,
      "Ġgames": 8565,
      "lend": 8566,
      "lect": 8567,
      "ĠTut": 8568,
      "ĠTart": 8569,
      "ĠAG": 8570,
      "ĠAT": 8571,
      "ĠAgainst": 8572,
      "asse": 8573,
      "Ġwithdraw": 8574,
      "ĠSon": 8575,
      "raction": 8576,
      "idow": 8577,
      "ĠMother": 8578,
      "ĠMowbray": 8579,
      "ĠCitizens": 8580,
      "ĠHER": 8581,
      "ĠBi": 8582,
      "ĠBertram": 8583,
      "hias": 8584,
      "Ġshade": 8585,
      "ĠPh": 8586,
      "essica": 8587,
      "Ġsugar": 8588,
      "ĠLUC": 8589,
      "ARINO": 8590,
      "hod": 8591,
      "Ġspl": 8592,
      "Ġspit": 8593,
      "ĠGra": 8594,
      "ĠGarden": 8595,
      "ĠGremio": 8596,
      "ĠDaughter": 8597,
      "icha": 8598,
      "antus": 8599,
      "Ġshook": 8600,
      "Ġshillings": 8601,
      "Ġamend": 8602,
      "Ġamends": 8603,
      "emantus": 8604,
      "ulation": 8605,
      "ela": 8606,
      "ĠNone": 8607,
      "Ġarise": 8608,
      "istic": 8609,
      "Ġhated": 8610,
      "ĠJessica": 8611,
      "ĠKnight": 8612,
      "Ġhole": 8613,
      "Ġprocess": 8614,
      "Ġque": 8615,
      "ĠThurio": 8616,
      "Ġenl": 8617,
      "Ġens": 8618,
      "Ġchamp": 8619,
      "Ġrobe": 8620,
      "Ġrocks": 8621,
      "Ġrogues": 8622,
      "Ġflout": 8623,
      "liament": 8624,
      "ianus": 8625,
      "ENET": 8626,
      "Ġbloods": 8627,
      "ITCH": 8628,
      "Ġeverlasting": 8629,
      "Ġharbour": 8630,
      "Ġconspir": 8631,
      "Ġslee": 8632,
      "Ġshowers": 8633,
      "Ġtreas": 8634,
      "Ġgrieves": 8635,
      "Ġretreat": 8636,
      "Ġcouple": 8637,
      "Ġ26": 8638,
      "Ġ28": 8639,
      "Ġbanks": 8640,
      "Ġwanting": 8641,
      "rews": 8642,
      "Ġcryst": 8643,
      "Ġdistill": 8644,
      "ĠBARNARDINE": 8645,
      "Ġaffright": 8646,
      "Ġdivide": 8647,
      "Ġfamily": 8648,
      "Ġprofane": 8649,
      "Didst": 8650,
      "Ġcrook": 8651,
      "Ġsteward": 8652,
      "Ġburns": 8653,
      "Ġapprove": 8654,
      "Ġguarded": 8655,
      "Ġrobes": 8656,
      "Ġeffects": 8657,
      "Ġbonds": 8658,
      "ĠThanks": 8659,
      "Conf": 8660,
      "Ġdestiny": 8661,
      "Ġdestruction": 8662,
      "Ġprocure": 8663,
      "ĠAdam": 8664,
      "Death": 8665,
      "change": 8666,
      "SALARINO": 8667,
      "Ġimagine": 8668,
      "Ġcorruption": 8669,
      "CAPTAIN": 8670,
      "SOOTH": 8671,
      "ratiano": 8672,
      "Ġfrost": 8673,
      "Ġowes": 8674,
      "pitaph": 8675,
      "Ġtyrann": 8676,
      "Ġdetermine": 8677,
      "Ġsaucy": 8678,
      "Ġeagle": 8679,
      "Ġtouches": 8680,
      "DOLL": 8681,
      "ĠHippolito": 8682,
      "LANCASTER": 8683,
      "Ġscruple": 8684,
      "ĠMathias": 8685,
      "ANCIS": 8686,
      "ĠVerona": 8687,
      "Ġrecompense": 8688,
      "Ġreuenge": 8689,
      "ĠLieutenant": 8690,
      "Ġstretch": 8691,
      "ĠRossillon": 8692,
      "ĠGuildenster": 8693,
      "abylon": 8694,
      "Ġprivilege": 8695,
      "Ġbarbarous": 8696,
      "ĠBajazeth": 8697,
      "ĠOLD": 8698,
      "atcliffe": 8699,
      "Ġstubborn": 8700,
      "Ġfifteen": 8701,
      "ĠGuildenstern": 8702,
      "\":": 8703,
      "31": 8704,
      "AZ": 8705,
      "Athelst": 8706,
      "Bes": 8707,
      "BOTH": 8708,
      "Find": 8709,
      "Fare": 8710,
      "Gas": 8711,
      "Lords": 8712,
      "NEL": 8713,
      "Oh": 8714,
      "RIC": 8715,
      "TIN": 8716,
      "Takes": 8717,
      "Worth": 8718,
      "cat": 8719,
      "field": 8720,
      "hus": 8721,
      "nken": 8722,
      "pone": 8723,
      "Ã§": 8724,
      "Ġtext": 8725,
      "Ġslip": 8726,
      "inity": 8727,
      "Ġmile": 8728,
      "Ġmethought": 8729,
      "oration": 8730,
      "itan": 8731,
      "Ġhue": 8732,
      "Ġhire": 8733,
      "atory": 8734,
      "Ġgri": 8735,
      "Ġgait": 8736,
      "Ġguts": 8737,
      "Ġinha": 8738,
      "etaster": 8739,
      "ĠTha": 8740,
      "ĠAct": 8741,
      "ĠAcc": 8742,
      "ĠAfter": 8743,
      "ille": 8744,
      "ĠSP": 8745,
      "ĠSw": 8746,
      "ĠSet": 8747,
      "adle": 8748,
      "rian": 8749,
      "rap": 8750,
      "rage": 8751,
      "Ġstark": 8752,
      "Ġstuck": 8753,
      "Ġreap": 8754,
      "ĠMr": 8755,
      "Ġliver": 8756,
      "Ġliken": 8757,
      "ĠCAS": 8758,
      "ĠCamb": 8759,
      "ĠHIST": 8760,
      "Ġsober": 8761,
      "Ġsequ": 8762,
      "ĠPren": 8763,
      "Ġsung": 8764,
      "Ġsuffered": 8765,
      "ĠEM": 8766,
      "Ġvine": 8767,
      "ĠGon": 8768,
      "Ġkna": 8769,
      "Ġfawn": 8770,
      "icle": 8771,
      "hano": 8772,
      "antua": 8773,
      "Ġconceived": 8774,
      "eling": 8775,
      "ĠAndrew": 8776,
      "ĠNab": 8777,
      "hylock": 8778,
      "Ġworms": 8779,
      "Ġarrant": 8780,
      "ĠJesu": 8781,
      "Ġje": 8782,
      "THER": 8783,
      "THAS": 8784,
      "CHIRON": 8785,
      "Ġbrass": 8786,
      "ondello": 8787,
      "Ġrings": 8788,
      "CETES": 8789,
      "Ġchains": 8790,
      "Ġearlier": 8791,
      "Ġarticles": 8792,
      "Ġhears": 8793,
      "olly": 8794,
      "Ġadvocate": 8795,
      "Ġruled": 8796,
      "Ġkeen": 8797,
      "âĢĿ?": 8798,
      "Soft": 8799,
      "blance": 8800,
      "halley": 8801,
      "Ġii": 8802,
      "Ġbrand": 8803,
      "EMBROKE": 8804,
      "Ġeveryone": 8805,
      "IDOW": 8806,
      "ĠBehold": 8807,
      "Ġrestore": 8808,
      "Ġcheck": 8809,
      "Ġguests": 8810,
      "Ġdiet": 8811,
      "ĠStill": 8812,
      "Ġassault": 8813,
      "Ġhighly": 8814,
      "Ġbuilt": 8815,
      "Ġpeer": 8816,
      "Ġvillainous": 8817,
      "Ġ27": 8818,
      "Ġwindows": 8819,
      "MARIANA": 8820,
      "Ġworking": 8821,
      "Ġbreaking": 8822,
      "Ġcarries": 8823,
      "Ġdancing": 8824,
      "Ġdoubtful": 8825,
      "Ġdrunken": 8826,
      "Ġskull": 8827,
      "BOW": 8828,
      "YRAS": 8829,
      "Ġpays": 8830,
      "Ġfeare": 8831,
      "ĠFlu": 8832,
      "Ġ30": 8833,
      "Ġgarment": 8834,
      "Ġquarrels": 8835,
      "phelia": 8836,
      "ascus": 8837,
      "Ġweakness": 8838,
      "Comes": 8839,
      "Commend": 8840,
      "Ġutmost": 8841,
      "Ġdrift": 8842,
      "Ġprophes": 8843,
      "Ġproportion": 8844,
      "ĠConstable": 8845,
      "ĠPersian": 8846,
      "Marc": 8847,
      "Ġremembered": 8848,
      "ĠApemantus": 8849,
      "ortunity": 8850,
      "culiar": 8851,
      "ĠSenate": 8852,
      "ĠBassianus": 8853,
      "ucelle": 8854,
      "Ġusurp": 8855,
      "Ġcherish": 8856,
      "Ġbeautiful": 8857,
      "Ġextremity": 8858,
      "Ġrenowned": 8859,
      "BALTHAS": 8860,
      "Ġcurtain": 8861,
      "Ġcopy": 8862,
      "ĠKatherine": 8863,
      "Ġclimb": 8864,
      "Ġoriginal": 8865,
      "ĠPatroclus": 8866,
      "Ġprophet": 8867,
      "Ġblaz": 8868,
      "CATES": 8869,
      "ĠAMYRAS": 8870,
      "Ġingenious": 8871,
      "Ġmorris": 8872,
      "INCHESTER": 8873,
      "Ġdiffic": 8874,
      "Ġmedicine": 8875,
      "Ġstrokes": 8876,
      "Ġdiscipline": 8877,
      "ĠMYCETES": 8878,
      "PAINTER": 8879,
      "BRABANTIO": 8880,
      "MOWBRAY": 8881,
      "BALTHASAR": 8882,
      "Dramatis": 8883,
      "Else": 8884,
      "Fri": 8885,
      "Fly": 8886,
      "Gall": 8887,
      "KENT": 8888,
      "MASTER": 8889,
      "Remember": 8890,
      "Sleep": 8891,
      "VIL": 8892,
      "WH": 8893,
      "WIDOW": 8894,
      "chard": 8895,
      "craft": 8896,
      "duff": 8897,
      "liness": 8898,
      "mas": 8899,
      "tico": 8900,
      "ura": 8901,
      "yard": 8902,
      "~_.": 8903,
      "ĠX": 8904,
      "Ġess": 8905,
      "Ġtales": 8906,
      "Ġtickle": 8907,
      "Ġaged": 8908,
      "Ġslaine": 8909,
      "inies": 8910,
      "Ġfan": 8911,
      "Ġfires": 8912,
      "Ġfanc": 8913,
      "Ġfurious": 8914,
      "itive": 8915,
      "itary": 8916,
      "Ġcudge": 8917,
      "Ġoil": 8918,
      "Ġdil": 8919,
      "Ġdine": 8920,
      "Ġdressed": 8921,
      "Ġlar": 8922,
      "Ġlatest": 8923,
      "Ġnap": 8924,
      "Ġpipe": 8925,
      "Ġhounds": 8926,
      "Ġthorough": 8927,
      "Ġtoss": 8928,
      "Ġbere": 8929,
      "Ġhare": 8930,
      "ĠTer": 8931,
      "ĠThersites": 8932,
      "ĠAS": 8933,
      "ĠAaron": 8934,
      "Ġepitaph": 8935,
      "asions": 8936,
      "enton": 8937,
      "ĠSim": 8938,
      "ĠSix": 8939,
      "adem": 8940,
      "rib": 8941,
      "Ġstake": 8942,
      "Ġstag": 8943,
      "ĠMag": 8944,
      "ĠMonsieur": 8945,
      "uss": 8946,
      "ĠCH": 8947,
      "ĠBabylon": 8948,
      "Ġdefe": 8949,
      "Ġdeity": 8950,
      "ĠFrank": 8951,
      "ĠPlease": 8952,
      "ĠLo": 8953,
      "ARY": 8954,
      "ARRO": 8955,
      "ĠOff": 8956,
      "ĠOliver": 8957,
      "ĠOphelia": 8958,
      "ĠEX": 8959,
      "ĠEly": 8960,
      "Ġvp": 8961,
      "Ġvass": 8962,
      "Ġvpon": 8963,
      "ĠGhost": 8964,
      "ĠDavy": 8965,
      "antle": 8966,
      "ORLEANS": 8967,
      "Ġconsequ": 8968,
      "feited": 8969,
      "elf": 8970,
      "endom": 8971,
      "Ġtheme": 8972,
      "ĠRow": 8973,
      "ĠROB": 8974,
      "Ġblock": 8975,
      "ĠJa": 8976,
      "IOUS": 8977,
      "LEX": 8978,
      "Ġsails": 8979,
      "Ġexit": 8980,
      "Ġunl": 8981,
      "Ġtruce": 8982,
      "Ġabus": 8983,
      "Ġroaring": 8984,
      "LOUIS": 8985,
      "chemist": 8986,
      "Ġserving": 8987,
      "olles": 8988,
      "Ġadventure": 8989,
      "ITO": 8990,
      "Ġcommons": 8991,
      "Ġcalling": 8992,
      "Ġcompar": 8993,
      "Noble": 8994,
      "Ġcontents": 8995,
      "aints": 8996,
      "Ġcourtiers": 8997,
      "Ġputting": 8998,
      "Ġconfident": 8999,
      "Ġpresented": 9000,
      "OBERON": 9001,
      "Ġimpart": 9002,
      "ĠAntioch": 9003,
      "Ġstrangers": 9004,
      "Ġdisco": 9005,
      "Ġhelm": 9006,
      "Ġmoving": 9007,
      "Ġinstead": 9008,
      "without": 9009,
      "BURGUNDY": 9010,
      "Ġmurderers": 9011,
      "Ġsupport": 9012,
      "Ġcountryman": 9013,
      "Ġsights": 9014,
      "Ġsinging": 9015,
      "ĠFrenchman": 9016,
      "Ġsenseless": 9017,
      "ĠRead": 9018,
      "Ġasked": 9019,
      "ĠCloten": 9020,
      "Ġcritic": 9021,
      "Ġfoil": 9022,
      "Ġwalking": 9023,
      "Ġcloset": 9024,
      "ĠJews": 9025,
      "olyta": 9026,
      "Ġtransport": 9027,
      "Ġfilled": 9028,
      "Ġtroubles": 9029,
      "Ġbosoms": 9030,
      "Ġsufferance": 9031,
      "Ġobst": 9032,
      "Ġobscure": 9033,
      "Ġheirs": 9034,
      "Ġbells": 9035,
      "Ġwealthy": 9036,
      "Ġesp": 9037,
      "Ġrobb": 9038,
      "ĠPoins": 9039,
      "GUILDENSTERN": 9040,
      "iola": 9041,
      "glass": 9042,
      "Ġapace": 9043,
      "ĠĠĠĠĠĠĠĠĠĠĠĠĠĠĠĠĠĠĠĠĠĠĠĠĠĠĠ": 9044,
      "Ġlodge": 9045,
      "grippa": 9046,
      "Ġneighbours": 9047,
      "FRANCIS": 9048,
      "Ġmidst": 9049,
      "ĠWhom": 9050,
      "SAYER": 9051,
      "Ġdegrees": 9052,
      "Ġcorner": 9053,
      "Ġtribunes": 9054,
      "Ġhunting": 9055,
      "Ġfeeble": 9056,
      "Ġsquare": 9057,
      "ĠCALLAP": 9058,
      "Ġforswear": 9059,
      "Ġarriv": 9060,
      "Ġobedient": 9061,
      "Ġfilthy": 9062,
      "Ġprinted": 9063,
      "ĠCressida": 9064,
      "ĠMATHEO": 9065,
      "Ġcoffin": 9066,
      "Ġmultitude": 9067,
      "EARL": 9068,
      "Ġdissemble": 9069,
      "Ġtrifle": 9070,
      "ĠCasca": 9071,
      "Return": 9072,
      "Cypr": 9073,
      "Ġinferior": 9074,
      "Ġrumour": 9075,
      "Ġdiseases": 9076,
      "Ġsinews": 9077,
      "Ġdukedom": 9078,
      "Ġnimble": 9079,
      "Ġcoxcomb": 9080,
      "Ġcelestial": 9081,
      "Ġpiteous": 9082,
      "ichael": 9083,
      "Ã§on": 9084,
      "ĠCALLAPINE": 9085,
      "\";": 9086,
      "\"--": 9087,
      "34": 9088,
      "Cor": 9089,
      "Count": 9090,
      "DOR": 9091,
      "Fal": 9092,
      "Imp": 9093,
      "MP": 9094,
      "Making": 9095,
      "New": 9096,
      "Run": 9097,
      "Rather": 9098,
      "Richard": 9099,
      "Tut": 9100,
      "VINC": 9101,
      "bi": 9102,
      "burn": 9103,
      "body": 9104,
      "claim": 9105,
      "court": 9106,
      "due": 9107,
      "gic": 9108,
      "iard": 9109,
      "ipt": 9110,
      "lies": 9111,
      "mission": 9112,
      "nance": 9113,
      "sion": 9114,
      "ties": 9115,
      "uary": 9116,
      "wing": 9117,
      "while": 9118,
      "yp": 9119,
      "Ġtrow": 9120,
      "Ġtreat": 9121,
      "Ġtorn": 9122,
      "heres": 9123,
      "Ġafe": 9124,
      "Ġwenches": 9125,
      "Ġbal": 9126,
      "Ġbait": 9127,
      "erissa": 9128,
      "llen": 9129,
      "Ġfet": 9130,
      "Ġfist": 9131,
      "Ġcit": 9132,
      "Ġchat": 9133,
      "Ġcities": 9134,
      "esse": 9135,
      "Ġdroop": 9136,
      "Ġlads": 9137,
      "Ġoffered": 9138,
      "anche": 9139,
      "Ġheau": 9140,
      "athed": 9141,
      "omy": 9142,
      "Ġgay": 9143,
      "Ġgru": 9144,
      "Ġbeer": 9145,
      "semb": 9146,
      "Ġhail": 9147,
      "ĠTIB": 9148,
      "ading": 9149,
      "ala": 9150,
      "Ġstates": 9151,
      "ĠMA": 9152,
      "ĠMo": 9153,
      "ĠMed": 9154,
      "ĠCons": 9155,
      "ĠBY": 9156,
      "Ġdole": 9157,
      "Ġsepar": 9158,
      "ĠFOR": 9159,
      "ERICK": 9160,
      "Ġann": 9161,
      "ĠEvery": 9162,
      "Ġvig": 9163,
      "ĠGO": 9164,
      "ĠGower": 9165,
      "ĠGrumio": 9166,
      "ĠGratiano": 9167,
      "ĠDown": 9168,
      "ĠDraw": 9169,
      "hance": 9170,
      "Ġconven": 9171,
      "Ġconvers": 9172,
      "empl": 9173,
      "Ġoracle": 9174,
      "odger": 9175,
      "Ġthereby": 9176,
      "uno": 9177,
      "Ġblast": 9178,
      "Ġblank": 9179,
      "Ġhates": 9180,
      "Ġseeks": 9181,
      "ELBOW": 9182,
      "Ġjot": 9183,
      "Ġhop": 9184,
      "AMP": 9185,
      "Ġextend": 9186,
      "Ġproverb": 9187,
      "IRE": 9188,
      "Ġrush": 9189,
      "imely": 9190,
      "Ġflint": 9191,
      "Ġscent": 9192,
      "Ġgrands": 9193,
      "ANTAG": 9194,
      "apers": 9195,
      "Ġraging": 9196,
      "Ġragged": 9197,
      "Ġ_&": 9198,
      "ISH": 9199,
      "Ġfearing": 9200,
      "bler": 9201,
      "EDERICK": 9202,
      "Ġremoved": 9203,
      "Ġreply": 9204,
      "Ġsetting": 9205,
      "Ġchest": 9206,
      "Ġworthless": 9207,
      "Ġnatures": 9208,
      "Ġcouch": 9209,
      "ĠMaria": 9210,
      "Ġ1616": 9211,
      "withstanding": 9212,
      "Ġbreakfast": 9213,
      "Ġactors": 9214,
      "Ġfighting": 9215,
      "ORTUN": 9216,
      "Ġslumber": 9217,
      "Ġincon": 9218,
      "Ġattire": 9219,
      "Ġexplo": 9220,
      "Ġvein": 9221,
      "Ġcorp": 9222,
      "Ġcreated": 9223,
      "Ġsurfeit": 9224,
      "Ġaddress": 9225,
      "Ġharmony": 9226,
      "Ġfrail": 9227,
      "ĠParolles": 9228,
      "Ġpitied": 9229,
      "Ġstirring": 9230,
      "eeming": 9231,
      "Ġtorments": 9232,
      "Ġhideous": 9233,
      "incentio": 9234,
      "Ġmarching": 9235,
      "ifferent": 9236,
      "Ġpunk": 9237,
      "Ġdeparture": 9238,
      "Ġdamnation": 9239,
      "Ġconqueror": 9240,
      "Ġformerly": 9241,
      "Ġproceeding": 9242,
      "ĠAdieu": 9243,
      "Ġdeceiv": 9244,
      "Ġhorror": 9245,
      "Ġbands": 9246,
      "ratitude": 9247,
      "Ġwager": 9248,
      "VIRG": 9249,
      "Ġpillow": 9250,
      "Ġfeathers": 9251,
      "Ġvillany": 9252,
      "Ġprosperous": 9253,
      "Ġtouched": 9254,
      "ĠTrib": 9255,
      "Ġwrack": 9256,
      "ĠFREDERICK": 9257,
      "jection": 9258,
      "ĠPhoebe": 9259,
      "WILLIAMS": 9260,
      "Ġpronounce": 9261,
      "odsley": 9262,
      "Ġgilded": 9263,
      "Ġexpedition": 9264,
      "Ġrebellion": 9265,
      "ĠOUTLAW": 9266,
      "Ġmerrily": 9267,
      "ĠSecond": 9268,
      "ĠNatolia": 9269,
      "Ġpuppet": 9270,
      "ĠMusco": 9271,
      "AGRIPPA": 9272,
      "PORTER": 9273,
      "ĠBiondello": 9274,
      "Ġcrystal": 9275,
      "Ġlikeness": 9276,
      "Ġafeard": 9277,
      "ANTAGENET": 9278,
      "![": 9279,
      "AUS": 9280,
      "BL": 9281,
      "Ber": 9282,
      "BED": 9283,
      "Char": 9284,
      "Father": 9285,
      "Gl": 9286,
      "Gu": 9287,
      "OE": 9288,
      "OUT": 9289,
      "PLA": 9290,
      "TIS": 9291,
      "Wit": 9292,
      "bre": 9293,
      "cons": 9294,
      "gr": 9295,
      "mith": 9296,
      "mad": 9297,
      "nothing": 9298,
      "roof": 9299,
      "tree": 9300,
      "vied": 9301,
      "Ġ}": 9302,
      "Ġign": 9303,
      "Ġaut": 9304,
      "Ġape": 9305,
      "Ġsouth": 9306,
      "inth": 9307,
      "Ġtheft": 9308,
      "Ġbald": 9309,
      "erves": 9310,
      "enÃ§on": 9311,
      "Ġdon": 9312,
      "Ġdried": 9313,
      "Ġlas": 9314,
      "Ġlute": 9315,
      "Ġlamp": 9316,
      "Ġnarrow": 9317,
      "Ġpush": 9318,
      "Ġhedge": 9319,
      "Ġgoose": 9320,
      "edo": 9321,
      "Ġbeare": 9322,
      "Ġbelike": 9323,
      "Ġhaught": 9324,
      "ĠTars": 9325,
      "ĠTouch": 9326,
      "Ġnotorious": 9327,
      "ĠAumerle": 9328,
      "Ġforc": 9329,
      "ĠSha": 9330,
      "ĠSomet": 9331,
      "raint": 9332,
      "ido": 9333,
      "Ġresem": 9334,
      "ĠMantua": 9335,
      "ĠMichael": 9336,
      "Ġlions": 9337,
      "ĠCEL": 9338,
      "ĠCamp": 9339,
      "ĠCoun": 9340,
      "Ġsoil": 9341,
      "ione": 9342,
      "Ġsevent": 9343,
      "andra": 9344,
      "ĠPAR": 9345,
      "ĠPET": 9346,
      "EROS": 9347,
      "ilence": 9348,
      "Ġsuitor": 9349,
      "ĠEros": 9350,
      "ĠGREY": 9351,
      "Ġfaction": 9352,
      "quir": 9353,
      "ems": 9354,
      "ulo": 9355,
      "Ġorchard": 9356,
      "ĠNept": 9357,
      "ĠNestor": 9358,
      "ately": 9359,
      "Ġswagger": 9360,
      "igent": 9361,
      "Ġcanker": 9362,
      "Ġarras": 9363,
      "ALPH": 9364,
      "ALDO": 9365,
      "oster": 9366,
      "unuch": 9367,
      "Ġuses": 9368,
      "ĠJer": 9369,
      "ĠJailer": 9370,
      "Ġpos": 9371,
      "Ġunivers": 9372,
      "Ġrout": 9373,
      "ĠThorney": 9374,
      "Ġaloft": 9375,
      "igne": 9376,
      "civious": 9377,
      "Ġscape": 9378,
      "Ġleaving": 9379,
      "oult": 9380,
      "apud": 9381,
      "iable": 9382,
      "Ġpref": 9383,
      "Ġclass": 9384,
      "neath": 9385,
      "Ġpresume": 9386,
      "Ġlonging": 9387,
      "Ġkeeping": 9388,
      "Ġrepose": 9389,
      "Ġreproach": 9390,
      "Ġdrag": 9391,
      "rantz": 9392,
      "Ġfeeds": 9393,
      "Ġconfidence": 9394,
      "Ġconsort": 9395,
      "AGUE": 9396,
      "Ġseemed": 9397,
      "Ġbuzz": 9398,
      "Ġsurety": 9399,
      "Ġthousands": 9400,
      "Ġmothers": 9401,
      "Ġgrass": 9402,
      "Ġfalcon": 9403,
      "Ġ29": 9404,
      "Ġhorsemen": 9405,
      "Ġ1640": 9406,
      "Ġcarriage": 9407,
      "ĠSpain": 9408,
      "ĠAlarum": 9409,
      "Ġgalleys": 9410,
      "Ġdispose": 9411,
      "Ġdisplay": 9412,
      "Ġmettle": 9413,
      "Ġadvised": 9414,
      "otspur": 9415,
      "Ġdistracted": 9416,
      "Ġdistemper": 9417,
      "ĠLORENZO": 9418,
      "Ġcomforts": 9419,
      "Ġsufficient": 9420,
      "Ġdevour": 9421,
      "ĠChristendom": 9422,
      "Ġestim": 9423,
      "Ġrequire": 9424,
      "Ġyielded": 9425,
      "Ġfasting": 9426,
      "Ġpenance": 9427,
      "Ġconquered": 9428,
      "Ġconstancy": 9429,
      "weep": 9430,
      "Ġmountains": 9431,
      "Ġcarrying": 9432,
      "Ġsafely": 9433,
      "Ġdriven": 9434,
      "Ġreveal": 9435,
      "ĠPlay": 9436,
      "Ġintended": 9437,
      "Ġdwells": 9438,
      "Ġwaiting": 9439,
      "Ġknocks": 9440,
      "Ġhorrid": 9441,
      "Ġcolle": 9442,
      "GAUNT": 9443,
      "Ġderived": 9444,
      "Ġreceiv": 9445,
      "ĠCorioles": 9446,
      "Ġstolen": 9447,
      "Ġaltar": 9448,
      "Ġshoemakers": 9449,
      "Neither": 9450,
      "Ġsaints": 9451,
      "Servant": 9452,
      "ĠALL": 9453,
      "ĠKatherina": 9454,
      "Ġparents": 9455,
      "Ġsoule": 9456,
      "ĠOctavia": 9457,
      "Ġbeguile": 9458,
      "Ġhomage": 9459,
      "Romeo": 9460,
[...]
