{
  "version": "1.0",
  "truncation": null,
  "padding": null,
  "added_tokens": [],
  "normalizer": null,
  "pre_tokenizer": {
    "type": "ByteLevel",
    "add_prefix_space": false,
    "trim_offsets": true,
    "use_regex": true
  },
  "post_processor": null,
  "decoder": {
    "type": "ByteLevel",
    "add_prefix_space": true,
    "trim_offsets": true,
    "use_regex": true
  },
  "model": {
    "type": "BPE",
    "dropout": null,
    "unk_token": null,
    "continuing_subword_prefix": null,
    "end_of_word_suffix": null,
    "fuse_unk": false,
    "byte_fallback": false,
    "ignore_merges": false,
    "vocab": {
      "!": 0,
      "\"": 1,
      "#": 2,
      "$": 3,
      "%": 4,
      "&": 5,
      "'": 6,
      "(": 7,
      ")": 8,
      "*": 9,
      "+": 10,
      ",": 11,
      "-": 12,
      ".": 13,
      "/": 14,
      "0": 15,
      "1": 16,
      "2": 17,
      "3": 18,
      "4": 19,
      "5": 20,
      "6": 21,
      "7": 22,
      "8": 23,
      "9": 24,
      ":": 25,
      ";": 26,
      "<": 27,
      "=": 28,
      ">": 29,
      "?": 30,
      "@": 31,
      "A": 32,
      "B": 33,
      "C": 34,
      "D": 35,
      "E": 36,
      "F": 37,
      "G": 38,
      "H": 39,
      "I": 40,
      "J": 41,
      "K": 42,
      "L": 43,
      "M": 44,
      "N": 45,
      "O": 46,
      "P": 47,
      "Q": 48,
      "R": 49,
      "S": 50,
      "T": 51,
      "U": 52,
      "V": 53,
      "W": 54,
      "X": 55,
      "Y": 56,
      "Z": 57,
      "[": 58,
      "\\": 59,
      "]": 60,
      "^": 61,
      "_": 62,
      "`": 63,
      "a": 64,
      "b": 65,
      "c": 66,
      "d": 67,
      "e": 68,
      "f": 69,
      "g": 70,
      "h": 71,
      "i": 72,
      "j": 73,
      "k": 74,
      "l": 75,
      "m": 76,
      "n": 77,
      "o": 78,
      "p": 79,
      "q": 80,
      "r": 81,
      "s": 82,
      "t": 83,
      "u": 84,
      "v": 85,
      "w": 86,
      "x": 87,
      "y": 88,
      "z": 89,
      "{": 90,
      "|": 91,
      "}": 92,
      "~": 93,
      "¡": 94,
      "¢": 95,
      "£": 96,
      "¤": 97,
      "¥": 98,
      "¦": 99,
      "§": 100,
      "¨": 101,
      "©": 102,
      "ª": 103,
      "«": 104,
      "¬": 105,
      "®": 106,
      "¯": 107,
      "°": 108,
      "±": 109,
      "²": 110,
      "³": 111,
      "´": 112,
      "µ": 113,
      "¶": 114,
      "·": 115,
      "¸": 116,
      "¹": 117,
      "º": 118,
      "»": 119,
      "¼": 120,
      "½": 121,
      "¾": 122,
      "¿": 123,
      "À": 124,
      "Á": 125,
      "Â": 126,
      "Ã": 127,
      "Ä": 128,
      "Å": 129,
      "Æ": 130,
      "Ç": 131,
      "È": 132,
      "É": 133,
      "Ê": 134,
      "Ë": 135,
      "Ì": 136,
      "Í": 137,
      "Î": 138,
      "Ï": 139,
      "Ð": 140,
      "Ñ": 141,
      "Ò": 142,
      "Ó": 143,
      "Ô": 144,
      "Õ": 145,
      "Ö": 146,
      "×": 147,
      "Ø": 148,
      "Ù": 149,
      "Ú": 150,
      "Û": 151,
      "Ü": 152,
      "Ý": 153,
      "Þ": 154,
      "ß": 155,
      "à": 156,
      "á": 157,
      "â": 158,
      "ã": 159,
      "ä": 160,
      "å": 161,
      "æ": 162,
      "ç": 163,
      "è": 164,
      "é": 165,
      "ê": 166,
      "ë": 167,
      "ì": 168,
      "í": 169,
      "î": 170,
      "ï": 171,
      "ð": 172,
      "ñ": 173,
      "ò": 174,
      "ó": 175,
      "ô": 176,
      "õ": 177,
      "ö": 178,
      "÷": 179,
      "ø": 180,
      "ù": 181,
      "ú": 182,
      "û": 183,
      "ü": 184,
      "ý": 185,
      "þ": 186,
      "ÿ": 187,
      "Ā": 188,
      "ā": 189,
      "Ă": 190,
      "ă": 191,
      "Ą": 192,
      "ą": 193,
      "Ć": 194,
      "ć": 195,
      "Ĉ": 196,
      "ĉ": 197,
      "Ċ": 198,
      "ċ": 199,
      "Č": 200,
      "č": 201,
      "Ď": 202,
      "ď": 203,
      "Đ": 204,
      "đ": 205,
      "Ē": 206,
      "ē": 207,
      "Ĕ": 208,
      "ĕ": 209,
      "Ė": 210,
      "ė": 211,
      "Ę": 212,
      "ę": 213,
      "Ě": 214,
      "ě": 215,
      "Ĝ": 216,
      "ĝ": 217,
      "Ğ": 218,
      "ğ": 219,
      "Ġ": 220,
      "ġ": 221,
      "Ģ": 222,
      "ģ": 223,
      "Ĥ": 224,
      "ĥ": 225,
      "Ħ": 226,
      "ħ": 227,
      "Ĩ": 228,
      "ĩ": 229,
      "Ī": 230,
      "ī": 231,
      "Ĭ": 232,
      "ĭ": 233,
      "Į": 234,
      "į": 235,
      "İ": 236,
      "ı": 237,
      "Ĳ": 238,
      "ĳ": 239,
      "Ĵ": 240,
      "ĵ": 241,
      "Ķ": 242,
      "ķ": 243,
      "ĸ": 244,
      "Ĺ": 245,
      "ĺ": 246,
      "Ļ": 247,
      "ļ": 248,
      "Ľ": 249,
      "ľ": 250,
      "Ŀ": 251,
      "ŀ": 252,
      "Ł": 253,
      "ł": 254,
      "Ń": 255,
      "Ġt": 256,
      "he": 257,
      "Ġa": 258,
      "ĠĠ": 259,
      "ou": 260,
      "Ġs": 261,
      "in": 262,
      "Ġm": 263,
      "re": 264,
      "Ġw": 265,
      "ha": 266,
      "nd": 267,
      "Ġthe": 268,
      "Ġb": 269,
      "er": 270,
      "is": 271,
      "or": 272,
      "on": 273,
      "ll": 274,
      "Ġf": 275,
      "it": 276,
      "Ġc": 277,
      "es": 278,
      "Ġo": 279,
      "en": 280,
      "Ġd": 281,
      "âĢ": 282,
      "Ġl": 283,
      "Ġy": 284,
      "ĠĠĠĠ": 285,
      "Ġn": 286,
      "ar": 287,
      "ĠI": 288,
      "Ġp": 289,
      "Ġh": 290,
      "Ġth": 291,
      "âĢĻ": 292,
      "Ġyou": 293,
      "Ġto": 294,
      "Ġof": 295,
      "Ġand": 296,
      "ot": 297,
      "an": 298,
      "hat": 299,
      "st": 300,
      "Ġhe": 301,
      "ve": 302,
      "ing": 303,
      "at": 304,
      "ow": 305,
      "om": 306,
      "Ġg": 307,
      "ed": 308,
      "Ġin": 309,
      "Ġbe": 310,
      "se": 311,
      "ce": 312,
      "Ġha": 313,
      "ĊĊ": 314,
      "et": 315,
      "Ġmy": 316,
      "le": 317,
      "ld": 318,
      "ir": 319,
      "ay": 320,
      "ut": 321,
      "im": 322,
      "ith": 323,
      "ch": 324,
      "Ġme": 325,
      "ĠT": 326,
      "gh": 327,
      "Ġnot": 328,
      "ĠA": 329,
      "Ġe": 330,
      "Ġfor": 331,
      "Ġis": 332,
      "ill": 333,
      "Ġthat": 334,
      "ke": 335,
      "our": 336,
      "as": 337,
      "ent": 338,
      "oo": 339,
      "Ġu": 340,
      "ĊĠĠĠĠ": 341,
      "Ġwith": 342,
      "ĠS": 343,
      "ad": 344,
      "ri": 345,
      "Ġwe": 346,
      "al": 347,
      "._": 348,
      "Ġit": 349,
      "ra": 350,
      "Ġyour": 351,
      "ter": 352,
      "her": 353,
      "Ġst": 354,
      "Ġhis": 355,
      "id": 356,
      "ly": 357,
      "Ġre": 358,
      "ur": 359,
      "ght": 360,
      "Ġon": 361,
      "Ġthis": 362,
      "Ġhave": 363,
      "ome": 364,
      "Ġhim": 365,
      "Ġthou": 366,
      "ĠM": 367,
      "us": 368,
      "ver": 369,
      "am": 370,
      "And": 371,
      "Ġli": 372,
      "ord": 373,
      "Ġk": 374,
      "ĠC": 375,
      "Ġas": 376,
      "ĠW": 377,
      "ĠH": 378,
      "ore": 379,
      "ĊĠ": 380,
      "ĠB": 381,
      "Ġso": 382,
      "ion": 383,
      "ain": 384,
      "ro": 385,
      "ould": 386,
      "hi": 387,
      "Ġde": 388,
      "ĊĠĠ": 389,
      "Ġdo": 390,
      "Ġse": 391,
      "ck": 392,
      "Ġsha": 393,
      "The": 394,
      "ĠF": 395,
      "ood": 396,
      "Ġwill": 397,
      "est": 398,
      "and": 399,
      "ĠP": 400,
      "ER": 401,
      "ge": 402,
      "ess": 403,
      "EN": 404,
      "nt": 405,
      "ĠĠĠĠĠĠĠĠ": 406,
      "ea": 407,
      "Ġher": 408,
      "Ġall": 409,
      "il": 410,
      "th": 411,
      "Ġan": 412,
      "ct": 413,
      "Ġsu": 414,
      "Ġbut": 415,
      "IN": 416,
      "ĠL": 417,
      "AN": 418,
      "ru": 419,
      "Ġno": 420,
      "if": 421,
      "ell": 422,
      "US": 423,
      "ake": 424,
      "AR": 425,
      "Ġlo": 426,
      "ast": 427,
      "ĠO": 428,
      "Ġthy": 429,
      "ho": 430,
      "ĠE": 431,
      "Ġv": 432,
      "Ġsp": 433,
      "Ġshall": 434,
      "Ġby": 435,
      "Ġne": 436,
      "ĠG": 437,
      "Ġare": 438,
      "Ġkn": 439,
      "ĠD": 440,
      "ight": 441,
      "[_": 442,
      "Ġfa": 443,
      "rom": 444,
      "art": 445,
      "ard": 446,
      "ic": 447,
      "Ġthee": 448,
      "han": 449,
      "Ġat": 450,
      "ant": 451,
      "ine": 452,
      "ous": 453,
      "qu": 454,
      "Ġsh": 455,
      "ES": 456,
      "res": 457,
      "OR": 458,
      "ear": 459,
      "ON": 460,
      "Ġour": 461,
      "ust": 462,
      "Ġman": 463,
      "ie": 464,
      "ers": 465,
      "ĠThe": 466,
      "out": 467,
      "Ġup": 468,
      "one": 469,
      "Ġcon": 470,
      "ĊĊĠĠĠĠ": 471,
      "Ġcom": 472,
      "Ġam": 473,
      "em": 474,
      "Ġgo": 475,
      "ĊĊĠ": 476,
      "Ġwhe": 477,
      "all": 478,
      "fe": 479,
      "ive": 480,
      "To": 481,
      "Ġlord": 482,
      "--": 483,
      "ul": 484,
      "Ġor": 485,
      "ol": 486,
      "hich": 487,
      "ong": 488,
      "sel": 489,
      "el": 490,
      "ĠAnd": 491,
      "Ġwas": 492,
      "ind": 493,
      "Ġsir": 494,
      "ry": 495,
      "Ġfrom": 496,
      "OL": 497,
      "ST": 498,
      "pp": 499,
      "Ġwhat": 500,
      "Ġgood": 501,
      "ble": 502,
      "._]": 503,
      "Ġnow": 504,
      "end": 505,
      "ĠN": 506,
      "ĊĊĠĠ": 507,
      "Ġshe": 508,
      "ven": 509,
      "row": 510,
      "Ġthem": 511,
      "ĠR": 512,
      "nter": 513,
      "la": 514,
      "oth": 515,
      "Ġpr": 516,
      "ort": 517,
      "ate": 518,
      "Ġknow": 519,
      "hy": 520,
      "Ġwould": 521,
      "Ġsw": 522,
      "ure": 523,
      "Ġmore": 524,
      "Ġtheir": 525,
      "od": 526,
      "That": 527,
      "Ġthey": 528,
      "ig": 529,
      "Ġcan": 530,
      "Ġwor": 531,
      "reat": 532,
      "Ġar": 533,
      "Ġlove": 534,
      "um": 535,
      "Ġthere": 536,
      "ep": 537,
      "AL": 538,
      "ost": 539,
      "un": 540,
      "ame": 541,
      "ere": 542,
      "ue": 543,
      "ink": 544,
      "Ġif": 545,
      "Ġhere": 546,
      "Ex": 547,
      "ish": 548,
      "Ġus": 549,
      "not": 550,
      "ist": 551,
      "Ġbl": 552,
      "Ġlet": 553,
      "ĊĠĠĠ": 554,
      "Th": 555,
      "Ġthan": 556,
      "ĠY": 557,
      "Ġhat": 558,
      "ak": 559,
      "ĠJ": 560,
      "au": 561,
      "are": 562,
      "Ġsee": 563,
      "ĠâĢĻ": 564,
      "'s": 565,
      "self": 566,
      "Ġone": 567,
      "EL": 568,
      "Ġ[": 569,
      "ran": 570,
      "ath": 571,
      "ves": 572,
      "Ġlike": 573,
      ".]": 574,
      "ound": 575,
      "Ġthen": 576,
      "ook": 577,
      "Ġj": 578,
      "TH": 579,
      "ng": 580,
      "ather": 581,
      "fore": 582,
      "âĢĶ": 583,
      "Ġsay": 584,
      "CH": 585,
      "Ġmay": 586,
      "IO": 587,
      "Ġcome": 588,
      "Ġwell": 589,
      "Ġwhich": 590,
      "But": 591,
      "Ġmad": 592,
      "Ġmake": 593,
      "pt": 594,
      "to": 595,
      "ĠK": 596,
      "other": 597,
      "Ġshould": 598,
      "ice": 599,
      "Ġpo": 600,
      "pe": 601,
      "'d": 602,
      "LE": 603,
      "Ġout": 604,
      "ity": 605,
      "ies": 606,
      "ING": 607,
      "Ġbr": 608,
      "Ġwere": 609,
      "Ġhad": 610,
      "Ġsa": 611,
      "Ġmust": 612,
      "Ġ\"": 613,
      "Ġho": 614,
      "As": 615,
      "AM": 616,
      "Ġex": 617,
      "gain": 618,
      "Ġpro": 619,
      "Ġupon": 620,
      "Ġqu": 621,
      "Ġhath": 622,
      "very": 623,
      "ond": 624,
      "Ġun": 625,
      "ence": 626,
      "RO": 627,
      "Ġdid": 628,
      "Ġdis": 629,
      "What": 630,
      "Ġ[_": 631,
      "ff": 632,
      "Ġwhen": 633,
      "IR": 634,
      "ire": 635,
      "orn": 636,
      "Ġr": 637,
      "Ġtoo": 638,
      "ĠV": 639,
      "ass": 640,
      "Ġsome": 641,
      "ĠTh": 642,
      "Ġpl": 643,
      "ime": 644,
      "ther": 645,
      "For": 646,
      "IA": 647,
      "eak": 648,
      "Ġsuch": 649,
      "ation": 650,
      "Ġhand": 651,
      "urn": 652,
      "Ġal": 653,
      "Ġthese": 654,
      "Ġtru": 655,
      "Ġwho": 656,
      "wn": 657,
      "age": 658,
      "Ġen": 659,
      "ings": 660,
      "CE": 661,
      "ide": 662,
      "unt": 663,
      "Ġhon": 664,
      "oot": 665,
      "Ġab": 666,
      "ough": 667,
      "Ġagain": 668,
      "ise": 669,
      "Ġyet": 670,
      "AT": 671,
      "ons": 672,
      "own": 673,
      "uch": 674,
      "ick": 675,
      "Ġ'": 676,
      "io": 677,
      "ose": 678,
      "ness": 679,
      "eet": 680,
      "de": 681,
      "here": 682,
      "Ġcha": 683,
      "Enter": 684,
      "ance": 685,
      "ign": 686,
      "per": 687,
      "aster": 688,
      "Ġhow": 689,
      "Ġro": 690,
      "Ġheart": 691,
      "os": 692,
      "ci": 693,
      "My": 694,
      "AS": 695,
      "Ġthink": 696,
      "entle": 697,
      "LO": 698,
      "ree": 699,
      "Ġri": 700,
      "ag": 701,
      "ady": 702,
      "ĠĠĠĠĠĠĠĠĠĠĠĠĠĠĠĠ": 703,
      "oy": 704,
      "ĠBut": 705,
      "Ġtw": 706,
      "ress": 707,
      "Ġfl": 708,
      "Ġspeak": 709,
      "ĠWhat": 710,
      "hen": 711,
      "Ġgreat": 712,
      "way": 713,
      "Ġfri": 714,
      "Ġmine": 715,
      "Ġco": 716,
      "ull": 717,
      "Ġtake": 718,
      "UR": 719,
      "ment": 720,
      "Ġey": 721,
      "Ġsc": 722,
      "Ġfather": 723,
      "ince": 724,
      "Ġpart": 725,
      "ab": 726,
      "IUS": 727,
      "Ġmar": 728,
      "IL": 729,
      "You": 730,
      "Ġoff": 731,
      "Ġwhere": 732,
      "He": 733,
      "che": 734,
      "Ġtime": 735,
      "Ġle": 736,
      "Ġmen": 737,
      "Ġgra": 738,
      "Ġgive": 739,
      "red": 740,
      "ave": 741,
      "ber": 742,
      "Ġ1": 743,
      "KING": 744,
      "Ġlife": 745,
      "Ġlea": 746,
      "li": 747,
      "LA": 748,
      "Ġother": 749,
      "ud": 750,
      "Ġtell": 751,
      "itt": 752,
      "eunt": 753,
      "Ġmost": 754,
      "ount": 755,
      "Ġwr": 756,
      "ARD": 757,
      "Ġhea": 758,
      "Ġnever": 759,
      "man": 760,
      "ite": 761,
      "Ġmuch": 762,
      "ian": 763,
      "Ġear": 764,
      "ful": 765,
      "Ġday": 766,
      "Ġany": 767,
      "Ġlook": 768,
      "ANT": 769,
      "In": 770,
      "Ġart": 771,
      "Ġgentle": 772,
      "Ġdes": 773,
      "Ġser": 774,
      "ase": 775,
      "ESS": 776,
      "Ġfriend": 777,
      "ee": 778,
      "Exit": 779,
      "ĠEnter": 780,
      "If": 781,
      "oul": 782,
      "ither": 783,
      "Ġbet": 784,
      "ĠTo": 785,
      "IC": 786,
      "Exeunt": 787,
      "Ġ(": 788,
      "ap": 789,
      "cc": 790,
      "ENE": 791,
      "Ġword": 792,
      "ouse": 793,
      "Ġdeath": 794,
      "Ġhear": 795,
      "With": 796,
      "oll": 797,
      "Ġwh": 798,
      "ĠKing": 799,
      "Ġper": 800,
      "Ġmade": 801,
      "ren": 802,
      "ĠHe": 803,
      "tis": 804,
      "ward": 805,
      "Ġblood": 806,
      "ft": 807,
      "Ġra": 808,
      "Ġad": 809,
      "les": 810,
      "note": 811,
      "ces": 812,
      "ia": 813,
      "Ġ_": 814,
      "Ġwar": 815,
      ".--": 816,
      "rown": 817,
      "Ġpre": 818,
      "ootnote": 819,
      "IT": 820,
      "Ġcomm": 821,
      "Footnote": 822,
      "Ġple": 823,
      "Ġown": 824,
      "Ġapp": 825,
      "Ġbeen": 826,
      "Ġhonour": 827,
      "igh": 828,
      "IS": 829,
      "nder": 830,
      "Ġru": 831,
      "ction": 832,
      "able": 833,
      "Ġking": 834,
      "ove": 835,
      "the": 836,
      "Ġsweet": 837,
      "ool": 838,
      "Ġcl": 839,
      "Ġcour": 840,
      "irst": 841,
      "ene": 842,
      "Ġfair": 843,
      "ĠSo": 844,
      "Ġcall": 845,
      "ĠYou": 846,
      "ack": 847,
      "ET": 848,
      "ss": 849,
      "hing": 850,
      "Ġke": 851,
      "Of": 852,
      "RI": 853,
      "ĠThat": 854,
      "Ġfear": 855,
      "ks": 856,
      "Ġtr": 857,
      "uke": 858,
      "âĢĿ": 859,
      "Be": 860,
      "Ġpray": 861,
      "âĢľ": 862,
      "ne": 863,
      "How": 864,
      "So": 865,
      "ving": 866,
      "Ġheaven": 867,
      "ger": 868,
      "AC": 869,
      "Ġvery": 870,
      "Ġcomp": 871,
      "Why": 872,
      "Ġim": 873,
      "Ġworld": 874,
      "Ġtrue": 875,
      "ert": 876,
      "Ġson": 877,
      "aw": 878,
      "CENE": 879,
      "Ġmean": 880,
      "Ġaf": 881,
      "Ġtwo": 882,
      "ps": 883,
      "Ġpres": 884,
      "Ġdown": 885,
      "oman": 886,
      "Ġold": 887,
      "FF": 888,
      "AND": 889,
      "land": 890,
      "ty": 891,
      "Ġdone": 892,
      "Ġthus": 893,
      "This": 894,
      "Ġdoth": 895,
      "ew": 896,
      "Ġinto": 897,
      "PH": 898,
      "ĠGod": 899,
      "Ġcannot": 900,
      "SE": 901,
      "No": 902,
      "Ġarm": 903,
      "Ġaway": 904,
      "Ġhead": 905,
      "Ġcont": 906,
      "Ġpla": 907,
      "ors": 908,
      "ier": 909,
      "Ġhast": 910,
      ".\"": 911,
      "ife": 912,
      "Ġname": 913,
      "Ġbre": 914,
      "ENT": 915,
      "Ġmight": 916,
      "Ġlong": 917,
      "Tis": 918,
      "ius": 919,
      "bl": 920,
      "hall": 921,
      "ious": 922,
      "Ġnight": 923,
      "Ġwit": 924,
      "Ġstand": 925,
      "Ġsoul": 926,
      "ĠĠĠ": 927,
      "ĠLord": 928,
      "Which": 929,
      "ause": 930,
      "Ġever": 931,
      "Ġbefore": 932,
      "ĠII": 933,
      "augh": 934,
      "aint": 935,
      "orrow": 936,
      "Ġplay": 937,
      "ower": 938,
      "Ġbrother": 939,
      "Ġnor": 940,
      "UC": 941,
      "Ġway": 942,
      "Or": 943,
      "Ġhouse": 944,
      "It": 945,
      "men": 946,
      "Who": 947,
      "for": 948,
      "SCENE": 949,
      "ock": 950,
      "Ġhar": 951,
      "Ġeyes": 952,
      "ED": 953,
      "ach": 954,
      "AB": 955,
      "less": 956,
      "iss": 957,
      "ĠFor": 958,
      "Ġi": 959,
      "een": 960,
      "Ġleave": 961,
      "Ġnew": 962,
      "ears": 963,
      "IRST": 964,
      "cy": 965,
      "Ġfirst": 966,
      "Ġbear": 967,
      "Ġend": 968,
      "Ġent": 969,
      "ought": 970,
      "Ġbeg": 971,
      "nto": 972,
      "Ġboth": 973,
      "Is": 974,
      "Ġlive": 975,
      "vil": 976,
      "Ġcould": 977,
      "Ġpur": 978,
      "Ġgl": 979,
      "Ġfoll": 980,
      "QU": 981,
      "Ġthought": 982,
      "We": 983,
      "une": 984,
      "Ġbest": 985,
      "me": 986,
      "ĠMy": 987,
      "Thou": 988,
      "ont": 989,
      "ple": 990,
      "Ġhas": 991,
      "Ġrem": 992,
      "atter": 993,
      "ĠIf": 994,
      "ows": 995,
      "int": 996,
      "IM": 997,
      "Ġbra": 998,
      "Ġfool": 999,
      "Ġkeep": 1000,
      "EM": 1001,
      "Ġsm": 1002,
      "Ġmany": 1003,
      "Ġthose": 1004,
      "Ġmaster": 1005,
      "Ġpoor": 1006,
      "old": 1007,
      "ens": 1008,
      "akes": 1009,
      "be": 1010,
      "aid": 1011,
      "ied": 1012,
      "mp": 1013,
      "ĠâĢľ": 1014,
      "Ġdead": 1015,
      "ret": 1016,
      "OS": 1017,
      "come": 1018,
      "ins": 1019,
      "Ġcomes": 1020,
      "hip": 1021,
      "Ġnoble": 1022,
      "By": 1023,
      "ittle": 1024,
      "well": 1025,
      "its": 1026,
      "ĠFA": 1027,
      "Ġfind": 1028,
      "Ġrep": 1029,
      "Ġbeing": 1030,
      "rie": 1031,
      "Ġcourt": 1032,
      "Ġmer": 1033,
      "Ġlady": 1034,
      "There": 1035,
      "Ġdra": 1036,
      "ĠThis": 1037,
      "Ġstill": 1038,
      "ĠOF": 1039,
      "Where": 1040,
      "FIRST": 1041,
      "ĠĠĠĠĠ": 1042,
      "eth": 1043,
      "cene": 1044,
      "Ġtra": 1045,
      "Ġnothing": 1046,
      "Ġevery": 1047,
      "When": 1048,
      "Ġwife": 1049,
      "INE": 1050,
      "Ġtri": 1051,
      "Ġbetter": 1052,
      "CON": 1053,
      "ark": 1054,
      "Ġpri": 1055,
      "sw": 1056,
      "ĠHow": 1057,
      "ID": 1058,
      "ctor": 1059,
      "ĠSir": 1060,
      "istress": 1061,
      "Ġset": 1062,
      "Ġfell": 1063,
      "Ġput": 1064,
      "atch": 1065,
      "eace": 1066,
      "Ġlittle": 1067,
      "ail": 1068,
      "nce": 1069,
      "ĠIs": 1070,
      "ĠIt": 1071,
      "eds": 1072,
      "ĠPr": 1073,
      "ĠNo": 1074,
      "UN": 1075,
      "tend": 1076,
      "UL": 1077,
      "Ġturn": 1078,
      "oud": 1079,
      "ary": 1080,
      "ĠIn": 1081,
      "Ġyoung": 1082,
      "ĠWhy": 1083,
      "rant": 1084,
      "lt": 1085,
      "Ġserv": 1086,
      "Ġ4": 1087,
      "Ġgold": 1088,
      "Ġpass": 1089,
      "KE": 1090,
      "Let": 1091,
      "Ġfe": 1092,
      "Ġchi": 1093,
      "ison": 1094,
      "Ġres": 1095,
      "ac": 1096,
      "har": 1097,
      "Come": 1098,
      "irt": 1099,
      "alk": 1100,
      "aughter": 1101,
      "Ġlie": 1102,
      "ĠDuke": 1103,
      "arry": 1104,
      "Ġmyself": 1105,
      "uck": 1106,
      "Ġdie": 1107,
      "Ġconf": 1108,
      "Ġgi": 1109,
      "ĠBe": 1110,
      "ĠEng": 1111,
      "ield": 1112,
      "Ġcur": 1113,
      "Ġcons": 1114,
      "uth": 1115,
      "Ġfall": 1116,
      ",\"": 1117,
      "Ġunder": 1118,
      "Ġkind": 1119,
      "ilt": 1120,
      "RU": 1121,
      "bt": 1122,
      "Ġrest": 1123,
      "ORD": 1124,
      "Ġpresent": 1125,
      "Ġfriends": 1126,
      "Ġplace": 1127,
      "IST": 1128,
      "ours": 1129,
      "DU": 1130,
      "Ġel": 1131,
      "ition": 1132,
      "get": 1133,
      "ix": 1134,
      "Ġgone": 1135,
      "Ġche": 1136,
      "ult": 1137,
      "Ay": 1138,
      "Ġstay": 1139,
      "Ġhimself": 1140,
      "ars": 1141,
      "Ġhold": 1142,
      "vo": 1143,
      "Now": 1144,
      "orse": 1145,
      "Ġworth": 1146,
      "Ġnone": 1147,
      "ets": 1148,
      "ile": 1149,
      "led": 1150,
      "Ġabout": 1151,
      "Ġcrown": 1152,
      "lf": 1153,
      "ĠTH": 1154,
      "Ġfort": 1155,
      "ason": 1156,
      "Ġlords": 1157,
      "'ll": 1158,
      "OM": 1159,
      "ale": 1160,
      "Ġnat": 1161,
      "ĠCome": 1162,
      "Ġafter": 1163,
      "Your": 1164,
      "Ġwoman": 1165,
      "Ġfull": 1166,
      "ĠAN": 1167,
      "Ġgu": 1168,
      "ĠEd": 1169,
      "Do": 1170,
      "ace": 1171,
      "hed": 1172,
      "Ġchan": 1173,
      "Ġagainst": 1174,
      "ds": 1175,
      "ants": 1176,
      "OB": 1177,
      "Ġsle": 1178,
      "AG": 1179,
      "Ġfollow": 1180,
      "Ġch": 1181,
      "Ġface": 1182,
      "rance": 1183,
      "Ġhum": 1184,
      "ĠĠĠĠĠĠĠĠĠĠĠĠ": 1185,
      "iness": 1186,
      "Ġcount": 1187,
      "Ġspir": 1188,
      "ged": 1189,
      "ph": 1190,
      "Ġsword": 1191,
      "Ġmind": 1192,
      "Ġhope": 1193,
      "_.]": 1194,
      "ory": 1195,
      "Ġdi": 1196,
      "Ġbring": 1197,
      "Ġchar": 1198,
      "Ġacc": 1199,
      "lain": 1200,
      "Ġimp": 1201,
      "Ġover": 1202,
      "Ġunto": 1203,
      "Ġdaughter": 1204,
      "urd": 1205,
      "ĠCa": 1206,
      "ĠSt": 1207,
      "Ġthough": 1208,
      "Ġthine": 1209,
      "ĠLet": 1210,
      "Ġdear": 1211,
      "ertain": 1212,
      "Ġtong": 1213,
      "ĠAnt": 1214,
      "Ġbod": 1215,
      "Ġwords": 1216,
      "Here": 1217,
      "Ġtill": 1218,
      "Ġshow": 1219,
      "Ġbel": 1220,
      "IAN": 1221,
      "cl": 1222,
      "COND": 1223,
      "ĠAs": 1224,
      "sand": 1225,
      "ered": 1226,
      "Ġelse": 1227,
      "ceive": 1228,
      "band": 1229,
      "Ġthr": 1230,
      "Ġem": 1231,
      "esty": 1232,
      "ICK": 1233,
      "Ġhus": 1234,
      "Ġtre": 1235,
      "Ġboy": 1236,
      "Ġpleas": 1237,
      "CA": 1238,
      "of": 1239,
      "ĠNow": 1240,
      "ister": 1241,
      "St": 1242,
      "They": 1243,
      "Ġsaid": 1244,
      "onson": 1245,
      "Ġback": 1246,
      "RE": 1247,
      "tw": 1248,
      "hile": 1249,
      "RY": 1250,
      "Ġgrie": 1251,
      "Ġonce": 1252,
      "uty": 1253,
      "Ġret": 1254,
      "ĠFACE": 1255,
      "Aside": 1256,
      "Ġseem": 1257,
      "Then": 1258,
      "ect": 1259,
      "Ġforth": 1260,
      "Ġass": 1261,
      "Ġeye": 1262,
      "bs": 1263,
      "Ġmon": 1264,
      "Ġsold": 1265,
      "ĠAn": 1266,
      "Ġstre": 1267,
      "Ġstran": 1268,
      "UB": 1269,
      "ved": 1270,
      "Ġsec": 1271,
      "Ġthree": 1272,
      "illain": 1273,
      "Ġanother": 1274,
      "Ġdisc": 1275,
      "ĠRome": 1276,
      "air": 1277,
      "Ġcou": 1278,
      "ati": 1279,
      "ried": 1280,
      "Ġright": 1281,
      "She": 1282,
      "ury": 1283,
      "ions": 1284,
      "ĠThere": 1285,
      "Ġwhose": 1286,
      "av": 1287,
      "ĊĊĊĊ": 1288,
      "Ġfaith": 1289,
      "ROS": 1290,
      "any": 1291,
      "eal": 1292,
      "pon": 1293,
      "Ġgrace": 1294,
      "Ġchild": 1295,
      "gu": 1296,
      "Ġmis": 1297,
      "Ġhigh": 1298,
      "fect": 1299,
      "Ġmeet": 1300,
      "Ġhusband": 1301,
      "AFF": 1302,
      "Ġbu": 1303,
      "CHARD": 1304,
      "QUE": 1305,
      "ring": 1306,
      "Ġpeace": 1307,
      "ute": 1308,
      "Ġonly": 1309,
      "Ġearth": 1310,
      "HAM": 1311,
      "TUS": 1312,
      "Than": 1313,
      "Ġlight": 1314,
      "Ġmatter": 1315,
      "Ġhands": 1316,
      "ches": 1317,
      "Ġdou": 1318,
      "LOW": 1319,
      "Ġwrong": 1320,
      "Ġpe": 1321,
      "ĠDo": 1322,
      "Ġpers": 1323,
      "pect": 1324,
      "Ġsame": 1325,
      "Ġsure": 1326,
      "ip": 1327,
      "ms": 1328,
      "pen": 1329,
      "Ġthousand": 1330,
      "Ġdevil": 1331,
      "His": 1332,
      "ning": 1333,
      "Ġthing": 1334,
      "ater": 1335,
      "Ġansw": 1336,
      "Ġhence": 1337,
      "imes": 1338,
      "QUEEN": 1339,
      "Ġpower": 1340,
      "Ġmother": 1341,
      "Ġuse": 1342,
      "Not": 1343,
      "esar": 1344,
      "Ġhel": 1345,
      "LET": 1346,
      "Ġwhom": 1347,
      "Ġsub": 1348,
      "Ġgentleman": 1349,
      "omet": 1350,
      "ild": 1351,
      "ĠWe": 1352,
      "LES": 1353,
      "Ġeven": 1354,
      ".\"]": 1355,
      "TER": 1356,
      "Well": 1357,
      "Ġlast": 1358,
      "Sir": 1359,
      "Ġwithin": 1360,
      "Ġplease": 1361,
      "Ġsent": 1362,
      "STAFF": 1363,
      "SECOND": 1364,
      "let": 1365,
      "ĠJonson": 1366,
      "Ġlaw": 1367,
      "vers": 1368,
      "Ġkill": 1369,
      "Ġstate": 1370,
      "Ġhapp": 1371,
      "ray": 1372,
      "FAL": 1373,
      "Ġ8": 1374,
      "AD": 1375,
      "ade": 1376,
      "Ġinde": 1377,
      "Ġshalt": 1378,
      "ates": 1379,
      "Ġhang": 1380,
      "Ġstri": 1381,
      "Ġtherefore": 1382,
      "eech": 1383,
      "ĠQ": 1384,
      "ĠAt": 1385,
      "gue": 1386,
      "race": 1387,
      "ĠOr": 1388,
      "Ġdre": 1389,
      "Ġheard": 1390,
      "FALSTAFF": 1391,
      "Ġcare": 1392,
      "selves": 1393,
      "Ġtongue": 1394,
      "ony": 1395,
      "Ġfar": 1396,
      "Ġgr": 1397,
      "Ġletter": 1398,
      "ĠWhere": 1399,
      "ĠHere": 1400,
      "MAN": 1401,
      "oney": 1402,
      "Ġindeed": 1403,
      "op": 1404,
      "Ġcause": 1405,
      "Ġhome": 1406,
      "DUKE": 1407,
      "Ġbes": 1408,
      "els": 1409,
      "ASS": 1410,
      "lack": 1411,
      "ced": 1412,
      "uff": 1413,
      "ĠMar": 1414,
      "PER": 1415,
      "ily": 1416,
      "ĠWith": 1417,
      "Ġjust": 1418,
      "ĠThou": 1419,
      "ents": 1420,
      "Good": 1421,
      "com": 1422,
      ".âĢĶ": 1423,
      "Ġmakes": 1424,
      "Nay": 1425,
      "Ġbid": 1426,
      "Ġbreat": 1427,
      "Ġfal": 1428,
      "Ġvillain": 1429,
      "Ġbea": 1430,
      "ĠFrance": 1431,
      "ally": 1432,
      "Ġbody": 1433,
      "aj": 1434,
      "Ġ2": 1435,
      "ĠWho": 1436,
      "ĠThen": 1437,
      "Ġpra": 1438,
      "RESS": 1439,
      "Ġfellow": 1440,
      "Ġthank": 1441,
      "Ġwhy": 1442,
      "ĠAr": 1443,
      "Ġdoes": 1444,
      "Ġdost": 1445,
      "GO": 1446,
      "OC": 1447,
      "use": 1448,
      "Ġmo": 1449,
      "Ġcame": 1450,
      "Ġvirt": 1451,
      "Ġrun": 1452,
      "Ġwithout": 1453,
      "Ġwind": 1454,
      "Ġsince": 1455,
      "Ġhorse": 1456,
      "iers": 1457,
      "Ġter": 1458,
      "hes": 1459,
      "Ġban": 1460,
      "Ġye": 1461,
      "Ġsleep": 1462,
      "Ġstr": 1463,
      "Ġexce": 1464,
      "UM": 1465,
      "ĠĠĠĠĠĠĠĠĠĠĠĠĠĠĠ": 1466,
      "Ġanswer": 1467,
      "day": 1468,
      "oh": 1469,
      "ardon": 1470,
      "Ġ16": 1471,
      "Ġsend": 1472,
      "ANTON": 1473,
      "Shall": 1474,
      "att": 1475,
      "ieve": 1476,
      "Ġmeans": 1477,
      "Ġwant": 1478,
      "Ġhour": 1479,
      "Ġthings": 1480,
      "ĠSUB": 1481,
      "ham": 1482,
      "fort": 1483,
      "ĠBr": 1484,
      "cious": 1485,
      "Ġbed": 1486,
      "Ġval": 1487,
      "Ġnear": 1488,
      "Ġenough": 1489,
      "BE": 1490,
      "ner": 1491,
      "Ġere": 1492,
      "ject": 1493,
      "ĠIII": 1494,
      "OLA": 1495,
      "Fl": 1496,
      "Go": 1497,
      "Will": 1498,
      "iz": 1499,
      "Ġsil": 1500,
      "ener": 1501,
      "Ġnature": 1502,
      "Ġthrough": 1503,
      "Upon": 1504,
      "Ġsound": 1505,
      "Ġinst": 1506,
      "MAR": 1507,
      "Ġfire": 1508,
      "ans": 1509,
      "Ġwork": 1510,
      "gether": 1511,
      "Ġbus": 1512,
      "erv": 1513,
      "AP": 1514,
      "Have": 1515,
      "und": 1516,
      "Ġca": 1517,
      "ousin": 1518,
      "Ġhonest": 1519,
      "Ġhelp": 1520,
      "AST": 1521,
      "Ġmistress": 1522,
      "ĠCaesar": 1523,
      "ls": 1524,
      "with": 1525,
      "Ġwel": 1526,
      "amb": 1527,
      "Ġmadam": 1528,
      "Ġarms": 1529,
      "Ġbreak": 1530,
      "All": 1531,
      "rink": 1532,
      "oe": 1533,
      "Ġill": 1534,
      "Ġtruth": 1535,
      "Ġmaid": 1536,
      "ash": 1537,
      "Ġshame": 1538,
      "Ġprince": 1539,
      "ains": 1540,
      "Ġfalse": 1541,
      "eed": 1542,
      "Ġint": 1543,
      "BUR": 1544,
      "kes": 1545,
      "Ġcar": 1546,
      "ster": 1547,
      "ĠScene": 1548,
      "Ġread": 1549,
      "Ġspirit": 1550,
      "HO": 1551,
      "cause": 1552,
      "vy": 1553,
      "ott": 1554,
      "ĊĠĠĠĠĠĠĠĠĠ": 1555,
      "hold": 1556,
      "ched": 1557,
      "vent": 1558,
      "Ġsla": 1559,
      "ised": 1560,
      "Ġget": 1561,
      "Ġnews": 1562,
      "form": 1563,
      "ats": 1564,
      "From": 1565,
      "ures": 1566,
      "ĠEngland": 1567,
      "ohn": 1568,
      "ned": 1569,
      "ĠSp": 1570,
      "ek": 1571,
      "gs": 1572,
      "ĠYour": 1573,
      "ENRY": 1574,
      "onder": 1575,
      "ial": 1576,
      "ouch": 1577,
      "xt": 1578,
      "LUC": 1579,
      "Ġhither": 1580,
      "Ġsun": 1581,
      "dd": 1582,
      "Ġact": 1583,
      "ĠHENRY": 1584,
      "Ġstrange": 1585,
      "Ġland": 1586,
      "Ġseen": 1587,
      "ior": 1588,
      "Ġmurd": 1589,
      "Ġfight": 1590,
      "Ġsupp": 1591,
      "Ġrather": 1592,
      "),": 1593,
      "IZ": 1594,
      "Ġpati": 1595,
      "ACT": 1596,
      "OTH": 1597,
      "RA": 1598,
      "ĠNay": 1599,
      "ides": 1600,
      "Yet": 1601,
      "mer": 1602,
      "ĠAl": 1603,
      "Ġstrong": 1604,
      "Nor": 1605,
      "ated": 1606,
      "Ġgall": 1607,
      "Ġoft": 1608,
      "Ġreason": 1609,
      "ork": 1610,
      "Ġhell": 1611,
      "rence": 1612,
      "lish": 1613,
      "usic": 1614,
      "Ġlost": 1615,
      "Ġvi": 1616,
      "PR": 1617,
      "ĠMaster": 1618,
      "Ġdisp": 1619,
      "Thy": 1620,
      "ished": 1621,
      "right": 1622,
      "alth": 1623,
      "Ġleft": 1624,
      "Ġyourself": 1625,
      "Ġunc": 1626,
      "ike": 1627,
      "Ġyouth": 1628,
      "Ġkiss": 1629,
      "vere": 1630,
      "ajesty": 1631,
      "Ġwelcome": 1632,
      "ROM": 1633,
      ",âĢĶ": 1634,
      "Ġwish": 1635,
      "Ġdan": 1636,
      "ĠWell": 1637,
      "ĠYes": 1638,
      "Ġreturn": 1639,
      ").": 1640,
      "Ġlay": 1641,
      "Ġstra": 1642,
      "Ġtalk": 1643,
      "ĠBy": 1644,
      "Ġfree": 1645,
      "âĢĺ": 1646,
      "ĠCh": 1647,
      "ĠOf": 1648,
      "Ġgods": 1649,
      "Ġfortune": 1650,
      "PE": 1651,
      "ORT": 1652,
      "Al": 1653,
      "ling": 1654,
      "Ġfly": 1655,
      "Ġpal": 1656,
      "Ġmet": 1657,
      "Ġfound": 1658,
      "Ġmoney": 1659,
      "Ġinf": 1660,
      "ĠMOS": 1661,
      "Ġneed": 1662,
      "Ġcommand": 1663,
      "ery": 1664,
      "ĠShe": 1665,
      "Ġsaw": 1666,
      "HAMLET": 1667,
      "yal": 1668,
      "INCE": 1669,
      "Ġdoubt": 1670,
      "Our": 1671,
      "Ġqueen": 1672,
      "ĠAy": 1673,
      "ĠJohn": 1674,
      "SH": 1675,
      "ken": 1676,
      "Ġcousin": 1677,
      "ĠWhen": 1678,
      "ĠVOL": 1679,
      "ments": 1680,
      "UT": 1681,
      "co": 1682,
      "ween": 1683,
      "rew": 1684,
      "Ġprom": 1685,
      "Ġgrief": 1686,
      "Ġwa": 1687,
      "Ġcommon": 1688,
      "Ġjoy": 1689,
      "Ġjud": 1690,
      "CO": 1691,
      "Ġtears": 1692,
      "ĠWill": 1693,
      "ueen": 1694,
      "Ġremem": 1695,
      "Ġsho": 1696,
      "Ġdru": 1697,
      "omen": 1698,
      "ĠRo": 1699,
      "ounds": 1700,
      "Ġdraw": 1701,
      "outh": 1702,
      "hil": 1703,
      "Ġenem": 1704,
      "Ġsomet": 1705,
      "Ġless": 1706,
      "LY": 1707,
      "now": 1708,
      "ELLO": 1709,
      "Ġcountry": 1710,
      "by": 1711,
      "ec": 1712,
      "no": 1713,
      "Ġdel": 1714,
      "Ġdam": 1715,
      "Ġtogether": 1716,
      "Ġhalf": 1717,
      "uc": 1718,
      "Ġtem": 1719,
      "Ġcra": 1720,
      "ift": 1721,
      ",--": 1722,
      "ATH": 1723,
      "Scene": 1724,
      "Ġcry": 1725,
      "Ġpardon": 1726,
      "Ġhard": 1727,
      "BER": 1728,
      "rench": 1729,
      "Ġadv": 1730,
      ".âĢĿ": 1731,
      "ĠGo": 1732,
      "aking": 1733,
      "rans": 1734,
      "Ġperson": 1735,
      "ford": 1736,
      "Ġsight": 1737,
      "ĠShall": 1738,
      "ĠNor": 1739,
      "Ġsister": 1740,
      "Ġsea": 1741,
      "ues": 1742,
      "Ġsk": 1743,
      "Ġsing": 1744,
      "ots": 1745,
      "ĠHer": 1746,
      "rank": 1747,
      "like": 1748,
      "ĠQueen": 1749,
      "Ġdist": 1750,
      "Ġtold": 1751,
      "ĠĠĠĠĠĠĠĠĠ": 1752,
      "IG": 1753,
      "Ġfore": 1754,
      "Ġdep": 1755,
      "EX": 1756,
      "Ġgener": 1757,
      "Re": 1758,
      "Ġborn": 1759,
      "Ġprison": 1760,
      "LOWN": 1761,
      "ĠU": 1762,
      "Ġcut": 1763,
      "Ġpu": 1764,
      "Ġfare": 1765,
      "hard": 1766,
      "An": 1767,
      "Ġgrow": 1768,
      "alt": 1769,
      "ERV": 1770,
      "Ġsl": 1771,
      "ĠBAR": 1772,
      "ross": 1773,
      "Ġpurp": 1774,
      "Ġpity": 1775,
      "Ġsoon": 1776,
      "Ġswear": 1777,
      "Ġsat": 1778,
      "Ġwilt": 1779,
      "Ġlate": 1780,
      "ote": 1781,
      "Ġwear": 1782,
      "Ġweep": 1783,
      "dom": 1784,
      "oose": 1785,
      "Ġbro": 1786,
      "Ġsays": 1787,
      "ives": 1788,
      "ices": 1789,
      "ever": 1790,
      "most": 1791,
      "ondon": 1792,
      "Ġalone": 1793,
      "IER": 1794,
      "Ġspo": 1795,
      "Are": 1796,
      "ca": 1797,
      "Ġfault": 1798,
      "Ġbless": 1799,
      "BO": 1800,
      "Ġsorrow": 1801,
      "Ġyours": 1802,
      "Ġbeauty": 1803,
      "Ġfoot": 1804,
      "Ġdare": 1805,
      "ĠIV": 1806,
      "Ġbrave": 1807,
      "TR": 1808,
      "Ġed": 1809,
      "Ġair": 1810,
      "ines": 1811,
      "Ġwhile": 1812,
      "Ġnote": 1813,
      "Ġcompany": 1814,
      "Ġlear": 1815,
      "Ġthoughts": 1816,
      "Ġservice": 1817,
      "Tw": 1818,
      "Ġbir": 1819,
      "ĠHis": 1820,
      "Ġmark": 1821,
      "iet": 1822,
      "rist": 1823,
      "Ġcertain": 1824,
      "Ġpar": 1825,
      "Ġproud": 1826,
      "Ġprove": 1827,
      "pr": 1828,
      "ship": 1829,
      "ELL": 1830,
      "enry": 1831,
      "eter": 1832,
      "gainst": 1833,
      "ĠOh": 1834,
      "ION": 1835,
      "bed": 1836,
      "Ġposs": 1837,
      "Ġbusiness": 1838,
      "Ġroom": 1839,
      "ĠAND": 1840,
      "Ġknight": 1841,
      "Ġbrought": 1842,
      "ĠTHE": 1843,
      "az": 1844,
      "ĠLOR": 1845,
      "Ġknown": 1846,
      "Ġgentlemen": 1847,
      "Ġaff": 1848,
      "Ġfit": 1849,
      "Ġden": 1850,
      "Ġlives": 1851,
      "ĠFa": 1852,
      "Ġwarrant": 1853,
      "Ġbreath": 1854,
      "OP": 1855,
      "Ġsin": 1856,
      "ithe": 1857,
      "ignior": 1858,
      "Ġlooks": 1859,
      "TE": 1860,
      "Ġfield": 1861,
      "Ġinc": 1862,
      "ĠEx": 1863,
      "Ġatt": 1864,
      "Ġattend": 1865,
      "Ġhate": 1866,
      "Ġgre": 1867,
      "ĠThey": 1868,
      "UCH": 1869,
      "ker": 1870,
      "med": 1871,
      "Ġdrink": 1872,
      "ĠLondon": 1873,
      "Ġroyal": 1874,
      "Ġlead": 1875,
      "Ġdesire": 1876,
      "ĠPrince": 1877,
      "aff": 1878,
      "ub": 1879,
      "Ġgave": 1880,
      "Ġcomfort": 1881,
      "Ġquick": 1882,
      "Ġgiven": 1883,
      "cha": 1884,
      "Ġbar": 1885,
      "Ġyears": 1886,
      "Ġvo": 1887,
      "Ġrich": 1888,
      "so": 1889,
      "Ġcho": 1890,
      "ĠYet": 1891,
      "Ġten": 1892,
      "Ġsick": 1893,
      "Ġreven": 1894,
      "Ġpoint": 1895,
      "Ġexp": 1896,
      "PRINCE": 1897,
      "ible": 1898,
      "Ġfur": 1899,
      "Ġcle": 1900,
      "Ġcast": 1901,
      "Ġcol": 1902,
      "UNT": 1903,
      "Ġcharge": 1904,
      "Ġve": 1905,
      "ortune": 1906,
      "mb": 1907,
      "ĠFrench": 1908,
      "Ġcond": 1909,
      "Ġbo": 1910,
      "Ġblack": 1911,
      "ĠYork": 1912,
      "Ġdays": 1913,
      "Ġmusic": 1914,
      "Ġlies": 1915,
      "Ġsuff": 1916,
      "ief": 1917,
      "ABAS": 1918,
      "Ġbelieve": 1919,
      "ĠBARABAS": 1920,
      "up": 1921,
      "Ġtimes": 1922,
      "Ġhappy": 1923,
      "asure": 1924,
      "iece": 1925,
      "ĠEdward": 1926,
      "DER": 1927,
      "Ġwin": 1928,
      "ĠSee": 1929,
      "vern": 1930,
      "RICHARD": 1931,
      "RUTUS": 1932,
      "laine": 1933,
      "SIR": 1934,
      "Ġage": 1935,
      "Hath": 1936,
      "gg": 1937,
      "itor": 1938,
      "ĠWar": 1939,
      "IMON": 1940,
      "BRUTUS": 1941,
      "rest": 1942,
      "fend": 1943,
      "Ġseek": 1944,
      "LEON": 1945,
      "ithee": 1946,
      "Ġsit": 1947,
      "Ġsen": 1948,
      "Ġcity": 1949,
      "ĠCOR": 1950,
      "ichard": 1951,
      "GER": 1952,
      "ople": 1953,
      "inal": 1954,
      "ĠRe": 1955,
      "At": 1956,
      "Ġsad": 1957,
      "Ġdev": 1958,
      "Ġdiv": 1959,
      "Ġcor": 1960,
      "amp": 1961,
      "fection": 1962,
      "Ġothers": 1963,
      "On": 1964,
      "wick": 1965,
      "Ġac": 1966,
      "Ġopen": 1967,
      "ĠAll": 1968,
      "Ġaw": 1969,
      "Ġfam": 1970,
      "Ġfoul": 1971,
      "Ġeach": 1972,
      "ries": 1973,
      "Ġtrust": 1974,
      "Ġcoun": 1975,
      "OTHELLO": 1976,
      "Ġcold": 1977,
      "Ġserve": 1978,
      "Ġmin": 1979,
      "Ġbase": 1980,
      "Ġlose": 1981,
      "Ġfav": 1982,
      "IAGO": 1983,
      "YR": 1984,
      "hould": 1985,
      "Ġwomen": 1986,
      "enty": 1987,
      "cept": 1988,
      "ĠHenry": 1989,
      "ĠGood": 1990,
      "arewell": 1991,
      "MIST": 1992,
      "Ġpay": 1993,
      "ane": 1994,
      "aste": 1995,
      "IV": 1996,
      "oor": 1997,
      "rid": 1998,
      "Ġmarry": 1999,
      "ILIA": 2000,
      "Ġwrit": 2001,
      "Ġbetween": 2002,
      "Ġask": 2003,
      "Ġnext": 2004,
      "MISTRESS": 2005,
      "CASS": 2006,
      "LAND": 2007,
      "lo": 2008,
      "Ġsake": 2009,
      "ush": 2010,
      "Ġsum": 2011,
      "Ġknows": 2012,
      "ĠChrist": 2013,
      "NE": 2014,
      "Ġgrave": 2015,
      "Ġpleasure": 2016,
      "CLOWN": 2017,
      "ited": 2018,
      "Ġeat": 2019,
      "Ġforg": 2020,
      "estion": 2021,
      "Ġthyself": 2022,
      "ards": 2023,
      "Even": 2024,
      "PAR": 2025,
      "ĠCl": 2026,
      "AGE": 2027,
      "Ġdream": 2028,
      "Lod": 2029,
      "Ġwater": 2030,
      "ities": 2031,
      "ĠBOS": 2032,
      "Ġprof": 2033,
      "cri": 2034,
      "Ġwise": 2035,
      "Ġpast": 2036,
      "Ġitself": 2037,
      "Ġcontent": 2038,
      "Ġworthy": 2039,
      "Ġground": 2040,
      "DY": 2041,
      "DEM": 2042,
      "Ġta": 2043,
      "Ġmorn": 2044,
      "Ġoath": 2045,
      "Ġbeat": 2046,
      "Ġdog": 2047,
      "inks": 2048,
      "Ġsave": 2049,
      "ĠEnglish": 2050,
      "Ġdanger": 2051,
      "Did": 2052,
      "Would": 2053,
      "Ġbook": 2054,
      "IND": 2055,
      "USE": 2056,
      "laim": 2057,
      "oss": 2058,
      "ĠAntony": 2059,
      "Ġsign": 2060,
      "Ġuncle": 2061,
      "PRO": 2062,
      "that": 2063,
      "Ġest": 2064,
      "Ġcr": 2065,
      "Ġtown": 2066,
      "ĠFER": 2067,
      "ERS": 2068,
      "Ġears": 2069,
      "Ġside": 2070,
      "Ġfea": 2071,
      "Ġrequ": 2072,
      "PO": 2073,
      "pl": 2074,
      "Ġfour": 2075,
      "ĊĊĠĠĠĠĠĠĠĠĠ": 2076,
      "etch": 2077,
      "Ġdeep": 2078,
      "Ġbloody": 2079,
      "ANTONY": 2080,
      "Ġgeneral": 2081,
      "GE": 2082,
      "oint": 2083,
      "ĠTro": 2084,
      "ĠFl": 2085,
      "ambur": 2086,
      "Ġpurpose": 2087,
      "Ġfo": 2088,
      "Ġext": 2089,
      "Ġfurther": 2090,
      "amburlaine": 2091,
      "Un": 2092,
      "cess": 2093,
      "ires": 2094,
      "Ġord": 2095,
      "erve": 2096,
      "Ġyield": 2097,
      "urs": 2098,
      "Ġloves": 2099,
      "Mat": 2100,
      "ready": 2101,
      "ĠMay": 2102,
      "ĠRichard": 2103,
      "AMBUR": 2104,
      "Flam": 2105,
      "DO": 2106,
      "TES": 2107,
      "WICK": 2108,
      "ĠWarwick": 2109,
      "Ġfine": 2110,
      "rah": 2111,
      "ESTER": 2112,
      "ĠVOLP": 2113,
      "Ġfast": 2114,
      "cks": 2115,
      "Ġprin": 2116,
      "Ġholy": 2117,
      "cester": 2118,
      "CT": 2119,
      "Give": 2120,
      "als": 2121,
      "ĠRI": 2122,
      "Whose": 2123,
      "Ġsoldier": 2124,
      "ĠBOSOLA": 2125,
      "iv": 2126,
      "morrow": 2127,
      "Ġmouth": 2128,
      "edy": 2129,
      "ĠTamburlaine": 2130,
      "Ġsuit": 2131,
      "LAINE": 2132,
      "Ġpeople": 2133,
      "hal": 2134,
      "Ġrec": 2135,
      "ĠCla": 2136,
      "ĠGrace": 2137,
      "Ġpresently": 2138,
      "AMBURLAINE": 2139,
      "WARD": 2140,
      "YOR": 2141,
      "cher": 2142,
      "Ġkings": 2143,
      "Ġsovere": 2144,
      "Hip": 2145,
      "ron": 2146,
      "ĠâĢĺ": 2147,
      "ANIO": 2148,
      "Ġshort": 2149,
      "TA": 2150,
      "Ġ3": 2151,
      "Ġwall": 2152,
      "Ġreg": 2153,
      "INA": 2154,
      "Ġknew": 2155,
      "empt": 2156,
      "TON": 2157,
      "Ġtend": 2158,
      "llent": 2159,
      "esh": 2160,
      "ram": 2161,
      "rust": 2162,
      "unes": 2163,
      "Ġvirtue": 2164,
      "undred": 2165,
      "Ġfarewell": 2166,
      "VOL": 2167,
      "Ġwis": 2168,
      "Ġbold": 2169,
      "Ġhair": 2170,
      "Ġscorn": 2171,
      "Ġwonder": 2172,
      "ads": 2173,
      "Ġste": 2174,
      "ages": 2175,
      "Ġchange": 2176,
      "JUL": 2177,
      "MEN": 2178,
      "UD": 2179,
      "stand": 2180,
      "ĠLORD": 2181,
      "Ġwhore": 2182,
      "Ġbeseech": 2183,
      "ĠRICHARD": 2184,
      "Ġcreat": 2185,
      "Ġpen": 2186,
      "Ġwhole": 2187,
      "Ġcapt": 2188,
      "ey": 2189,
      "you": 2190,
      "Ġneither": 2191,
      "Ġstraight": 2192,
      "pes": 2193,
      "Ġid": 2194,
      "Ġwret": 2195,
      "ones": 2196,
      "Ġcap": 2197,
      "ĠTAMBURLAINE": 2198,
      "ethinks": 2199,
      "fter": 2200,
      "uous": 2201,
      "thing": 2202,
      "IMO": 2203,
      "Ġgar": 2204,
      "ames": 2205,
      "Ġburn": 2206,
      "oof": 2207,
      "ĠCass": 2208,
      "Ġknave": 2209,
      "Ġenter": 2210,
      "GAR": 2211,
      "POL": 2212,
      "Ġsur": 2213,
      "Ġhundred": 2214,
      "Ġready": 2215,
      "osed": 2216,
      "ENTLE": 2217,
      "More": 2218,
      "but": 2219,
      "bly": 2220,
      "Ġsmall": 2221,
      "Ġemb": 2222,
      "Ġmurder": 2223,
      "ERVANT": 2224,
      "mon": 2225,
      "Ġmajesty": 2226,
      "Ġbound": 2227,
      "ĠPer": 2228,
      "ĠPro": 2229,
      "nother": 2230,
      "Ġgracious": 2231,
      "Ġreport": 2232,
      "Ġconfess": 2233,
      "Bell": 2234,
      "_.": 2235,
      "sp": 2236,
      "Ġmod": 2237,
      "adam": 2238,
      "Ġglad": 2239,
      "Ġresol": 2240,
      "Ġsubject": 2241,
      "JA": 2242,
      "Ġworse": 2243,
      "Ġquar": 2244,
      "Ġdesp": 2245,
      "Ġremember": 2246,
      "ging": 2247,
      "ined": 2248,
      "Ġconqu": 2249,
      "Ġgoes": 2250,
      "ians": 2251,
      "Ġmerry": 2252,
      "Sp": 2253,
      "Ġtouch": 2254,
      "ĠWhich": 2255,
      "aken": 2256,
      "Ġcourse": 2257,
      "phe": 2258,
      "Ġwalk": 2259,
      "owers": 2260,
      "imon": 2261,
      "Ġdeed": 2262,
      "ĠThese": 2263,
      "Though": 2264,
      "Ġpubl": 2265,
      "Ġ&": 2266,
      "Ġform": 2267,
      "Ġkne": 2268,
      "Ġtwenty": 2269,
      "Ġpatience": 2270,
      "had": 2271,
      "utus": 2272,
      "eare": 2273,
      "rows": 2274,
      "Ġpoison": 2275,
      "Ġhearts": 2276,
      "Ġadd": 2277,
      "rac": 2278,
      "ular": 2279,
      "Ġpret": 2280,
      "CLE": 2281,
      "ges": 2282,
      "irm": 2283,
      "ĠSignior": 2284,
      "riage": 2285,
      "DES": 2286,
      "rous": 2287,
      "Ġemp": 2288,
      "Ġself": 2289,
      "ustus": 2290,
      "aught": 2291,
      "Ġappear": 2292,
      "Ġclose": 2293,
      "PET": 2294,
      "full": 2295,
      "Ġhot": 2296,
      "ceed": 2297,
      "ask": 2298,
      "Ġund": 2299,
      "Ġring": 2300,
      "ENTER": 2301,
      ",âĢĿ": 2302,
      "Some": 2303,
      "Till": 2304,
      "ĠZ": 2305,
      "Ġsons": 2306,
      "Ġdro": 2307,
      "essen": 2308,
      "Ġvis": 2309,
      "ical": 2310,
      "Ġconst": 2311,
      "CHIO": 2312,
      "Ġquestion": 2313,
      "Ġsoldiers": 2314,
      "Her": 2315,
      "Was": 2316,
      "sue": 2317,
      "enge": 2318,
      "Ġalready": 2319,
      "EPH": 2320,
      "God": 2321,
      "iant": 2322,
      "Ġlab": 2323,
      "ĠDe": 2324,
      "Ġtook": 2325,
      "Ġservant": 2326,
      "Ġlaugh": 2327,
      "Ġyear": 2328,
      "anc": 2329,
      "irk": 2330,
      "urt": 2331,
      "ĠGl": 2332,
      "ĠNot": 2333,
      "Ġmercy": 2334,
      "Can": 2335,
      "Look": 2336,
      "TIMON": 2337,
      "gry": 2338,
      "Ġsim": 2339,
      "Ġfetch": 2340,
      "Ġbehold": 2341,
      "ird": 2342,
      "Ġdoor": 2343,
      "Ġcanst": 2344,
      "ations": 2345,
      "ixt": 2346,
      "Ġjudge": 2347,
      "Ġrel": 2348,
      "Ġmorning": 2349,
      "HEL": 2350,
      "LI": 2351,
      "_,": 2352,
      "oucester": 2353,
      "Ġmove": 2354,
      "ENGER": 2355,
      "Ġhaste": 2356,
      "Ġsecret": 2357,
      "Cand": 2358,
      "my": 2359,
      "ench": 2360,
      "ESSENGER": 2361,
      "Ġentreat": 2362,
      "Ġsecond": 2363,
      "Ġsovereign": 2364,
      "ENTLEMAN": 2365,
      "weet": 2366,
      "Ġshi": 2367,
      "Ġcow": 2368,
      "arch": 2369,
      "ament": 2370,
      "ĠHa": 2371,
      "each": 2372,
      "Ġspeech": 2373,
      "Ġthemselves": 2374,
      "ATRA": 2375,
      "ĠEdw": 2376,
      "attle": 2377,
      "Ġslave": 2378,
      "OPATRA": 2379,
      "Ġfavour": 2380,
      "EO": 2381,
      "See": 2382,
      "Ġtit": 2383,
      "Ġlad": 2384,
      "vel": 2385,
      "lex": 2386,
      "INIUS": 2387,
      "ĠDUCH": 2388,
      "umber": 2389,
      "ĠKING": 2390,
      "Ġflesh": 2391,
      "ĠDUCHESS": 2392,
      "night": 2393,
      "Ġopp": 2394,
      "Ġpa": 2395,
      "Ġtoward": 2396,
      "Ġamong": 2397,
      "Ġfeel": 2398,
      "COR": 2399,
      "Like": 2400,
      "gar": 2401,
      "Ġinter": 2402,
      "ution": 2403,
      "enter": 2404,
      "ĠSYR": 2405,
      "ĠMAR": 2406,
      "ELLA": 2407,
      "CLEOPATRA": 2408,
      "aith": 2409,
      "ying": 2410,
      "oop": 2411,
      "Ġred": 2412,
      "Ġdef": 2413,
      "ĠJew": 2414,
      "IRD": 2415,
      "ĠVI": 2416,
      "ITIZ": 2417,
      "ACUSE": 2418,
      "Ġmighty": 2419,
      "ĠSYRACUSE": 2420,
      "ITIZEN": 2421,
      "Were": 2422,
      "nk": 2423,
      "rs": 2424,
      "we": 2425,
      "Ġfash": 2426,
      "irc": 2427,
      "OLK": 2428,
      "ortal": 2429,
      "BAST": 2430,
      "oly": 2431,
      "Ġag": 2432,
      "Ġbad": 2433,
      "ern": 2434,
      "Ġlust": 2435,
      "idd": 2436,
      "Ġreceive": 2437,
      "ĠPal": 2438,
      "eaven": 2439,
      "USTUS": 2440,
      "ALIND": 2441,
      "Ġexc": 2442,
      "ROSALIND": 2443,
      "dden": 2444,
      "Ġpalace": 2445,
      "May": 2446,
      "Ġaction": 2447,
      "Ġworship": 2448,
      "Ġprep": 2449,
      "Ġenemy": 2450,
      "YORK": 2451,
      "ĠMor": 2452,
      "These": 2453,
      "GARET": 2454,
      ",[": 2455,
      "bit": 2456,
      "ef": 2457,
      "ual": 2458,
      "Ġwatch": 2459,
      "Ġwild": 2460,
      "LADY": 2461,
      "Ġcalled": 2462,
      "ĠFaustus": 2463,
      "Ġfeast": 2464,
      "MAC": 2465,
      "OH": 2466,
      "Yes": 2467,
      "ict": 2468,
      "Ġtrans": 2469,
      "ĠBar": 2470,
      "olk": 2471,
      "Ġscar": 2472,
      "'t": 2473,
      "hood": 2474,
      "Ġbos": 2475,
      "Ġind": 2476,
      "ARWICK": 2477,
      "ardinal": 2478,
      "ORE": 2479,
      "OLD": 2480,
      "ĠFAUSTUS": 2481,
      "ĠIsab": 2482,
      "Ġfill": 2483,
      "Ġfie": 2484,
      "Ġlow": 2485,
      "ĠPED": 2486,
      "ĠLady": 2487,
      "ELIA": 2488,
      "Ġmarried": 2489,
      "Ġappro": 2490,
      "Ġtrou": 2491,
      "BETH": 2492,
      "ĠGloucester": 2493,
      "ITH": 2494,
      "rent": 2495,
      "Ġcru": 2496,
      "ley": 2497,
      "rach": 2498,
      "ĠLe": 2499,
      "Ġheavy": 2500,
      "OHN": 2501,
      "rel": 2502,
      "Ġbecause": 2503,
      "ently": 2504,
      "Ġsever": 2505,
      "Ġused": 2506,
      "Ġabs": 2507,
      "Ġabove": 2508,
      "ainted": 2509,
      "Ġvoice": 2510,
      "HER": 2511,
      "One": 2512,
      "con": 2513,
      "his": 2514,
      "Ġ~": 2515,
      "Ġty": 2516,
      "Ġdire": 2517,
      "ĠTur": 2518,
      "ĠFortune": 2519,
      "cience": 2520,
      "Ġleast": 2521,
      "Ġbosom": 2522,
      "DIN": 2523,
      "gy": 2524,
      "ened": 2525,
      "ĊĊĊĠĠĠĠ": 2526,
      "asc": 2527,
      "Ġweak": 2528,
      "Ġneeds": 2529,
      "ĊĊĠĠĠ": 2530,
      "Ġadm": 2531,
      "Ġharm": 2532,
      "Ġspirits": 2533,
      "DON": 2534,
      "ny": 2535,
      "ude": 2536,
      "Ġmot": 2537,
      "Ġunt": 2538,
      "ĠHel": 2539,
      "Ġsport": 2540,
      "Ġplain": 2541,
      "Ġalmost": 2542,
      "ĠĠĠĠĠĠĠĠĠĠĠĠĠĠĠĠĠĠĠĠĠĠĠĠĠĠĠĠĠĠĠĠ": 2543,
      "Ġstands": 2544,
      "Ġhumour": 2545,
      "Ġstreng": 2546,
      "ĠRoom": 2547,
      "onight": 2548,
      "Ġfra": 2549,
      "ĊĊĠĠĠĠĠĠĠĠĠĠĠĠĠĠĠ": 2550,
      "ĠMistress": 2551,
      "ĠOn": 2552,
      "hilst": 2553,
      "Ġsuffer": 2554,
      "Duke": 2555,
      "EW": 2556,
      "RAT": 2557,
      "Ġmock": 2558,
      "Ġfat": 2559,
      "Ġob": 2560,
      "imer": 2561,
      "ĠMAM": 2562,
      "ĠPar": 2563,
      "ANUS": 2564,
      "Ġwhite": 2565,
      "DINAND": 2566,
      "mber": 2567,
      "read": 2568,
      "Ġocc": 2569,
      "Ġpit": 2570,
      "Ġhaving": 2571,
      "ĠSc": 2572,
      "ĠServ": 2573,
      "ĠOld": 2574,
      "ĠGENTLEMAN": 2575,
      "Ġoften": 2576,
      "rate": 2577,
      "Ġstir": 2578,
      "Ġrare": 2579,
      "Ġrespect": 2580,
      "PAND": 2581,
      "Ġobs": 2582,
      "ang": 2583,
      "Ġheir": 2584,
      "alm": 2585,
      "Ġstru": 2586,
      "ONA": 2587,
      "Ġdidst": 2588,
      "Ġpride": 2589,
      "ĠBefore": 2590,
      "Ġjustice": 2591,
      "Ġinstru": 2592,
      "HOST": 2593,
      "Ġsomething": 2594,
      "Ġrevenge": 2595,
      "Ġcounsel": 2596,
      "ting": 2597,
      "ught": 2598,
      "yre": 2599,
      "Ġmount": 2600,
      "Ġbell": 2601,
      "ĠCITIZEN": 2602,
      "umph": 2603,
      "Ġjest": 2604,
      "Therefore": 2605,
      "Ġguard": 2606,
      "Ġstrike": 2607,
      "Ġexcellent": 2608,
      "Ġfashion": 2609,
      "!--": 2610,
      "AU": 2611,
      "IPH": 2612,
      "isf": 2613,
      "Ġcirc": 2614,
      "Ġins": 2615,
      "Ġjew": 2616,
      "twas": 2617,
      "Ġbuy": 2618,
      "Ġpraise": 2619,
      "VAL": 2620,
      "Ġgro": 2621,
      "ĠAre": 2622,
      "ĠAnother": 2623,
      "Ġref": 2624,
      "Andel": 2625,
      "EST": 2626,
      "Ġcoming": 2627,
      "ĠRoman": 2628,
      "ured": 2629,
      "ARDIN": 2630,
      "Had": 2631,
      "WARWICK": 2632,
      "ration": 2633,
      "Ġsus": 2634,
      "eness": 2635,
      "Ġduty": 2636,
      "ters": 2637,
      "urch": 2638,
      "ĠMort": 2639,
      "ĠPage": 2640,
      "Ġsudden": 2641,
      "hys": 2642,
      "Ġentertain": 2643,
      "ĠAttend": 2644,
      "ĠBrutus": 2645,
      "ler": 2646,
      "uri": 2647,
      "arl": 2648,
      "OLUS": 2649,
      "Ġprithee": 2650,
      "ANTIPH": 2651,
      "Ġheads": 2652,
      "Ġbegin": 2653,
      "Ġseems": 2654,
      "Ġtender": 2655,
      "ANTIPHOLUS": 2656,
      "Com": 2657,
      "Ġ--": 2658,
      "Ġwoe": 2659,
      "roke": 2660,
      "peror": 2661,
      "Ġwars": 2662,
      "Ġbreast": 2663,
      "Ġtraitor": 2664,
      "Ġcurs": 2665,
      "essenger": 2666,
      "vol": 2667,
      "ze": 2668,
      "Ġmist": 2669,
      "Ġwound": 2670,
      "orth": 2671,
      "Ġthri": 2672,
      "Ġmarriage": 2673,
      "liver": 2674,
      "RIAR": 2675,
      "CLA": 2676,
      "EV": 2677,
      "Most": 2678,
      "Ġtonight": 2679,
      "Ġhours": 2680,
      "Ġforce": 2681,
      "ourish": 2682,
      "ĠBel": 2683,
      "Ġspeed": 2684,
      "Ġchildren": 2685,
      "SU": 2686,
      "ffect": 2687,
      "Ġbeast": 2688,
      "ĠAb": 2689,
      "Ġlips": 2690,
      "Ġloss": 2691,
      "resh": 2692,
      "Ġparts": 2693,
      "Ġterm": 2694,
      "IB": 2695,
      "Ġwoo": 2696,
      "Ġbit": 2697,
      "Ġcross": 2698,
      "Ġwealth": 2699,
      "Ġsoft": 2700,
      "ĠLO": 2701,
      "ANTONIO": 2702,
      "Ġpossess": 2703,
      "IP": 2704,
      "eem": 2705,
      "Ġtor": 2706,
      "Ġdark": 2707,
      "Ġbecome": 2708,
      "Ġforb": 2709,
      "iew": 2710,
      "othing": 2711,
      "ALL": 2712,
      "EMILIA": 2713,
      "Ġpriv": 2714,
      "Ġconscience": 2715,
      "Ġsense": 2716,
      "Pray": 2717,
      "TIT": 2718,
      "Ġes": 2719,
      "Ġbow": 2720,
      "Ġdish": 2721,
      "Ġlan": 2722,
      "Ġhide": 2723,
      "Ġtomorrow": 2724,
      "Ġeither": 2725,
      "unning": 2726,
      "Ġsouls": 2727,
      "Ġvaliant": 2728,
      "Ġacqu": 2729,
      "ald": 2730,
      "ib": 2731,
      "Ġeas": 2732,
      "ARUS": 2733,
      "ĠED": 2734,
      "Ġconce": 2735,
      "ĠJOHN": 2736,
      "THIRD": 2737,
      "Ġpretty": 2738,
      "Ġstrength": 2739,
      "Ġsn": 2740,
      "Ġgot": 2741,
      "Ġliber": 2742,
      "ĠCy": 2743,
      "ify": 2744,
      "Ġsworn": 2745,
      "umb": 2746,
      "ABELLA": 2747,
      "RUCHIO": 2748,
      "Ġsatisf": 2749,
      "MESSENGER": 2750,
      "Ġhealth": 2751,
      "ature": 2752,
      "ract": 2753,
      "Ġshad": 2754,
      "Ġletters": 2755,
      "CAL": 2756,
      "Say": 2757,
      "su": 2758,
      "Ġver": 2759,
      "head": 2760,
      "Ġwent": 2761,
      "Ġfing": 2762,
      "Ġcase": 2763,
      "Ġpol": 2764,
      "Ġgrant": 2765,
      "ĠSE": 2766,
      "ander": 2767,
      "ĠLook": 2768,
      "feit": 2769,
      "IDA": 2770,
      "Ġliege": 2771,
      "Ġviol": 2772,
      "HELEN": 2773,
      "Ar": 2774,
      "hind": 2775,
      "sh": 2776,
      "Ġduke": 2777,
      "Ġsteal": 2778,
      "ease": 2779,
      "ifford": 2780,
      "Ġrob": 2781,
      "ĠANTON": 2782,
      ".,": 2783,
      "under": 2784,
      "inc": 2785,
      "Ġcred": 2786,
      "ENIUS": 2787,
      "itted": 2788,
      "Orl": 2789,
      "Ġfeed": 2790,
      "ĠMortimer": 2791,
      "hysic": 2792,
      "NOR": 2793,
      "pin": 2794,
      "Ġtaken": 2795,
      "Ġslain": 2796,
      "Ġmir": 2797,
      "Ġdied": 2798,
      "Ġequ": 2799,
      "ĠWould": 2800,
      "Ġgovern": 2801,
      "Ġtrump": 2802,
      "LOUC": 2803,
      "Ġspeaks": 2804,
      "Ġmarch": 2805,
      "Ġ15": 2806,
      "Ġdram": 2807,
      "ekker": 2808,
      "LOUCESTER": 2809,
      "TRO": 2810,
      "YM": 2811,
      "Ġauth": 2812,
      "Ġmed": 2813,
      "Ġhorn": 2814,
      "ĠPo": 2815,
      "iffe": 2816,
      "Ġgod": 2817,
      "ĠVen": 2818,
      "Ġwitness": 2819,
      "Ġunderstand": 2820,
      "Alas": 2821,
      "DEMONA": 2822,
      "DESDEMONA": 2823,
      "IOLA": 2824,
      "Since": 2825,
      "TS": 2826,
      "Take": 2827,
      "oin": 2828,
      "Ġdu": 2829,
      "Ġlim": 2830,
      "set": 2831,
      "ĊĠĠĠĠĠĠ": 2832,
      "though": 2833,
      "Ġprov": 2834,
      "Ġkingdom": 2835,
      "Ġaffection": 2836,
      "ĠPray": 2837,
      "Ġpract": 2838,
      "MENENIUS": 2839,
      "CLAUD": 2840,
      "DROM": 2841,
      "HOR": 2842,
      "Ill": 2843,
      "zen": 2844,
      "Ġfig": 2845,
      "ites": 2846,
      "Ġcarry": 2847,
      "Ġlack": 2848,
      "Ġoffend": 2849,
      "raw": 2850,
      "used": 2851,
      "ils": 2852,
      "asters": 2853,
      "que": 2854,
      "hens": 2855,
      "Ġpresence": 2856,
      "ealous": 2857,
      "ROMEO": 2858,
      "ĠEDWARD": 2859,
      "DROMIO": 2860,
      "oured": 2861,
      "rem": 2862,
      "arge": 2863,
      "ancy": 2864,
      "owed": 2865,
      "pped": 2866,
      "Ġchance": 2867,
      "Ġ160": 2868,
      "Ġtitle": 2869,
      "Should": 2870,
      "Ġla": 2871,
      "Ġpiece": 2872,
      "lem": 2873,
      "Ġeffect": 2874,
      "ural": 2875,
      "ANG": 2876,
      "ccess": 2877,
      "Ġpassion": 2878,
      "Ġlordship": 2879,
      "ĠANTONIO": 2880,
      "CLAUDIO": 2881,
      "Ha": 2882,
      "bury": 2883,
      "rey": 2884,
      "Ġbri": 2885,
      "Ġgift": 2886,
      "Ġstud": 2887,
      "ider": 2888,
      "urse": 2889,
      "ĠCor": 2890,
      "ĠCast": 2891,
      "ANCE": 2892,
      "Ġpoet": 2893,
      "Ġsafe": 2894,
      "Ġrid": 2895,
      "Ġheavens": 2896,
      "DICK": 2897,
      "GU": 2898,
      "GLOUCESTER": 2899,
      "TO": 2900,
      "Wh": 2901,
      "Ġbattle": 2902,
      "Ġpun": 2903,
      "Ġele": 2904,
      "ĠHave": 2905,
      "ENCE": 2906,
      "ĠLuc": 2907,
      "Ġloving": 2908,
      "Ġchamber": 2909,
      "Ġmal": 2910,
      "Ġpale": 2911,
      "ingly": 2912,
      "ĠMUS": 2913,
      "Ġliving": 2914,
      "ĠLu": 2915,
      "ired": 2916,
      "Ġalong": 2917,
      "ĠAnton": 2918,
      "Ġprinces": 2919,
      "PETRUCHIO": 2920,
      "ARDINAL": 2921,
      "ETH": 2922,
      "Ġwood": 2923,
      "Ġbond": 2924,
      "Ġfive": 2925,
      "Ġhurt": 2926,
      "irg": 2927,
      "ric": 2928,
      "ĠCount": 2929,
      "Ġangry": 2930,
      "ĠLa": 2931,
      "ends": 2932,
      "Ġtruly": 2933,
      "Ġoffer": 2934,
      "Ġwrite": 2935,
      "Ġpurse": 2936,
      "Ġcheer": 2937,
      "fully": 2938,
      "Frank": 2939,
      "Make": 2940,
      "Marry": 2941,
      "du": 2942,
      "sper": 2943,
      "Ġet": 2944,
      "Ġhost": 2945,
      "ĠPER": 2946,
      "ENS": 2947,
      "OLIV": 2948,
      "ume": 2949,
      "Ġkept": 2950,
      "Ġgolden": 2951,
      "Ġgives": 2952,
      "Ġcounter": 2953,
      "Ġbirth": 2954,
      "IOL": 2955,
      "ience": 2956,
      "og": 2957,
      "Ġwine": 2958,
      "ety": 2959,
      "Ġwithal": 2960,
      "bey": 2961,
      "Ġmoon": 2962,
      "Ġpublic": 2963,
      "Ġir": 2964,
      "Ġteach": 2965,
      "Ġnay": 2966,
      "ĠGive": 2967,
      "ONE": 2968,
      "Thus": 2969,
      "Ġround": 2970,
      "ENTINE": 2971,
      "RESSIDA": 2972,
      "ĠFERDINAND": 2973,
      "VALENTINE": 2974,
      "ares": 2975,
      "Ġut": 2976,
      "Ġdri": 2977,
      "omp": 2978,
      "Ġexec": 2979,
      "Ġlonger": 2980,
      "Ġlabour": 2981,
      "16": 2982,
      "CRESSIDA": 2983,
      "Madam": 2984,
      "ris": 2985,
      "have": 2986,
      "ĠTOB": 2987,
      "ĊĠĠĠĠĠĠĠĠ": 2988,
      "Ġstar": 2989,
      "Ġdec": 2990,
      "Ġdeeds": 2991,
      "Ġvile": 2992,
      "ĠJul": 2993,
      "Ġprop": 2994,
      "Ġproper": 2995,
      "ĠĠĠĠĠĠĠĠĠĠĠĠĠĠĠĠĠĠĠĠ": 2996,
      "Ġoffice": 2997,
      "ledge": 2998,
      "Ġfortunes": 2999,
      "ĊĊĊĠĠĠĠĠĠĠĠĠĠĠĠĠĠĠĠĠĠĠ": 3000,
      "PANDARUS": 3001,
      "ĠTOBY": 3002,
      "!âĢĶ": 3003,
      "Farewell": 3004,
      "Ġtry": 3005,
      "ndeed": 3006,
      "Ġmel": 3007,
      "ANS": 3008,
      "Ġview": 3009,
      "ignor": 3010,
      "Ġhonourable": 3011,
      "VOLIO": 3012,
      "LU": 3013,
      "nown": 3014,
      "Ġay": 3015,
      "Ġfru": 3016,
      "stance": 3017,
      "Ġinv": 3018,
      "Ġbehind": 3019,
      "rupt": 3020,
      "aunt": 3021,
      "bled": 3022,
      "UCKING": 3023,
      "Ġcurse": 3024,
      "Ġdepart": 3025,
      "Ġcruel": 3026,
      "IOLANUS": 3027,
      "BEL": 3028,
      "mand": 3029,
      "ina": 3030,
      "erc": 3031,
      "ises": 3032,
      "orge": 3033,
      "Ġpain": 3034,
      "Ġpost": 3035,
      "ALLOW": 3036,
      "ĠJove": 3037,
      "Ġpluck": 3038,
      "Within": 3039,
      "ITE": 3040,
      "Ġstreet": 3041,
      "Ġdeny": 3042,
      "Fran": 3043,
      "Out": 3044,
      "ugh": 3045,
      "ĠIN": 3046,
      "ĠThan": 3047,
      "Ġissue": 3048,
      "cius": 3049,
      "ĠDoctor": 3050,
      "Ġlearn": 3051,
      "TEUS": 3052,
      "PROTEUS": 3053,
      "ĠMARGARET": 3054,
      "ACH": 3055,
      "Brach": 3056,
      "Con": 3057,
      "bles": 3058,
      "eep": 3059,
      "gers": 3060,
      "iol": 3061,
      "Ġer": 3062,
      "imo": 3063,
      "asion": 3064,
      "ĠHor": 3065,
      "ument": 3066,
      "Ġthanks": 3067,
      "ĠTherefore": 3068,
      "Ġpromise": 3069,
      "Ġenemies": 3070,
      "CORIOLANUS": 3071,
      "PORT": 3072,
      "VE": 3073,
      "eks": 3074,
      "king": 3075,
      "itiz": 3076,
      "Ġtoday": 3077,
      "Ġforget": 3078,
      "Ġcloud": 3079,
      "Ġsmo": 3080,
      "ATHER": 3081,
      "Ġspoke": 3082,
      "ĠAttendants": 3083,
      "HELENA": 3084,
      "what": 3085,
      "Ġmatch": 3086,
      "Ġfresh": 3087,
      "ĠTit": 3088,
      "ĠThy": 3089,
      "ĠChar": 3090,
      "Ġprot": 3091,
      "Ġjealous": 3092,
      "Ġoffic": 3093,
      "Ġquickly": 3094,
      "Ġwalls": 3095,
      "ĠAntonio": 3096,
      "PA": 3097,
      "more": 3098,
      "ug": 3099,
      "Ġmortal": 3100,
      "Ġphysic": 3101,
      "Ġthrow": 3102,
      "ĠTimon": 3103,
      "ĠCon": 3104,
      "ĠDekker": 3105,
      "ESAR": 3106,
      "Ġdelight": 3107,
      "UCKINGHAM": 3108,
      "PAL": 3109,
      "ient": 3110,
      "oc": 3111,
      "Ġtaste": 3112,
      "Ġsch": 3113,
      "Ġcunning": 3114,
      "anch": 3115,
      "anish": 3116,
      "staff": 3117,
      "ĠAway": 3118,
      "ĠCan": 3119,
      "ĠCap": 3120,
      "Ġvain": 3121,
      "ustration": 3122,
      "elcome": 3123,
      "Ġperform": 3124,
      "awd": 3125,
      "Ġsilver": 3126,
      ".[": 3127,
      "FORD": 3128,
      "Must": 3129,
      "cing": 3130,
      "ror": 3131,
      "woman": 3132,
      "Ġwed": 3133,
      "Ġbright": 3134,
      "Ġreve": 3135,
      "ĠHeaven": 3136,
      "ĠPers": 3137,
      "Ġnoise": 3138,
      "Ġlov": 3139,
      "OLLES": 3140,
      "Ġloved": 3141,
      "Ġqual": 3142,
      "rief": 3143,
      "noc": 3144,
      "Ġseveral": 3145,
      "Ġauthor": 3146,
      "Illustration": 3147,
      "gl": 3148,
      "via": 3149,
      "Ġap": 3150,
      "Ġmere": 3151,
      "ĠEPH": 3152,
      "ĠGree": 3153,
      "Ġwouldst": 3154,
      "Ġclear": 3155,
      "PAROLLES": 3156,
      "!âĢĿ": 3157,
      "BUCKINGHAM": 3158,
      "bour": 3159,
      "der": 3160,
      "itors": 3161,
      "Ġdeliver": 3162,
      "END": 3163,
      "rue": 3164,
      "ĠEm": 3165,
      "ESUS": 3166,
      "Ġrage": 3167,
      "FFOLK": 3168,
      "Ġchoose": 3169,
      "Ġcoward": 3170,
      "ĠEPHESUS": 3171,
      "ICE": 3172,
      "pher": 3173,
      "Ġsigh": 3174,
      "Ġsix": 3175,
      "haps": 3176,
      "Ġlist": 3177,
      "Ġlaid": 3178,
      "Ġthro": 3179,
      "vey": 3180,
      "Ġange": 3181,
      "Ġfaire": 3182,
      "Ġmanner": 3183,
      "AMON": 3184,
      "ĠĠĠĠĠĠĠĠĠĠĠĠĠĠĠĠĠĠĠĠĠĠĠĠ": 3185,
      "Ġleg": 3186,
      "Before": 3187,
      "PALAMON": 3188,
      "Ah": 3189,
      "Against": 3190,
      "CUS": 3191,
      "VER": 3192,
      "Ġits": 3193,
      "Ġreb": 3194,
      "ARC": 3195,
      "ĠGe": 3196,
      "antage": 3197,
      "AMORE": 3198,
      "osition": 3199,
      "Ġgreater": 3200,
      "Ġperceive": 3201,
      "Ġcrowns": 3202,
      "Ġpatient": 3203,
      "SHALLOW": 3204,
      "CASSIUS": 3205,
      "LANDO": 3206,
      "Ġcaptain": 3207,
      "min": 3208,
      "hakes": 3209,
      "Ġopin": 3210,
      "chief": 3211,
      "Ġforward": 3212,
      "ĠSaint": 3213,
      "Ġshar": 3214,
      "Their": 3215,
      "ĠPl": 3216,
      "hose": 3217,
      "Ġvow": 3218,
      "Ġsirrah": 3219,
      "Ġworst": 3220,
      "ĠSold": 3221,
      "Ġtroth": 3222,
      "Ġcontin": 3223,
      "CAESAR": 3224,
      "SUFFOLK": 3225,
      "Away": 3226,
      "fer": 3227,
      "joy": 3228,
      "Ġsor": 3229,
      "Ġdance": 3230,
      "ĠSome": 3231,
      "urst": 3232,
      "ĠMajesty": 3233,
      "ĠHigh": 3234,
      "iled": 3235,
      "Ġlod": 3236,
      "aker": 3237,
      "ATO": 3238,
      "Ġflatter": 3239,
      "Ġanything": 3240,
      "Ġdread": 3241,
      "ĠPEDRO": 3242,
      "BENE": 3243,
      "Pro": 3244,
      "act": 3245,
      "Ġtale": 3246,
      "Ġsort": 3247,
      "Ġcost": 3248,
      "Ġdin": 3249,
      "Ġdest": 3250,
      "Ġline": 3251,
      "Ġyes": 3252,
      "ĠITH": 3253,
      "ĠAV": 3254,
      "ĠSil": 3255,
      "Ġweap": 3256,
      "ility": 3257,
      "Ġvar": 3258,
      "Ġgoing": 3259,
      "Ġblow": 3260,
      "Ġglass": 3261,
      "Ġglory": 3262,
      "Ġfools": 3263,
      "ĠCORV": 3264,
      "Ġorder": 3265,
      "ĠITHAMORE": 3266,
      "BRO": 3267,
      "MAL": 3268,
      "gri": 3269,
      "ners": 3270,
      "peare": 3271,
      "ses": 3272,
      "will": 3273,
      "Ġtakes": 3274,
      "Ġwid": 3275,
      "Ġfew": 3276,
      "Ġfier": 3277,
      "ays": 3278,
      "ident": 3279,
      "usion": 3280,
      "Ġshows": 3281,
      "Ġourselves": 3282,
      "Ġproc": 3283,
      "Ġdamn": 3284,
      "TITUS": 3285,
      "PORTIA": 3286,
      "hakespeare": 3287,
      "BENEDICK": 3288,
      "ding": 3289,
      "low": 3290,
      "loy": 3291,
      "Ġtent": 3292,
      "nds": 3293,
      "Ġinnoc": 3294,
      "sem": 3295,
      "leep": 3296,
      "ilus": 3297,
      "Ġsuccess": 3298,
      "ANO": 3299,
      "Ġneigh": 3300,
      "ILUS": 3301,
      "twere": 3302,
      "Ġquarrel": 3303,
      "ĠAVOC": 3304,
      "OW": 3305,
      "Such": 3306,
      "iar": 3307,
      "ob": 3308,
      "your": 3309,
      "ona": 3310,
      "onour": 3311,
      "Ġdrown": 3312,
      "Ġheat": 3313,
      "Ġseal": 3314,
      "ĠEarl": 3315,
      "Ġpartic": 3316,
      "Ġdrawn": 3317,
      "Ġchurch": 3318,
      "IGH": 3319,
      "ĠCassio": 3320,
      "Ġconquer": 3321,
      "OLDIER": 3322,
      "ĠServant": 3323,
      "TROILUS": 3324,
      "ARCITE": 3325,
      "FR": 3326,
      "SPE": 3327,
      "Ġhun": 3328,
      "Ġshape": 3329,
      "ĠFal": 3330,
      "ĠOur": 3331,
      "Ġquiet": 3332,
      "icked": 3333,
      "Ġhighness": 3334,
      "Ġcolour": 3335,
      "ĠClaud": 3336,
      "Ġwisdom": 3337,
      "Speak": 3338,
      "MACBETH": 3339,
      "AW": 3340,
      "BUS": 3341,
      "IET": 3342,
      "Tell": 3343,
      "aves": 3344,
      "ex": 3345,
      "Ġble": 3346,
      "Ġfre": 3347,
      "Ġlarge": 3348,
      "Ġport": 3349,
      "Ġheld": 3350,
      "Ġformer": 3351,
      "ĠSCENE": 3352,
      "ales": 3353,
      "Ġdoctor": 3354,
      "ĠPAGE": 3355,
      "iful": 3356,
      "astard": 3357,
      "ĠDon": 3358,
      "ONT": 3359,
      "Ġoffence": 3360,
      "ĠHector": 3361,
      "ISABELLA": 3362,
      "Ġbanish": 3363,
      "Ġvalour": 3364,
      "EXIT": 3365,
      "Ġscarce": 3366,
      "GH": 3367,
      "OUR": 3368,
      "SIC": 3369,
      "born": 3370,
      "kind": 3371,
      "mong": 3372,
      "Ġmorrow": 3373,
      "arum": 3374,
      "ĠFord": 3375,
      "ESE": 3376,
      "ways": 3377,
      "Ġbears": 3378,
      "Ġmonth": 3379,
      "Ġladies": 3380,
      "ĠTurk": 3381,
      "Mar": 3382,
      "oes": 3383,
      "Ġmid": 3384,
      "ĠTake": 3385,
      "ided": 3386,
      "ĠFri": 3387,
      "Ġanon": 3388,
      "ĠDOL": 3389,
      "CHAR": 3390,
      "perate": 3391,
      "Ġfoolish": 3392,
      "LUCIUS": 3393,
      "Ġvictor": 3394,
      "GEN": 3395,
      "over": 3396,
      "Ġant": 3397,
      "Ġthreat": 3398,
      "Ġbeard": 3399,
      "ĠSEN": 3400,
      "ĠHam": 3401,
      "Ġneck": 3402,
      "Ġconc": 3403,
      "Ġproceed": 3404,
      "Ġcharac": 3405,
      "Ġcommend": 3406,
      "ucking": 3407,
      "ISTOL": 3408,
      "Ġprincely": 3409,
      "otten": 3410,
      "BOT": 3411,
      "Ġlangu": 3412,
      "Ġmelanch": 3413,
      "Pr": 3414,
      "PISTOL": 3415,
      "iter": 3416,
      "ating": 3417,
      "Ġgown": 3418,
      "Ġmeat": 3419,
      "Ġstage": 3420,
      "iles": 3421,
      "Ġrasc": 3422,
      "Ġenc": 3423,
      "Ġprayers": 3424,
      "Ġarmy": 3425,
      "PERO": 3426,
      "Ġdrunk": 3427,
      "JULIET": 3428,
      "ĠHelen": 3429,
      "Firk": 3430,
      "PUR": 3431,
      "Vit": 3432,
      "him": 3433,
      "rim": 3434,
      "orous": 3435,
      "Ġcust": 3436,
      "Ġpure": 3437,
      "athe": 3438,
      "irl": 3439,
      "Ġeld": 3440,
      "Ġstars": 3441,
      "road": 3442,
      "ĠDid": 3443,
      "Ġarg": 3444,
      "THE": 3445,
      "Ġsac": 3446,
      "Ġrise": 3447,
      "Ġwitch": 3448,
      "ĠProte": 3449,
      "IANA": 3450,
      "LEONTES": 3451,
      "BOR": 3452,
      "MER": 3453,
      "broke": 3454,
      "can": 3455,
      "yb": 3456,
      "Ġfrown": 3457,
      "Ġintend": 3458,
      "ĠMan": 3459,
      "eston": 3460,
      "artius": 3461,
      "ORLANDO": 3462,
      "law": 3463,
      "Ġrogue": 3464,
      "itten": 3465,
      "Ġconsent": 3466,
      "Stand": 3467,
      "gues": 3468,
      "ĠCORB": 3469,
      "Ġcreature": 3470,
      "DE": 3471,
      "Shad": 3472,
      "VIOLA": 3473,
      "Yea": 3474,
      "gle": 3475,
      "house": 3476,
      "Ġwon": 3477,
      "atio": 3478,
      "ĠAd": 3479,
      "ĠSIR": 3480,
      "ests": 3481,
      "this": 3482,
      "Ġthence": 3483,
      "Ġchast": 3484,
      "Ġcoin": 3485,
      "ICLES": 3486,
      "Ġplague": 3487,
      "ĠRomeo": 3488,
      "ROSPERO": 3489,
      "Ġwanton": 3490,
      "Ġrememb": 3491,
      "Ġtemp": 3492,
      "Ġprisoner": 3493,
      "Ġcondition": 3494,
      "Ġfruit": 3495,
      "ĠClaudio": 3496,
      "Ġing": 3497,
      "Ġpet": 3498,
      "ĠAp": 3499,
      "ĊĠĠĠĠĠĠĠ": 3500,
      "ĠSuff": 3501,
      "ĠHIER": 3502,
      "arent": 3503,
      "THESE": 3504,
      "Ġ18": 3505,
      "RICE": 3506,
      "Being": 3507,
      "Ġchief": 3508,
      "Ġwretched": 3509,
      "IE": 3510,
      "War": 3511,
      "Ġwench": 3512,
      "Ġdull": 3513,
      "Ġdwell": 3514,
      "Ġgain": 3515,
      "Ġstone": 3516,
      "Ġstory": 3517,
      "ords": 3518,
      "ieu": 3519,
      "aked": 3520,
      "ELO": 3521,
      "PERICLES": 3522,
      "ĠWhose": 3523,
      "Ġvirtuous": 3524,
      "Ġdamned": 3525,
      "Ġprepare": 3526,
      "ĠGeorge": 3527,
      "app": 3528,
      "ked": 3529,
      "Ġwounds": 3530,
      "Ġbare": 3531,
      "Ġlou": 3532,
      "alb": 3533,
      "ĠWh": 3534,
      "Ġdeal": 3535,
      "ĠGu": 3536,
      "ĠGav": 3537,
      "ATIO": 3538,
      "Ġwait": 3539,
      "LEONATO": 3540,
      "ĠChristian": 3541,
      "ĠMayor": 3542,
      "Ġpaper": 3543,
      "Ġbitter": 3544,
      "THESEUS": 3545,
      "De": 3546,
      "Sweet": 3547,
      "acc": 3548,
      "Ġbas": 3549,
      "Ġcre": 3550,
      "ĠSaw": 3551,
      "Ġstood": 3552,
      "ĠCARDINAL": 3553,
      "Ġanci": 3554,
      "ably": 3555,
      "Because": 3556,
      "Ġboys": 3557,
      "Ġmonst": 3558,
      "chant": 3559,
      "ĠGaveston": 3560,
      "Mont": 3561,
      "Peace": 3562,
      "SA": 3563,
      "YS": 3564,
      "].": 3565,
      "worth": 3566,
      "ato": 3567,
      "omin": 3568,
      "ĠSTE": 3569,
      "Ġlion": 3570,
      "Ġdeg": 3571,
      "Ġshake": 3572,
      "ĠOut": 3573,
      "Ġamb": 3574,
      "odge": 3575,
      "Ġtrick": 3576,
      "Ġmiser": 3577,
      "Ġdangerous": 3578,
      "IMOGEN": 3579,
      "Ġprivate": 3580,
      "OLIVIA": 3581,
      "10": 3582,
      "ipp": 3583,
      "heart": 3584,
      "Ġmour": 3585,
      "Ġcatch": 3586,
      "Ġcamp": 3587,
      "Ġgates": 3588,
      "eding": 3589,
      "Ġevil": 3590,
      "Ġstuff": 3591,
      "Ġherself": 3592,
      "iff": 3593,
      "Ġplot": 3594,
      "Ġfled": 3595,
      "Ġwrath": 3596,
      "Ġdeser": 3597,
      "Ġfearful": 3598,
      "ney": 3599,
      "Ġfellows": 3600,
      "ĠPalace": 3601,
      "Ġcredit": 3602,
      "Ġetc": 3603,
      "SPEED": 3604,
      "SICINIUS": 3605,
      "CL": 3606,
      "wise": 3607,
      "Ġmasters": 3608,
      "Ġloose": 3609,
      "Ġpains": 3610,
      "Ġinvent": 3611,
      "Ġmeasure": 3612,
      "ĠCardinal": 3613,
      "ĠGentle": 3614,
      "Ġfail": 3615,
      "Ġconj": 3616,
      "erer": 3617,
      "agger": 3618,
      "Ġprecious": 3619,
      "Ġclo": 3620,
      "Ġsorry": 3621,
      "PROSPERO": 3622,
      "SIL": 3623,
      "ault": 3624,
      "chan": 3625,
      "Ġ5": 3626,
      "Ġship": 3627,
      "Ġmethinks": 3628,
      "Ġwhi": 3629,
      "ĠFrom": 3630,
      "Ġvent": 3631,
      "ĠThus": 3632,
      "Ġcalls": 3633,
      "Ġplays": 3634,
      "OBAR": 3635,
      "Ġemperor": 3636,
      "gypt": 3637,
      "ĠParis": 3638,
      "Ġoccasion": 3639,
      "ANGELO": 3640,
      "ĠHoratio": 3641,
      "ĠFalstaff": 3642,
      "Car": 3643,
      "COM": 3644,
      "PAGE": 3645,
      "SERVANT": 3646,
      "bus": 3647,
      "Ġwert": 3648,
      "Ġfame": 3649,
      "ĠTell": 3650,
      "ourt": 3651,
      "asons": 3652,
      "ĠMen": 3653,
      "Ġdece": 3654,
      "ĠPom": 3655,
      "Ġvirg": 3656,
      "Ġknock": 3657,
      "Ġhopes": 3658,
      "URSE": 3659,
      "Ġperfect": 3660,
      "ĠItal": 3661,
      "Ġgreen": 3662,
      "Ġmotion": 3663,
      "pherd": 3664,
      "Ġopinion": 3665,
      "uckingham": 3666,
      "pro": 3667,
      "Ġbab": 3668,
      "itude": 3669,
      "Ġpict": 3670,
      "ĠSUR": 3671,
      "ĠSERVANT": 3672,
      "ĠFarewell": 3673,
      "ĠPort": 3674,
      "ENOBAR": 3675,
      "Ġnose": 3676,
      "icious": 3677,
      "Ġsaf": 3678,
      "Ġscene": 3679,
      "irtue": 3680,
      "Ġforgot": 3681,
      "Ġemploy": 3682,
      "ENOBARBUS": 3683,
      ":--": 3684,
      "ZE": 3685,
      "ax": 3686,
      "ich": 3687,
      "Ġbrief": 3688,
      "Ġthither": 3689,
      "atic": 3690,
      "Ġinj": 3691,
      "illes": 3692,
      "ourse": 3693,
      "ĠSal": 3694,
      "ĠCle": 3695,
      "ilty": 3696,
      "ĠLanc": 3697,
      "host": 3698,
      "arden": 3699,
      "Ġcomedy": 3700,
      "olph": 3701,
      "Ġabroad": 3702,
      "ATE": 3703,
      "ATRICE": 3704,
      "Ġtriumph": 3705,
      "hamber": 3706,
      "ize": 3707,
      "Ġblessed": 3708,
      "ĠCastle": 3709,
      "Ġdinner": 3710,
      "Ġmelancholy": 3711,
      "CELIA": 3712,
      "Ġrank": 3713,
      "Ġfury": 3714,
      "Ġpat": 3715,
      "Ġpowers": 3716,
      "Ġmem": 3717,
      "ĠAh": 3718,
      "ilia": 3719,
      "ardolph": 3720,
      "ĠKate": 3721,
      "ffic": 3722,
      "ctions": 3723,
      "Ġwits": 3724,
      "Ġcheeks": 3725,
      "Ġswords": 3726,
      "ĠAthens": 3727,
      "ĠArth": 3728,
      "Ġlearned": 3729,
      "Ġchoice": 3730,
      "CASSIO": 3731,
      "Ġprofess": 3732,
      "HORATIO": 3733,
      "ĠLancaster": 3734,
      "12": 3735,
      "BASS": 3736,
      "bar": 3737,
      "ts": 3738,
      "vail": 3739,
      "Ġmut": 3740,
      "Ġwast": 3741,
      "Ġborrow": 3742,
      "Ġcorn": 3743,
      "esides": 3744,
      "aring": 3745,
      "Ġthird": 3746,
      "omer": 3747,
      "Ġbeha": 3748,
      "Ġur": 3749,
      "ĠMont": 3750,
      "ĠFIRST": 3751,
      "Ġspend": 3752,
      "Ġnecess": 3753,
      "icles": 3754,
      "Ġwhether": 3755,
      "Ġgoodly": 3756,
      "ĠRos": 3757,
      "Ġproof": 3758,
      "Ġknowledge": 3759,
      "Ġblind": 3760,
      "Ġdisg": 3761,
      "Ġremain": 3762,
      "Ġtrain": 3763,
      "Ġtrib": 3764,
      "comes": 3765,
      "Ġinstant": 3766,
      "LUCIO": 3767,
      "ĠSuffolk": 3768,
      "fit": 3769,
      "lic": 3770,
      "non": 3771,
      "Ġtear": 3772,
      "Ġwhilst": 3773,
      "onimo": 3774,
      "Ġfle": 3775,
      "ĠShakespeare": 3776,
      "ĠSOLDIER": 3777,
      "Ġaside": 3778,
      "ĠHast": 3779,
      "ĠHier": 3780,
      "ĠBuckingham": 3781,
      "cted": 3782,
      "ĠOne": 3783,
      "--,\"": 3784,
      "chess": 3785,
      "bert": 3786,
      "oved": 3787,
      "force": 3788,
      "COUNT": 3789,
      "Ġexpress": 3790,
      "Ġsummer": 3791,
      "Ġcircum": 3792,
      "albot": 3793,
      ".âĢĻ": 3794,
      "eous": 3795,
      "Ġ6": 3796,
      "Ġran": 3797,
      "Ġable": 3798,
      "Ġbawd": 3799,
      "Ġfeet": 3800,
      "Ġpie": 3801,
      "anio": 3802,
      "Ġgame": 3803,
      "alent": 3804,
      "Ġstor": 3805,
      "ĠMoor": 3806,
      "ĠHarry": 3807,
      "ĠFirst": 3808,
      "Ġanger": 3809,
      "ĠLAD": 3810,
      "rum": 3811,
      "ĠEL": 3812,
      "ĠVol": 3813,
      "Ġenjoy": 3814,
      "Ġearly": 3815,
      "Ġbetray": 3816,
      "Ġsonne": 3817,
      "orses": 3818,
      "acle": 3819,
      "Ġbroke": 3820,
      "JULIA": 3821,
      "urious": 3822,
      "BROKE": 3823,
      "14": 3824,
      "15": 3825,
      "ECT": 3826,
      "apt": 3827,
      "go": 3828,
      "ys": 3829,
      "Ġreign": 3830,
      "Ġconcl": 3831,
      "Ġalive": 3832,
      "bling": 3833,
      "Ġgallant": 3834,
      "ridge": 3835,
      "Ġrequest": 3836,
      "Ġshadow": 3837,
      "ĠLucius": 3838,
      "Ġsacred": 3839,
      "13": 3840,
      "CK": 3841,
      "SAL": 3842,
      "Ġsong": 3843,
      "Ġmag": 3844,
      "Ġbene": 3845,
      "Ġpot": 3846,
      "Ġhor": 3847,
      "Ġhig": 3848,
      "Ġhunt": 3849,
      "Ġthrust": 3850,
      "Ġstop": 3851,
      "ĠMarry": 3852,
      "gelo": 3853,
      "ĠJU": 3854,
      "Ġexpect": 3855,
      "Ġrough": 3856,
      "iano": 3857,
      "BEATRICE": 3858,
      "BURY": 3859,
      "Ġfaults": 3860,
      "ĠHighness": 3861,
      "Ġparticular": 3862,
      "ĠHieronimo": 3863,
      "CAS": 3864,
      "Dis": 3865,
      "POM": 3866,
      "gare": 3867,
      "Ġignor": 3868,
      "Ġtail": 3869,
      "Ġbount": 3870,
      "orious": 3871,
      "llo": 3872,
      "Ġdies": 3873,
      "Ġyonder": 3874,
      "ĠMessenger": 3875,
      "ording": 3876,
      "ĠEgypt": 3877,
      "Ġeng": 3878,
      "ATCH": 3879,
      "Ġfolly": 3880,
      "Ġbrain": 3881,
      "Ġwrongs": 3882,
      "Ġsilence": 3883,
      "ĠClarence": 3884,
      "Ġprotest": 3885,
      "ĠLADY": 3886,
      "NER": 3887,
      "after": 3888,
      "Ġeds": 3889,
      "Ġlend": 3890,
      "Ġlater": 3891,
      "vell": 3892,
      "ĠTalbot": 3893,
      "ills": 3894,
      "tern": 3895,
      "ĠBOB": 3896,
      "Ġseven": 3897,
      "Ġours": 3898,
      "ortun": 3899,
      "umour": 3900,
      "URDER": 3901,
      "Ġwherefore": 3902,
      "Ġrepent": 3903,
      "ĠSpeak": 3904,
      "TRAM": 3905,
      "Ġsharp": 3906,
      "grip": 3907,
      "AIL": 3908,
      "Both": 3909,
      "Call": 3910,
      "Doth": 3911,
      "LEN": 3912,
      "Sh": 3913,
      "dis": 3914,
      "she": 3915,
      "Ġboot": 3916,
      "Ġloud": 3917,
      "anus": 3918,
      "ĠACT": 3919,
      "ĠAlex": 3920,
      "alph": 3921,
      "ĠMil": 3922,
      "Ġdeare": 3923,
      "Ġspent": 3924,
      "ĠDes": 3925,
      "ago": 3926,
      "ABETH": 3927,
      "ceived": 3928,
      "Ġtreason": 3929,
      "REY": 3930,
      "IZABETH": 3931,
      "ĠAlas": 3932,
      "Ġdivine": 3933,
      "ĠTroilus": 3934,
      "ĠELIZABETH": 3935,
      "TOR": 3936,
      "af": 3937,
      "cul": 3938,
      "Ġrans": 3939,
      "Ġsal": 3940,
      "Ġwicked": 3941,
      "Ġthunder": 3942,
      "vet": 3943,
      "Ġhaue": 3944,
      "Ġdoors": 3945,
      "ellow": 3946,
      "hop": 3947,
      "Ġspite": 3948,
      "Ġquite": 3949,
      "ATOR": 3950,
      "abas": 3951,
      "ĠLords": 3952,
      "ĠAngelo": 3953,
      "Ġterms": 3954,
      "PEY": 3955,
      "ĠVOLT": 3956,
      "BERTRAM": 3957,
      "Ġsooner": 3958,
      "Ġvisit": 3959,
      "Ġliberty": 3960,
      "lemn": 3961,
      "faith": 3962,
      "mond": 3963,
      "nz": 3964,
      "ov": 3965,
      "which": 3966,
      "yond": 3967,
      "Ġbones": 3968,
      "Ġfaint": 3969,
      "Ġcitiz": 3970,
      "Ġobey": 3971,
      "eng": 3972,
      "Ġthief": 3973,
      "omach": 3974,
      "orenz": 3975,
      "ĠLove": 3976,
      "ĠOR": 3977,
      "ĠGreat": 3978,
      "Ġshore": 3979,
      "ppy": 3980,
      "Ġjoin": 3981,
      "Ġcoll": 3982,
      "Ġlegs": 3983,
      "ANTUS": 3984,
      "wards": 3985,
      "Ġaffect": 3986,
      "Ġcontempt": 3987,
      "EMANTUS": 3988,
      "IDAM": 3989,
      "Ġturned": 3990,
      "Ġaccount": 3991,
      "Ġtongues": 3992,
      "airs": 3993,
      "ĠQu": 3994,
      "ĠBrit": 3995,
      "APEMANTUS": 3996,
      "BASTARD": 3997,
      "TSPUR": 3998,
      "Whom": 3999,
      "Ġwidow": 4000,
      "Ġmonstrous": 4001,
      "COUNTESS": 4002,
      "POMPEY": 4003,
      "Faith": 4004,
      "FEW": 4005,
      "NURSE": 4006,
      "Vio": 4007,
      "iest": 4008,
      "mia": 4009,
      "ua": 4010,
      "ued": 4011,
      "ĊĊĊ": 4012,
      "lease": 4013,
      "Ġmeant": 4014,
      "ĠMURDER": 4015,
      "ĠHouse": 4016,
      "ĠBAL": 4017,
      "ified": 4018,
      "Ġspring": 4019,
      "ference": 4020,
      "OLPH": 4021,
      "ody": 4022,
      "ARDOLPH": 4023,
      "Ġhonours": 4024,
      "ontent": 4025,
      "HOTSPUR": 4026,
      "Ġskill": 4027,
      "ĠBarabas": 4028,
      "Ġstruck": 4029,
      "Ġsuspect": 4030,
      "AJA": 4031,
      "ULET": 4032,
      "cis": 4033,
      "eat": 4034,
      "sc": 4035,
      "there": 4036,
      "ounter": 4037,
      "Ġwives": 4038,
      "Ġbott": 4039,
      "Ġfee": 4040,
      "Ġpound": 4041,
      "Ġhorses": 4042,
      "Ġheed": 4043,
      "chilles": 4044,
      "ria": 4045,
      "Ġyourselves": 4046,
      "ained": 4047,
      "Ġride": 4048,
      "Ġimag": 4049,
      "SEBAST": 4050,
      "Ġways": 4051,
      "Ġendure": 4052,
      "UND": 4053,
      "Ġcorrupt": 4054,
      "Ġawhile": 4055,
      "NEZE": 4056,
      "Ġembrace": 4057,
      "Ġknees": 4058,
      "Ġtrouble": 4059,
      "Ġancient": 4060,
      "ĠSTEP": 4061,
      "Ġsafety": 4062,
      "SEBASTIAN": 4063,
      "17": 4064,
      "LOR": 4065,
      "nes": 4066,
      "take": 4067,
      "ĠQU": 4068,
      "Ġtree": 4069,
      "Ġsqu": 4070,
      "Ġwond": 4071,
      "ising": 4072,
      "utation": 4073,
      "ĊĠĠĠĠĠĠĠĠĠĠĠĠ": 4074,
      "Ġsto": 4075,
      "ĠMartius": 4076,
      "INC": 4077,
      "ART": 4078,
      "ico": 4079,
      "Ġswift": 4080,
      "istol": 4081,
      "Ġhonesty": 4082,
      "LAFEW": 4083,
      "ETR": 4084,
      "Ġcompan": 4085,
      "ission": 4086,
      "Ġexcept": 4087,
      "Ġvex": 4088,
      "Ġidle": 4089,
      "EPHIST": 4090,
      "Ġjewel": 4091,
      "ĠVenice": 4092,
      "ĠHamlet": 4093,
      "ĠHIERO": 4094,
      "omerset": 4095
    },
    "merges": [
      [
        "Ġ",
        "t"
      ],
      [
        "h",
        "e"
      ],
      [
        "Ġ",
        "a"
      ],
      [
        "Ġ",
        "Ġ"
      ],
      [
        "o",
        "u"
      ],
      [
        "Ġ",
        "s"
      ],
      [
        "i",
        "n"
      ],
      [
        "Ġ",
        "m"
      ],
      [
        "r",
        "e"
      ],
      [
        "Ġ",
        "w"
      ],
      [
        "h",
        "a"
      ],
      [
        "n",
        "d"
      ],
      [
        "Ġt",
        "he"
      ],
      [
        "Ġ",
        "b"
      ],
      [
        "e",
        "r"
      ],
      [
        "i",
        "s"
      ],
      [
        "o",
        "r"
      ],
      [
        "o",
        "n"
      ],
      [
        "l",
        "l"
      ],
      [
        "Ġ",
        "f"
      ],
      [
        "i",
        "t"
      ],
      [
        "Ġ",
        "c"
      ],
      [
        "e",
        "s"
      ],
      [
        "Ġ",
        "o"
      ],
      [
        "e",
        "n"
      ],
      [
        "Ġ",
        "d"
      ],
      [
        "â",
        "Ģ"
      ],
      [
        "Ġ",
        "l"
      ],
      [
        "Ġ",
        "y"
      ],
      [
        "ĠĠ",
        "ĠĠ"
      ],
      [
        "Ġ",
        "n"
      ],
      [
        "a",
        "r"
      ],
      [
        "Ġ",
        "I"
      ],
      [
        "Ġ",
        "p"
      ],
      [
        "Ġ",
        "h"
      ],
      [
        "Ġt",
        "h"
      ],
      [
        "âĢ",
        "Ļ"
      ],
      [
        "Ġy",
        "ou"
      ],
      [
        "Ġt",
        "o"
      ],
      [
        "Ġo",
        "f"
      ],
      [
        "Ġa",
        "nd"
      ],
      [
        "o",
        "t"
      ],
      [
        "a",
        "n"
      ],
      [
        "ha",
        "t"
      ],
      [
        "s",
        "t"
      ],
      [
        "Ġ",
        "he"
      ],
      [
        "v",
        "e"
      ],
      [
        "in",
        "g"
      ],
      [
        "a",
        "t"
      ],
      [
        "o",
        "w"
      ],
      [
        "o",
        "m"
      ],
      [
        "Ġ",
        "g"
      ],
      [
        "e",
        "d"
      ],
      [
        "Ġ",
        "in"
      ],
      [
        "Ġb",
        "e"
      ],
      [
        "s",
        "e"
      ],
      [
        "c",
        "e"
      ],
      [
        "Ġ",
        "ha"
      ],
      [
        "Ċ",
        "Ċ"
      ],
      [
        "e",
        "t"
      ],
      [
        "Ġm",
        "y"
      ],
      [
        "l",
        "e"
      ],
      [
        "l",
        "d"
      ],
      [
        "i",
        "r"
      ],
      [
        "a",
        "y"
      ],
      [
        "u",
        "t"
      ],
      [
        "i",
        "m"
      ],
      [
        "it",
        "h"
      ],
      [
        "c",
        "h"
      ],
      [
        "Ġm",
        "e"
      ],
      [
        "Ġ",
        "T"
      ],
      [
        "g",
        "h"
      ],
      [
        "Ġn",
        "ot"
      ],
      [
        "Ġ",
        "A"
      ],
      [
        "Ġ",
        "e"
      ],
      [
        "Ġf",
        "or"
      ],
      [
        "Ġ",
        "is"
      ],
      [
        "i",
        "ll"
      ],
      [
        "Ġt",
        "hat"
      ],
      [
        "k",
        "e"
      ],
      [
        "ou",
        "r"
      ],
      [
        "a",
        "s"
      ],
      [
        "en",
        "t"
      ],
      [
        "o",
        "o"
      ],
      [
        "Ġ",
        "u"
      ],
      [
        "Ċ",
        "ĠĠĠĠ"
      ],
      [
        "Ġw",
        "ith"
      ],
      [
        "Ġ",
        "S"
      ],
      [
        "a",
        "d"
      ],
      [
        "r",
        "i"
      ],
      [
        "Ġw",
        "e"
      ],
      [
        "a",
        "l"
      ],
      [
        ".",
        "_"
      ],
      [
        "Ġ",
        "it"
      ],
      [
        "r",
        "a"
      ],
      [
        "Ġyou",
        "r"
      ],
      [
        "t",
        "er"
      ],
      [
        "he",
        "r"
      ],
      [
        "Ġs",
        "t"
      ],
      [
        "Ġh",
        "is"
      ],
      [
        "i",
        "d"
      ],
      [
        "l",
        "y"
      ],
      [
        "Ġ",
        "re"
      ],
      [
        "u",
        "r"
      ],
      [
        "gh",
        "t"
      ],
      [
        "Ġ",
        "on"
      ],
      [
        "Ġth",
        "is"
      ],
      [
        "Ġha",
        "ve"
      ],
      [
        "om",
        "e"
      ],
      [
        "Ġh",
        "im"
      ],
      [
        "Ġth",
        "ou"
      ],
      [
        "Ġ",
        "M"
      ],
      [
        "u",
        "s"
      ],
      [
        "v",
        "er"
      ],
      [
        "a",
        "m"
      ],
      [
        "A",
        "nd"
      ],
      [
        "Ġl",
        "i"
      ],
      [
        "or",
        "d"
      ],
      [
        "Ġ",
        "k"
      ],
      [
        "Ġ",
        "C"
      ],
      [
        "Ġa",
        "s"
      ],
      [
        "Ġ",
        "W"
      ],
      [
        "Ġ",
        "H"
      ],
      [
        "o",
        "re"
      ],
      [
        "Ċ",
        "Ġ"
      ],
      [
        "Ġ",
        "B"
      ],
      [
        "Ġs",
        "o"
      ],
      [
        "i",
        "on"
      ],
      [
        "a",
        "in"
      ],
      [
        "r",
        "o"
      ],
      [
        "ou",
        "ld"
      ],
      [
        "h",
        "i"
      ],
      [
        "Ġd",
        "e"
      ],
      [
        "Ċ",
        "ĠĠ"
      ],
      [
        "Ġd",
        "o"
      ],
      [
        "Ġs",
        "e"
      ],
      [
        "c",
        "k"
      ],
      [
        "Ġs",
        "ha"
      ],
      [
        "T",
        "he"
      ],
      [
        "Ġ",
        "F"
      ],
      [
        "oo",
        "d"
      ],
      [
        "Ġw",
        "ill"
      ],
      [
        "es",
        "t"
      ],
      [
        "a",
        "nd"
      ],
      [
        "Ġ",
        "P"
      ],
      [
        "E",
        "R"
      ],
      [
        "g",
        "e"
      ],
      [
        "es",
        "s"
      ],
      [
        "E",
        "N"
      ],
      [
        "n",
        "t"
      ],
      [
        "ĠĠĠĠ",
        "ĠĠĠĠ"
      ],
      [
        "e",
        "a"
      ],
      [
        "Ġhe",
        "r"
      ],
      [
        "Ġa",
        "ll"
      ],
      [
        "i",
        "l"
      ],
      [
        "t",
        "h"
      ],
      [
        "Ġa",
        "n"
      ],
      [
        "c",
        "t"
      ],
      [
        "Ġs",
        "u"
      ],
      [
        "Ġb",
        "ut"
      ],
      [
        "I",
        "N"
      ],
      [
        "Ġ",
        "L"
      ],
      [
        "A",
        "N"
      ],
      [
        "r",
        "u"
      ],
      [
        "Ġn",
        "o"
      ],
      [
        "i",
        "f"
      ],
      [
        "e",
        "ll"
      ],
      [
        "U",
        "S"
      ],
      [
        "a",
        "ke"
      ],
      [
        "A",
        "R"
      ],
      [
        "Ġl",
        "o"
      ],
      [
        "a",
        "st"
      ],
      [
        "Ġ",
        "O"
      ],
      [
        "Ġth",
        "y"
      ],
      [
        "h",
        "o"
      ],
      [
        "Ġ",
        "E"
      ],
      [
        "Ġ",
        "v"
      ],
      [
        "Ġs",
        "p"
      ],
      [
        "Ġsha",
        "ll"
      ],
      [
        "Ġb",
        "y"
      ],
      [
        "Ġn",
        "e"
      ],
      [
        "Ġ",
        "G"
      ],
      [
        "Ġa",
        "re"
      ],
      [
        "Ġk",
        "n"
      ],
      [
        "Ġ",
        "D"
      ],
      [
        "i",
        "ght"
      ],
      [
        "[",
        "_"
      ],
      [
        "Ġf",
        "a"
      ],
      [
        "r",
        "om"
      ],
      [
        "ar",
        "t"
      ],
      [
        "ar",
        "d"
      ],
      [
        "i",
        "c"
      ],
      [
        "Ġthe",
        "e"
      ],
      [
        "ha",
        "n"
      ],
      [
        "Ġa",
        "t"
      ],
      [
        "an",
        "t"
      ],
      [
        "in",
        "e"
      ],
      [
        "ou",
        "s"
      ],
      [
        "q",
        "u"
      ],
      [
        "Ġs",
        "h"
      ],
      [
        "E",
        "S"
      ],
      [
        "re",
        "s"
      ],
      [
        "O",
        "R"
      ],
      [
        "e",
        "ar"
      ],
      [
        "O",
        "N"
      ],
      [
        "Ġ",
        "our"
      ],
      [
        "u",
        "st"
      ],
      [
        "Ġm",
        "an"
      ],
      [
        "i",
        "e"
      ],
      [
        "er",
        "s"
      ],
      [
        "ĠT",
        "he"
      ],
      [
        "ou",
        "t"
      ],
      [
        "Ġu",
        "p"
      ],
      [
        "on",
        "e"
      ],
      [
        "Ġc",
        "on"
      ],
      [
        "ĊĊ",
        "ĠĠĠĠ"
      ],
      [
        "Ġc",
        "om"
      ],
      [
        "Ġa",
        "m"
      ],
      [
        "e",
        "m"
      ],
      [
        "Ġg",
        "o"
      ],
      [
        "ĊĊ",
        "Ġ"
      ],
      [
        "Ġw",
        "he"
      ],
      [
        "a",
        "ll"
      ],
      [
        "f",
        "e"
      ],
      [
        "i",
        "ve"
      ],
      [
        "T",
        "o"
      ],
      [
        "Ġl",
        "ord"
      ],
      [
        "-",
        "-"
      ],
      [
        "u",
        "l"
      ],
      [
        "Ġ",
        "or"
      ],
      [
        "o",
        "l"
      ],
      [
        "hi",
        "ch"
      ],
      [
        "on",
        "g"
      ],
      [
        "se",
        "l"
      ],
      [
        "e",
        "l"
      ],
      [
        "ĠA",
        "nd"
      ],
      [
        "Ġw",
        "as"
      ],
      [
        "in",
        "d"
      ],
      [
        "Ġs",
        "ir"
      ],
      [
        "r",
        "y"
      ],
      [
        "Ġf",
        "rom"
      ],
      [
        "O",
        "L"
      ],
      [
        "S",
        "T"
      ],
      [
        "p",
        "p"
      ],
      [
        "Ġw",
        "hat"
      ],
      [
        "Ġg",
        "ood"
      ],
      [
        "b",
        "le"
      ],
      [
        "._",
        "]"
      ],
      [
        "Ġn",
        "ow"
      ],
      [
        "e",
        "nd"
      ],
      [
        "Ġ",
        "N"
      ],
      [
        "ĊĊ",
        "ĠĠ"
      ],
      [
        "Ġs",
        "he"
      ],
      [
        "v",
        "en"
      ],
      [
        "r",
        "ow"
      ],
      [
        "Ġthe",
        "m"
      ],
      [
        "Ġ",
        "R"
      ],
      [
        "n",
        "ter"
      ],
      [
        "l",
        "a"
      ],
      [
        "ot",
        "h"
      ],
      [
        "Ġp",
        "r"
      ],
      [
        "or",
        "t"
      ],
      [
        "at",
        "e"
      ],
      [
        "Ġkn",
        "ow"
      ],
      [
        "h",
        "y"
      ],
      [
        "Ġw",
        "ould"
      ],
      [
        "Ġs",
        "w"
      ],
      [
        "u",
        "re"
      ],
      [
        "Ġm",
        "ore"
      ],
      [
        "Ġthe",
        "ir"
      ],
      [
        "o",
        "d"
      ],
      [
        "T",
        "hat"
      ],
      [
        "Ġthe",
        "y"
      ],
      [
        "i",
        "g"
      ],
      [
        "Ġc",
        "an"
      ],
      [
        "Ġw",
        "or"
      ],
      [
        "re",
        "at"
      ],
      [
        "Ġa",
        "r"
      ],
      [
        "Ġlo",
        "ve"
      ],
      [
        "u",
        "m"
      ],
      [
        "Ġthe",
        "re"
      ],
      [
        "e",
        "p"
      ],
      [
        "A",
        "L"
      ],
      [
        "o",
        "st"
      ],
      [
        "u",
        "n"
      ],
      [
        "am",
        "e"
      ],
      [
        "e",
        "re"
      ],
      [
        "u",
        "e"
      ],
      [
        "in",
        "k"
      ],
      [
        "Ġ",
        "if"
      ],
      [
        "Ġhe",
        "re"
      ],
      [
        "E",
        "x"
      ],
      [
        "is",
        "h"
      ],
      [
        "Ġu",
        "s"
      ],
      [
        "n",
        "ot"
      ],
      [
        "is",
        "t"
      ],
      [
        "Ġb",
        "l"
      ],
      [
        "Ġl",
        "et"
      ],
      [
        "ĊĠĠ",
        "Ġ"
      ],
      [
        "T",
        "h"
      ],
      [
        "Ġt",
        "han"
      ],
      [
        "Ġ",
        "Y"
      ],
      [
        "Ġ",
        "hat"
      ],
      [
        "a",
        "k"
      ],
      [
        "Ġ",
        "J"
      ],
      [
        "a",
        "u"
      ],
      [
        "a",
        "re"
      ],
      [
        "Ġse",
        "e"
      ],
      [
        "Ġ",
        "âĢĻ"
      ],
      [
        "'",
        "s"
      ],
      [
        "sel",
        "f"
      ],
      [
        "Ġon",
        "e"
      ],
      [
        "E",
        "L"
      ],
      [
        "Ġ",
        "["
      ],
      [
        "r",
        "an"
      ],
      [
        "at",
        "h"
      ],
      [
        "v",
        "es"
      ],
      [
        "Ġli",
        "ke"
      ],
      [
        ".",
        "]"
      ],
      [
        "ou",
        "nd"
      ],
      [
        "Ġthe",
        "n"
      ],
      [
        "oo",
        "k"
      ],
      [
        "Ġ",
        "j"
      ],
      [
        "T",
        "H"
      ],
      [
        "n",
        "g"
      ],
      [
        "at",
        "her"
      ],
      [
        "f",
        "ore"
      ],
      [
        "âĢ",
        "Ķ"
      ],
      [
        "Ġs",
        "ay"
      ],
      [
        "C",
        "H"
      ],
      [
        "Ġm",
        "ay"
      ],
      [
        "I",
        "O"
      ],
      [
        "Ġc",
        "ome"
      ],
      [
        "Ġwe",
        "ll"
      ],
      [
        "Ġw",
        "hich"
      ],
      [
        "B",
        "ut"
      ],
      [
        "Ġm",
        "ad"
      ],
      [
        "Ġm",
        "ake"
      ],
      [
        "p",
        "t"
      ],
      [
        "t",
        "o"
      ],
      [
        "Ġ",
        "K"
      ],
      [
        "ot",
        "her"
      ],
      [
        "Ġsh",
        "ould"
      ],
      [
        "i",
        "ce"
      ],
      [
        "Ġp",
        "o"
      ],
      [
        "p",
        "e"
      ],
      [
        "'",
        "d"
      ],
      [
        "L",
        "E"
      ],
      [
        "Ġ",
        "out"
      ],
      [
        "it",
        "y"
      ],
      [
        "i",
        "es"
      ],
      [
        "IN",
        "G"
      ],
      [
        "Ġb",
        "r"
      ],
      [
        "Ġwe",
        "re"
      ],
      [
        "Ġha",
        "d"
      ],
      [
        "Ġs",
        "a"
      ],
      [
        "Ġm",
        "ust"
      ],
      [
        "Ġ",
        "\""
      ],
      [
        "Ġh",
        "o"
      ],
      [
        "A",
        "s"
      ],
      [
        "A",
        "M"
      ],
      [
        "Ġe",
        "x"
      ],
      [
        "g",
        "ain"
      ],
      [
        "Ġp",
        "ro"
      ],
      [
        "Ġup",
        "on"
      ],
      [
        "Ġ",
        "qu"
      ],
      [
        "Ġhat",
        "h"
      ],
      [
        "ver",
        "y"
      ],
      [
        "o",
        "nd"
      ],
      [
        "Ġu",
        "n"
      ],
      [
        "en",
        "ce"
      ],
      [
        "R",
        "O"
      ],
      [
        "Ġd",
        "id"
      ],
      [
        "Ġd",
        "is"
      ],
      [
        "W",
        "hat"
      ],
      [
        "Ġ",
        "[_"
      ],
      [
        "f",
        "f"
      ],
      [
        "Ġwhe",
        "n"
      ],
      [
        "I",
        "R"
      ],
      [
        "i",
        "re"
      ],
      [
        "or",
        "n"
      ],
      [
        "Ġ",
        "r"
      ],
      [
        "Ġto",
        "o"
      ],
      [
        "Ġ",
        "V"
      ],
      [
        "as",
        "s"
      ],
      [
        "Ġs",
        "ome"
      ],
      [
        "ĠT",
        "h"
      ],
      [
        "Ġp",
        "l"
      ],
      [
        "im",
        "e"
      ],
      [
        "t",
        "her"
      ],
      [
        "F",
        "or"
      ],
      [
        "I",
        "A"
      ],
      [
        "ea",
        "k"
      ],
      [
        "Ġsu",
        "ch"
      ],
      [
        "at",
        "ion"
      ],
      [
        "Ġha",
        "nd"
      ],
      [
        "ur",
        "n"
      ],
      [
        "Ġa",
        "l"
      ],
      [
        "Ġthe",
        "se"
      ],
      [
        "Ġt",
        "ru"
      ],
      [
        "Ġw",
        "ho"
      ],
      [
        "w",
        "n"
      ],
      [
        "a",
        "ge"
      ],
      [
        "Ġ",
        "en"
      ],
      [
        "ing",
        "s"
      ],
      [
        "C",
        "E"
      ],
      [
        "id",
        "e"
      ],
      [
        "u",
        "nt"
      ],
      [
        "Ġh",
        "on"
      ],
      [
        "o",
        "ot"
      ],
      [
        "Ġa",
        "b"
      ],
      [
        "ou",
        "gh"
      ],
      [
        "Ġa",
        "gain"
      ],
      [
        "is",
        "e"
      ],
      [
        "Ġy",
        "et"
      ],
      [
        "A",
        "T"
      ],
      [
        "on",
        "s"
      ],
      [
        "ow",
        "n"
      ],
      [
        "u",
        "ch"
      ],
      [
        "i",
        "ck"
      ],
      [
        "Ġ",
        "'"
      ],
      [
        "i",
        "o"
      ],
      [
        "o",
        "se"
      ],
      [
        "n",
        "ess"
      ],
      [
        "e",
        "et"
      ],
      [
        "d",
        "e"
      ],
      [
        "he",
        "re"
      ],
      [
        "Ġc",
        "ha"
      ],
      [
        "E",
        "nter"
      ],
      [
        "an",
        "ce"
      ],
      [
        "ig",
        "n"
      ],
      [
        "p",
        "er"
      ],
      [
        "ast",
        "er"
      ],
      [
        "Ġh",
        "ow"
      ],
      [
        "Ġ",
        "ro"
      ],
      [
        "Ġhe",
        "art"
      ],
      [
        "o",
        "s"
      ],
      [
        "c",
        "i"
      ],
      [
        "M",
        "y"
      ],
      [
        "A",
        "S"
      ],
      [
        "Ġth",
        "ink"
      ],
      [
        "ent",
        "le"
      ],
      [
        "L",
        "O"
      ],
      [
        "re",
        "e"
      ],
      [
        "Ġ",
        "ri"
      ],
      [
        "a",
        "g"
      ],
      [
        "ad",
        "y"
      ],
      [
        "ĠĠĠĠĠĠĠĠ",
        "ĠĠĠĠĠĠĠĠ"
      ],
      [
        "o",
        "y"
      ],
      [
        "ĠB",
        "ut"
      ],
      [
        "Ġt",
        "w"
      ],
      [
        "res",
        "s"
      ],
      [
        "Ġf",
        "l"
      ],
      [
        "Ġsp",
        "eak"
      ],
      [
        "ĠW",
        "hat"
      ],
      [
        "he",
        "n"
      ],
      [
        "Ġg",
        "reat"
      ],
      [
        "w",
        "ay"
      ],
      [
        "Ġf",
        "ri"
      ],
      [
        "Ġm",
        "ine"
      ],
      [
        "Ġc",
        "o"
      ],
      [
        "u",
        "ll"
      ],
      [
        "Ġt",
        "ake"
      ],
      [
        "U",
        "R"
      ],
      [
        "m",
        "ent"
      ],
      [
        "Ġe",
        "y"
      ],
      [
        "Ġs",
        "c"
      ],
      [
        "Ġf",
        "ather"
      ],
      [
        "in",
        "ce"
      ],
      [
        "Ġp",
        "art"
      ],
      [
        "a",
        "b"
      ],
      [
        "I",
        "US"
      ],
      [
        "Ġm",
        "ar"
      ],
      [
        "I",
        "L"
      ],
      [
        "Y",
        "ou"
      ],
      [
        "Ġof",
        "f"
      ],
      [
        "Ġwhe",
        "re"
      ],
      [
        "H",
        "e"
      ],
      [
        "c",
        "he"
      ],
      [
        "Ġt",
        "ime"
      ],
      [
        "Ġl",
        "e"
      ],
      [
        "Ġm",
        "en"
      ],
      [
        "Ġg",
        "ra"
      ],
      [
        "Ġg",
        "ive"
      ],
      [
        "re",
        "d"
      ],
      [
        "a",
        "ve"
      ],
      [
        "b",
        "er"
      ],
      [
        "Ġ",
        "1"
      ],
      [
        "K",
        "ING"
      ],
      [
        "Ġli",
        "fe"
      ],
      [
        "Ġl",
        "ea"
      ],
      [
        "l",
        "i"
      ],
      [
        "L",
        "A"
      ],
      [
        "Ġo",
        "ther"
      ],
      [
        "u",
        "d"
      ],
      [
        "Ġt",
        "ell"
      ],
      [
        "it",
        "t"
      ],
      [
        "e",
        "unt"
      ],
      [
        "Ġm",
        "ost"
      ],
      [
        "ou",
        "nt"
      ],
      [
        "Ġw",
        "r"
      ],
      [
        "AR",
        "D"
      ],
      [
        "Ġhe",
        "a"
      ],
      [
        "Ġne",
        "ver"
      ],
      [
        "m",
        "an"
      ],
      [
        "it",
        "e"
      ],
      [
        "Ġm",
        "uch"
      ],
      [
        "i",
        "an"
      ],
      [
        "Ġe",
        "ar"
      ],
      [
        "f",
        "ul"
      ],
      [
        "Ġd",
        "ay"
      ],
      [
        "Ġan",
        "y"
      ],
      [
        "Ġl",
        "ook"
      ],
      [
        "AN",
        "T"
      ],
      [
        "I",
        "n"
      ],
      [
        "Ġar",
        "t"
      ],
      [
        "Ġg",
        "entle"
      ],
      [
        "Ġd",
        "es"
      ],
      [
        "Ġs",
        "er"
      ],
      [
        "a",
        "se"
      ],
      [
        "ES",
        "S"
      ],
      [
        "Ġfri",
        "end"
      ],
      [
        "e",
        "e"
      ],
      [
        "Ex",
        "it"
      ],
      [
        "ĠE",
        "nter"
      ],
      [
        "I",
        "f"
      ],
      [
        "ou",
        "l"
      ],
      [
        "it",
        "her"
      ],
      [
        "Ġbe",
        "t"
      ],
      [
        "ĠT",
        "o"
      ],
      [
        "I",
        "C"
      ],
      [
        "Ex",
        "eunt"
      ],
      [
        "Ġ",
        "("
      ],
      [
        "a",
        "p"
      ],
      [
        "c",
        "c"
      ],
      [
        "EN",
        "E"
      ],
      [
        "Ġw",
        "ord"
      ],
      [
        "ou",
        "se"
      ],
      [
        "Ġde",
        "ath"
      ],
      [
        "Ġhe",
        "ar"
      ],
      [
        "W",
        "ith"
      ],
      [
        "o",
        "ll"
      ],
      [
        "Ġw",
        "h"
      ],
      [
        "ĠK",
        "ing"
      ],
      [
        "Ġp",
        "er"
      ],
      [
        "Ġmad",
        "e"
      ],
      [
        "re",
        "n"
      ],
      [
        "ĠH",
        "e"
      ],
      [
        "t",
        "is"
      ],
      [
        "w",
        "ard"
      ],
      [
        "Ġbl",
        "ood"
      ],
      [
        "f",
        "t"
      ],
      [
        "Ġ",
        "ra"
      ],
      [
        "Ġa",
        "d"
      ],
      [
        "l",
        "es"
      ],
      [
        "not",
        "e"
      ],
      [
        "c",
        "es"
      ],
      [
        "i",
        "a"
      ],
      [
        "Ġ",
        "_"
      ],
      [
        "Ġw",
        "ar"
      ],
      [
        ".",
        "--"
      ],
      [
        "row",
        "n"
      ],
      [
        "Ġp",
        "re"
      ],
      [
        "oot",
        "note"
      ],
      [
        "I",
        "T"
      ],
      [
        "Ġcom",
        "m"
      ],
      [
        "F",
        "ootnote"
      ],
      [
        "Ġp",
        "le"
      ],
      [
        "Ġo",
        "wn"
      ],
      [
        "Ġa",
        "pp"
      ],
      [
        "Ġbe",
        "en"
      ],
      [
        "Ġhon",
        "our"
      ],
      [
        "i",
        "gh"
      ],
      [
        "I",
        "S"
      ],
      [
        "nd",
        "er"
      ],
      [
        "Ġ",
        "ru"
      ],
      [
        "ct",
        "ion"
      ],
      [
        "a",
        "ble"
      ],
      [
        "Ġk",
        "ing"
      ],
      [
        "o",
        "ve"
      ],
      [
        "t",
        "he"
      ],
      [
        "Ġsw",
        "eet"
      ],
      [
        "oo",
        "l"
      ],
      [
        "Ġc",
        "l"
      ],
      [
        "Ġc",
        "our"
      ],
      [
        "ir",
        "st"
      ],
      [
        "en",
        "e"
      ],
      [
        "Ġfa",
        "ir"
      ],
      [
        "ĠS",
        "o"
      ],
      [
        "Ġc",
        "all"
      ],
      [
        "ĠY",
        "ou"
      ],
      [
        "a",
        "ck"
      ],
      [
        "E",
        "T"
      ],
      [
        "s",
        "s"
      ],
      [
        "h",
        "ing"
      ],
      [
        "Ġ",
        "ke"
      ],
      [
        "O",
        "f"
      ],
      [
        "R",
        "I"
      ],
      [
        "ĠT",
        "hat"
      ],
      [
        "Ġf",
        "ear"
      ],
      [
        "k",
        "s"
      ],
      [
        "Ġt",
        "r"
      ],
      [
        "u",
        "ke"
      ],
      [
        "âĢ",
        "Ŀ"
      ],
      [
        "B",
        "e"
      ],
      [
        "Ġpr",
        "ay"
      ],
      [
        "âĢ",
        "ľ"
      ],
      [
        "n",
        "e"
      ],
      [
        "H",
        "ow"
      ],
      [
        "S",
        "o"
      ],
      [
        "v",
        "ing"
      ],
      [
        "Ġhea",
        "ven"
      ],
      [
        "g",
        "er"
      ],
      [
        "A",
        "C"
      ],
      [
        "Ġ",
        "very"
      ],
      [
        "Ġcom",
        "p"
      ],
      [
        "W",
        "hy"
      ],
      [
        "Ġ",
        "im"
      ],
      [
        "Ġwor",
        "ld"
      ],
      [
        "Ġtru",
        "e"
      ],
      [
        "er",
        "t"
      ],
      [
        "Ġs",
        "on"
      ],
      [
        "a",
        "w"
      ],
      [
        "C",
        "ENE"
      ],
      [
        "Ġme",
        "an"
      ],
      [
        "Ġa",
        "f"
      ],
      [
        "Ġtw",
        "o"
      ],
      [
        "p",
        "s"
      ],
      [
        "Ġp",
        "res"
      ],
      [
        "Ġd",
        "own"
      ],
      [
        "om",
        "an"
      ],
      [
        "Ġo",
        "ld"
      ],
      [
        "F",
        "F"
      ],
      [
        "AN",
        "D"
      ],
      [
        "l",
        "and"
      ],
      [
        "t",
        "y"
      ],
      [
        "Ġd",
        "one"
      ],
      [
        "Ġth",
        "us"
      ],
      [
        "Th",
        "is"
      ],
      [
        "Ġd",
        "oth"
      ],
      [
        "e",
        "w"
      ],
      [
        "Ġin",
        "to"
      ],
      [
        "P",
        "H"
      ],
      [
        "ĠG",
        "od"
      ],
      [
        "Ġcan",
        "not"
      ],
      [
        "S",
        "E"
      ],
      [
        "N",
        "o"
      ],
      [
        "Ġar",
        "m"
      ],
      [
        "Ġa",
        "way"
      ],
      [
        "Ġhe",
        "ad"
      ],
      [
        "Ġcon",
        "t"
      ],
      [
        "Ġp",
        "la"
      ],
      [
        "or",
        "s"
      ],
      [
        "i",
        "er"
      ],
      [
        "Ġha",
        "st"
      ],
      [
        ".",
        "\""
      ],
      [
        "if",
        "e"
      ],
      [
        "Ġn",
        "ame"
      ],
      [
        "Ġb",
        "re"
      ],
      [
        "EN",
        "T"
      ],
      [
        "Ġm",
        "ight"
      ],
      [
        "Ġl",
        "ong"
      ],
      [
        "T",
        "is"
      ],
      [
        "i",
        "us"
      ],
      [
        "b",
        "l"
      ],
      [
        "ha",
        "ll"
      ],
      [
        "i",
        "ous"
      ],
      [
        "Ġn",
        "ight"
      ],
      [
        "Ġw",
        "it"
      ],
      [
        "Ġst",
        "and"
      ],
      [
        "Ġs",
        "oul"
      ],
      [
        "ĠĠ",
        "Ġ"
      ],
      [
        "ĠL",
        "ord"
      ],
      [
        "W",
        "hich"
      ],
      [
        "au",
        "se"
      ],
      [
        "Ġe",
        "ver"
      ],
      [
        "Ġbe",
        "fore"
      ],
      [
        "ĠI",
        "I"
      ],
      [
        "au",
        "gh"
      ],
      [
        "ain",
        "t"
      ],
      [
        "or",
        "row"
      ],
      [
        "Ġpl",
        "ay"
      ],
      [
        "ow",
        "er"
      ],
      [
        "Ġbr",
        "other"
      ],
      [
        "Ġn",
        "or"
      ],
      [
        "U",
        "C"
      ],
      [
        "Ġw",
        "ay"
      ],
      [
        "O",
        "r"
      ],
      [
        "Ġh",
        "ouse"
      ],
      [
        "I",
        "t"
      ],
      [
        "m",
        "en"
      ],
      [
        "W",
        "ho"
      ],
      [
        "f",
        "or"
      ],
      [
        "S",
        "CENE"
      ],
      [
        "o",
        "ck"
      ],
      [
        "Ġha",
        "r"
      ],
      [
        "Ġey",
        "es"
      ],
      [
        "E",
        "D"
      ],
      [
        "a",
        "ch"
      ],
      [
        "A",
        "B"
      ],
      [
        "l",
        "ess"
      ],
      [
        "is",
        "s"
      ],
      [
        "ĠF",
        "or"
      ],
      [
        "Ġ",
        "i"
      ],
      [
        "e",
        "en"
      ],
      [
        "Ġlea",
        "ve"
      ],
      [
        "Ġne",
        "w"
      ],
      [
        "ear",
        "s"
      ],
      [
        "IR",
        "ST"
      ],
      [
        "c",
        "y"
      ],
      [
        "Ġf",
        "irst"
      ],
      [
        "Ġbe",
        "ar"
      ],
      [
        "Ġe",
        "nd"
      ],
      [
        "Ġ",
        "ent"
      ],
      [
        "ou",
        "ght"
      ],
      [
        "Ġbe",
        "g"
      ],
      [
        "nt",
        "o"
      ],
      [
        "Ġb",
        "oth"
      ],
      [
        "I",
        "s"
      ],
      [
        "Ġli",
        "ve"
      ],
      [
        "v",
        "il"
      ],
      [
        "Ġc",
        "ould"
      ],
      [
        "Ġp",
        "ur"
      ],
      [
        "Ġg",
        "l"
      ],
      [
        "Ġf",
        "oll"
      ],
      [
        "Q",
        "U"
      ],
      [
        "Ġthou",
        "ght"
      ],
      [
        "W",
        "e"
      ],
      [
        "un",
        "e"
      ],
      [
        "Ġb",
        "est"
      ],
      [
        "m",
        "e"
      ],
      [
        "ĠM",
        "y"
      ],
      [
        "Th",
        "ou"
      ],
      [
        "on",
        "t"
      ],
      [
        "p",
        "le"
      ],
      [
        "Ġha",
        "s"
      ],
      [
        "Ġre",
        "m"
      ],
      [
        "at",
        "ter"
      ],
      [
        "ĠI",
        "f"
      ],
      [
        "ow",
        "s"
      ],
      [
        "in",
        "t"
      ],
      [
        "I",
        "M"
      ],
      [
        "Ġb",
        "ra"
      ],
      [
        "Ġf",
        "ool"
      ],
      [
        "Ġke",
        "ep"
      ],
      [
        "E",
        "M"
      ],
      [
        "Ġs",
        "m"
      ],
      [
        "Ġman",
        "y"
      ],
      [
        "Ġth",
        "ose"
      ],
      [
        "Ġm",
        "aster"
      ],
      [
        "Ġpo",
        "or"
      ],
      [
        "o",
        "ld"
      ],
      [
        "en",
        "s"
      ],
      [
        "ak",
        "es"
      ],
      [
        "b",
        "e"
      ],
      [
        "a",
        "id"
      ],
      [
        "i",
        "ed"
      ],
      [
        "m",
        "p"
      ],
      [
        "Ġ",
        "âĢľ"
      ],
      [
        "Ġde",
        "ad"
      ],
      [
        "re",
        "t"
      ],
      [
        "O",
        "S"
      ],
      [
        "c",
        "ome"
      ],
      [
        "in",
        "s"
      ],
      [
        "Ġcom",
        "es"
      ],
      [
        "hi",
        "p"
      ],
      [
        "Ġno",
        "ble"
      ],
      [
        "B",
        "y"
      ],
      [
        "itt",
        "le"
      ],
      [
        "w",
        "ell"
      ],
      [
        "it",
        "s"
      ],
      [
        "ĠF",
        "A"
      ],
      [
        "Ġf",
        "ind"
      ],
      [
        "Ġre",
        "p"
      ],
      [
        "Ġbe",
        "ing"
      ],
      [
        "ri",
        "e"
      ],
      [
        "Ġcour",
        "t"
      ],
      [
        "Ġm",
        "er"
      ],
      [
        "Ġl",
        "ady"
      ],
      [
        "The",
        "re"
      ],
      [
        "Ġd",
        "ra"
      ],
      [
        "ĠTh",
        "is"
      ],
      [
        "Ġst",
        "ill"
      ],
      [
        "ĠO",
        "F"
      ],
      [
        "W",
        "here"
      ],
      [
        "F",
        "IRST"
      ],
      [
        "ĠĠĠĠ",
        "Ġ"
      ],
      [
        "et",
        "h"
      ],
      [
        "c",
        "ene"
      ],
      [
        "Ġt",
        "ra"
      ],
      [
        "Ġnot",
        "hing"
      ],
      [
        "Ġe",
        "very"
      ],
      [
        "W",
        "hen"
      ],
      [
        "Ġw",
        "ife"
      ],
      [
        "IN",
        "E"
      ],
      [
        "Ġt",
        "ri"
      ],
      [
        "Ġbet",
        "ter"
      ],
      [
        "C",
        "ON"
      ],
      [
        "ar",
        "k"
      ],
      [
        "Ġp",
        "ri"
      ],
      [
        "s",
        "w"
      ],
      [
        "ĠH",
        "ow"
      ],
      [
        "I",
        "D"
      ],
      [
        "ct",
        "or"
      ],
      [
        "ĠS",
        "ir"
      ],
      [
        "ist",
        "ress"
      ],
      [
        "Ġs",
        "et"
      ],
      [
        "Ġf",
        "ell"
      ],
      [
        "Ġp",
        "ut"
      ],
      [
        "at",
        "ch"
      ],
      [
        "ea",
        "ce"
      ],
      [
        "Ġl",
        "ittle"
      ],
      [
        "a",
        "il"
      ],
      [
        "n",
        "ce"
      ],
      [
        "ĠI",
        "s"
      ],
      [
        "ĠI",
        "t"
      ],
      [
        "ed",
        "s"
      ],
      [
        "ĠP",
        "r"
      ],
      [
        "ĠN",
        "o"
      ],
      [
        "U",
        "N"
      ],
      [
        "t",
        "end"
      ],
      [
        "U",
        "L"
      ],
      [
        "Ġt",
        "urn"
      ],
      [
        "ou",
        "d"
      ],
      [
        "ar",
        "y"
      ],
      [
        "ĠI",
        "n"
      ],
      [
        "Ġyou",
        "ng"
      ],
      [
        "ĠW",
        "hy"
      ],
      [
        "r",
        "ant"
      ],
      [
        "l",
        "t"
      ],
      [
        "Ġser",
        "v"
      ],
      [
        "Ġ",
        "4"
      ],
      [
        "Ġgo",
        "ld"
      ],
      [
        "Ġp",
        "ass"
      ],
      [
        "K",
        "E"
      ],
      [
        "L",
        "et"
      ],
      [
        "Ġf",
        "e"
      ],
      [
        "Ġc",
        "hi"
      ],
      [
        "is",
        "on"
      ],
      [
        "Ġre",
        "s"
      ],
      [
        "a",
        "c"
      ],
      [
        "ha",
        "r"
      ],
      [
        "C",
        "ome"
      ],
      [
        "ir",
        "t"
      ],
      [
        "al",
        "k"
      ],
      [
        "augh",
        "ter"
      ],
      [
        "Ġli",
        "e"
      ],
      [
        "ĠD",
        "uke"
      ],
      [
        "ar",
        "ry"
      ],
      [
        "Ġmy",
        "self"
      ],
      [
        "u",
        "ck"
      ],
      [
        "Ġd",
        "ie"
      ],
      [
        "Ġcon",
        "f"
      ],
      [
        "Ġg",
        "i"
      ],
      [
        "ĠB",
        "e"
      ],
      [
        "ĠE",
        "ng"
      ],
      [
        "ie",
        "ld"
      ],
      [
        "Ġc",
        "ur"
      ],
      [
        "Ġcon",
        "s"
      ],
      [
        "ut",
        "h"
      ],
      [
        "Ġfa",
        "ll"
      ],
      [
        ",",
        "\""
      ],
      [
        "Ġu",
        "nder"
      ],
      [
        "Ġk",
        "ind"
      ],
      [
        "il",
        "t"
      ],
      [
        "R",
        "U"
      ],
      [
        "b",
        "t"
      ],
      [
        "Ġre",
        "st"
      ],
      [
        "OR",
        "D"
      ],
      [
        "Ġpres",
        "ent"
      ],
      [
        "Ġfriend",
        "s"
      ],
      [
        "Ġpla",
        "ce"
      ],
      [
        "I",
        "ST"
      ],
      [
        "our",
        "s"
      ],
      [
        "D",
        "U"
      ],
      [
        "Ġe",
        "l"
      ],
      [
        "it",
        "ion"
      ],
      [
        "g",
        "et"
      ],
      [
        "i",
        "x"
      ],
      [
        "Ġg",
        "one"
      ],
      [
        "Ġc",
        "he"
      ],
      [
        "ul",
        "t"
      ],
      [
        "A",
        "y"
      ],
      [
        "Ġst",
        "ay"
      ],
      [
        "Ġhim",
        "self"
      ],
      [
        "ar",
        "s"
      ],
      [
        "Ġho",
        "ld"
      ],
      [
        "v",
        "o"
      ],
      [
        "N",
        "ow"
      ],
      [
        "or",
        "se"
      ],
      [
        "Ġwor",
        "th"
      ],
      [
        "Ġn",
        "one"
      ],
      [
        "et",
        "s"
      ],
      [
        "i",
        "le"
      ],
      [
        "l",
        "ed"
      ],
      [
        "Ġab",
        "out"
      ],
      [
        "Ġc",
        "rown"
      ],
      [
        "l",
        "f"
      ],
      [
        "ĠT",
        "H"
      ],
      [
        "Ġfor",
        "t"
      ],
      [
        "as",
        "on"
      ],
      [
        "Ġlord",
        "s"
      ],
      [
        "'",
        "ll"
      ],
      [
        "O",
        "M"
      ],
      [
        "a",
        "le"
      ],
      [
        "Ġn",
        "at"
      ],
      [
        "ĠC",
        "ome"
      ],
      [
        "Ġaf",
        "ter"
      ],
      [
        "Y",
        "our"
      ],
      [
        "Ġw",
        "oman"
      ],
      [
        "Ġf",
        "ull"
      ],
      [
        "ĠA",
        "N"
      ],
      [
        "Ġg",
        "u"
      ],
      [
        "ĠE",
        "d"
      ],
      [
        "D",
        "o"
      ],
      [
        "a",
        "ce"
      ],
      [
        "he",
        "d"
      ],
      [
        "Ġc",
        "han"
      ],
      [
        "Ġagain",
        "st"
      ],
      [
        "d",
        "s"
      ],
      [
        "ant",
        "s"
      ],
      [
        "O",
        "B"
      ],
      [
        "Ġs",
        "le"
      ],
      [
        "A",
        "G"
      ],
      [
        "Ġfoll",
        "ow"
      ],
      [
        "Ġc",
        "h"
      ],
      [
        "Ġfa",
        "ce"
      ],
      [
        "ran",
        "ce"
      ],
      [
        "Ġh",
        "um"
      ],
      [
        "ĠĠĠĠĠĠĠĠ",
        "ĠĠĠĠ"
      ],
      [
        "in",
        "ess"
      ],
      [
        "Ġc",
        "ount"
      ],
      [
        "Ġsp",
        "ir"
      ],
      [
        "g",
        "ed"
      ],
      [
        "p",
        "h"
      ],
      [
        "Ġsw",
        "ord"
      ],
      [
        "Ġm",
        "ind"
      ],
      [
        "Ġho",
        "pe"
      ],
      [
        "_",
        ".]"
      ],
      [
        "or",
        "y"
      ],
      [
        "Ġd",
        "i"
      ],
      [
        "Ġbr",
        "ing"
      ],
      [
        "Ġcha",
        "r"
      ],
      [
        "Ġa",
        "cc"
      ],
      [
        "l",
        "ain"
      ],
      [
        "Ġim",
        "p"
      ],
      [
        "Ġo",
        "ver"
      ],
      [
        "Ġu",
        "nto"
      ],
      [
        "Ġd",
        "aughter"
      ],
      [
        "ur",
        "d"
      ],
      [
        "ĠC",
        "a"
      ],
      [
        "ĠS",
        "t"
      ],
      [
        "Ġthou",
        "gh"
      ],
      [
        "Ġth",
        "ine"
      ],
      [
        "ĠL",
        "et"
      ],
      [
        "Ġde",
        "ar"
      ],
      [
        "ert",
        "ain"
      ],
      [
        "Ġt",
        "ong"
      ],
      [
        "ĠA",
        "nt"
      ],
      [
        "Ġb",
        "od"
      ],
      [
        "Ġword",
        "s"
      ],
      [
        "H",
        "ere"
      ],
      [
        "Ġt",
        "ill"
      ],
      [
        "Ġsh",
        "ow"
      ],
      [
        "Ġbe",
        "l"
      ],
      [
        "I",
        "AN"
      ],
      [
        "c",
        "l"
      ],
      [
        "CON",
        "D"
      ],
      [
        "ĠA",
        "s"
      ],
      [
        "s",
        "and"
      ],
      [
        "ere",
        "d"
      ],
      [
        "Ġel",
        "se"
      ],
      [
        "ce",
        "ive"
      ],
      [
        "b",
        "and"
      ],
      [
        "Ġth",
        "r"
      ],
      [
        "Ġe",
        "m"
      ],
      [
        "est",
        "y"
      ],
      [
        "IC",
        "K"
      ],
      [
        "Ġh",
        "us"
      ],
      [
        "Ġt",
        "re"
      ],
      [
        "Ġb",
        "oy"
      ],
      [
        "Ġple",
        "as"
      ],
      [
        "C",
        "A"
      ],
      [
        "o",
        "f"
      ],
      [
        "ĠN",
        "ow"
      ],
      [
        "is",
        "ter"
      ],
      [
        "S",
        "t"
      ],
      [
        "The",
        "y"
      ],
      [
        "Ġsa",
        "id"
      ],
      [
        "ons",
        "on"
      ],
      [
        "Ġb",
        "ack"
      ],
      [
        "R",
        "E"
      ],
      [
        "t",
        "w"
      ],
      [
        "hi",
        "le"
      ],
      [
        "R",
        "Y"
      ],
      [
        "Ġg",
        "rie"
      ],
      [
        "Ġon",
        "ce"
      ],
      [
        "ut",
        "y"
      ],
      [
        "Ġre",
        "t"
      ],
      [
        "ĠFA",
        "CE"
      ],
      [
        "As",
        "ide"
      ],
      [
        "Ġse",
        "em"
      ],
      [
        "The",
        "n"
      ],
      [
        "e",
        "ct"
      ],
      [
        "Ġfor",
        "th"
      ],
      [
        "Ġas",
        "s"
      ],
      [
        "Ġey",
        "e"
      ],
      [
        "b",
        "s"
      ],
      [
        "Ġm",
        "on"
      ],
      [
        "Ġso",
        "ld"
      ],
      [
        "ĠA",
        "n"
      ],
      [
        "Ġst",
        "re"
      ],
      [
        "Ġst",
        "ran"
      ],
      [
        "U",
        "B"
      ],
      [
        "ve",
        "d"
      ],
      [
        "Ġse",
        "c"
      ],
      [
        "Ġth",
        "ree"
      ],
      [
        "ill",
        "ain"
      ],
      [
        "Ġan",
        "other"
      ],
      [
        "Ġdis",
        "c"
      ],
      [
        "ĠR",
        "ome"
      ],
      [
        "a",
        "ir"
      ],
      [
        "Ġc",
        "ou"
      ],
      [
        "at",
        "i"
      ],
      [
        "ri",
        "ed"
      ],
      [
        "Ġri",
        "ght"
      ],
      [
        "S",
        "he"
      ],
      [
        "ur",
        "y"
      ],
      [
        "ion",
        "s"
      ],
      [
        "ĠThe",
        "re"
      ],
      [
        "Ġwho",
        "se"
      ],
      [
        "a",
        "v"
      ],
      [
        "ĊĊ",
        "ĊĊ"
      ],
      [
        "Ġfa",
        "ith"
      ],
      [
        "RO",
        "S"
      ],
      [
        "an",
        "y"
      ],
      [
        "e",
        "al"
      ],
      [
        "p",
        "on"
      ],
      [
        "Ġgra",
        "ce"
      ],
      [
        "Ġchi",
        "ld"
      ],
      [
        "g",
        "u"
      ],
      [
        "Ġm",
        "is"
      ],
      [
        "Ġh",
        "igh"
      ],
      [
        "fe",
        "ct"
      ],
      [
        "Ġme",
        "et"
      ],
      [
        "Ġhus",
        "band"
      ],
      [
        "A",
        "FF"
      ],
      [
        "Ġb",
        "u"
      ],
      [
        "CH",
        "ARD"
      ],
      [
        "QU",
        "E"
      ],
      [
        "r",
        "ing"
      ],
      [
        "Ġp",
        "eace"
      ],
      [
        "ut",
        "e"
      ],
      [
        "Ġon",
        "ly"
      ],
      [
        "Ġear",
        "th"
      ],
      [
        "H",
        "AM"
      ],
      [
        "T",
        "US"
      ],
      [
        "T",
        "han"
      ],
      [
        "Ġli",
        "ght"
      ],
      [
        "Ġm",
        "atter"
      ],
      [
        "Ġhand",
        "s"
      ],
      [
        "che",
        "s"
      ],
      [
        "Ġd",
        "ou"
      ],
      [
        "LO",
        "W"
      ],
      [
        "Ġwr",
        "ong"
      ],
      [
        "Ġp",
        "e"
      ],
      [
        "ĠD",
        "o"
      ],
      [
        "Ġp",
        "ers"
      ],
      [
        "pe",
        "ct"
      ],
      [
        "Ġs",
        "ame"
      ],
      [
        "Ġsu",
        "re"
      ],
      [
        "i",
        "p"
      ],
      [
        "m",
        "s"
      ],
      [
        "p",
        "en"
      ],
      [
        "Ġthou",
        "sand"
      ],
      [
        "Ġde",
        "vil"
      ],
      [
        "H",
        "is"
      ],
      [
        "n",
        "ing"
      ],
      [
        "Ġth",
        "ing"
      ],
      [
        "at",
        "er"
      ],
      [
        "Ġan",
        "sw"
      ],
      [
        "Ġhe",
        "nce"
      ],
      [
        "im",
        "es"
      ],
      [
        "QUE",
        "EN"
      ],
      [
        "Ġp",
        "ower"
      ],
      [
        "Ġm",
        "other"
      ],
      [
        "Ġu",
        "se"
      ],
      [
        "N",
        "ot"
      ],
      [
        "es",
        "ar"
      ],
      [
        "Ġhe",
        "l"
      ],
      [
        "LE",
        "T"
      ],
      [
        "Ġwh",
        "om"
      ],
      [
        "Ġsu",
        "b"
      ],
      [
        "Ġgentle",
        "man"
      ],
      [
        "om",
        "et"
      ],
      [
        "i",
        "ld"
      ],
      [
        "ĠW",
        "e"
      ],
      [
        "L",
        "ES"
      ],
      [
        "Ġe",
        "ven"
      ],
      [
        ".\"",
        "]"
      ],
      [
        "T",
        "ER"
      ],
      [
        "W",
        "ell"
      ],
      [
        "Ġl",
        "ast"
      ],
      [
        "S",
        "ir"
      ],
      [
        "Ġwith",
        "in"
      ],
      [
        "Ġple",
        "ase"
      ],
      [
        "Ġs",
        "ent"
      ],
      [
        "ST",
        "AFF"
      ],
      [
        "SE",
        "COND"
      ],
      [
        "l",
        "et"
      ],
      [
        "ĠJ",
        "onson"
      ],
      [
        "Ġl",
        "aw"
      ],
      [
        "ver",
        "s"
      ],
      [
        "Ġk",
        "ill"
      ],
      [
        "Ġst",
        "ate"
      ],
      [
        "Ġha",
        "pp"
      ],
      [
        "r",
        "ay"
      ],
      [
        "F",
        "AL"
      ],
      [
        "Ġ",
        "8"
      ],
      [
        "A",
        "D"
      ],
      [
        "ad",
        "e"
      ],
      [
        "Ġin",
        "de"
      ],
      [
        "Ġsha",
        "lt"
      ],
      [
        "at",
        "es"
      ],
      [
        "Ġha",
        "ng"
      ],
      [
        "Ġst",
        "ri"
      ],
      [
        "Ġthere",
        "fore"
      ],
      [
        "ee",
        "ch"
      ],
      [
        "Ġ",
        "Q"
      ],
      [
        "ĠA",
        "t"
      ],
      [
        "g",
        "ue"
      ],
      [
        "ra",
        "ce"
      ],
      [
        "ĠO",
        "r"
      ],
      [
        "Ġd",
        "re"
      ],
      [
        "Ġhe",
        "ard"
      ],
      [
        "FAL",
        "STAFF"
      ],
      [
        "Ġc",
        "are"
      ],
      [
        "sel",
        "ves"
      ],
      [
        "Ġtong",
        "ue"
      ],
      [
        "on",
        "y"
      ],
      [
        "Ġf",
        "ar"
      ],
      [
        "Ġg",
        "r"
      ],
      [
        "Ġlet",
        "ter"
      ],
      [
        "ĠW",
        "here"
      ],
      [
        "ĠH",
        "ere"
      ],
      [
        "M",
        "AN"
      ],
      [
        "one",
        "y"
      ],
      [
        "Ġinde",
        "ed"
      ],
      [
        "o",
        "p"
      ],
      [
        "Ġc",
        "ause"
      ],
      [
        "Ġh",
        "ome"
      ],
      [
        "DU",
        "KE"
      ],
      [
        "Ġb",
        "es"
      ],
      [
        "el",
        "s"
      ],
      [
        "AS",
        "S"
      ],
      [
        "la",
        "ck"
      ],
      [
        "c",
        "ed"
      ],
      [
        "u",
        "ff"
      ],
      [
        "ĠM",
        "ar"
      ],
      [
        "P",
        "ER"
      ],
      [
        "i",
        "ly"
      ],
      [
        "ĠW",
        "ith"
      ],
      [
        "Ġj",
        "ust"
      ],
      [
        "ĠTh",
        "ou"
      ],
      [
        "ent",
        "s"
      ],
      [
        "G",
        "ood"
      ],
      [
        "c",
        "om"
      ],
      [
        ".",
        "âĢĶ"
      ],
      [
        "Ġm",
        "akes"
      ],
      [
        "N",
        "ay"
      ],
      [
        "Ġb",
        "id"
      ],
      [
        "Ġb",
        "reat"
      ],
      [
        "Ġf",
        "al"
      ],
      [
        "Ġv",
        "illain"
      ],
      [
        "Ġbe",
        "a"
      ],
      [
        "ĠF",
        "rance"
      ],
      [
        "all",
        "y"
      ],
      [
        "Ġbod",
        "y"
      ],
      [
        "a",
        "j"
      ],
      [
        "Ġ",
        "2"
      ],
      [
        "ĠW",
        "ho"
      ],
      [
        "ĠThe",
        "n"
      ],
      [
        "Ġp",
        "ra"
      ],
      [
        "R",
        "ESS"
      ],
      [
        "Ġfell",
        "ow"
      ],
      [
        "Ġthan",
        "k"
      ],
      [
        "Ġw",
        "hy"
      ],
      [
        "ĠA",
        "r"
      ],
      [
        "Ġdo",
        "es"
      ],
      [
        "Ġdo",
        "st"
      ],
      [
        "G",
        "O"
      ],
      [
        "O",
        "C"
      ],
      [
        "u",
        "se"
      ],
      [
        "Ġm",
        "o"
      ],
      [
        "Ġc",
        "ame"
      ],
      [
        "Ġv",
        "irt"
      ],
      [
        "Ġru",
        "n"
      ],
      [
        "Ġwith",
        "out"
      ],
      [
        "Ġw",
        "ind"
      ],
      [
        "Ġs",
        "ince"
      ],
      [
        "Ġh",
        "orse"
      ],
      [
        "i",
        "ers"
      ],
      [
        "Ġt",
        "er"
      ],
      [
        "he",
        "s"
      ],
      [
        "Ġb",
        "an"
      ],
      [
        "Ġy",
        "e"
      ],
      [
        "Ġsle",
        "ep"
      ],
      [
        "Ġst",
        "r"
      ],
      [
        "Ġex",
        "ce"
      ],
      [
        "U",
        "M"
      ],
      [
        "ĠĠĠĠĠĠĠĠĠĠĠĠ",
        "ĠĠĠ"
      ],
      [
        "Ġansw",
        "er"
      ],
      [
        "d",
        "ay"
      ],
      [
        "o",
        "h"
      ],
      [
        "ard",
        "on"
      ],
      [
        "Ġ1",
        "6"
      ],
      [
        "Ġse",
        "nd"
      ],
      [
        "ANT",
        "ON"
      ],
      [
        "S",
        "hall"
      ],
      [
        "at",
        "t"
      ],
      [
        "ie",
        "ve"
      ],
      [
        "Ġmean",
        "s"
      ],
      [
        "Ġw",
        "ant"
      ],
      [
        "Ġh",
        "our"
      ],
      [
        "Ġth",
        "ings"
      ],
      [
        "ĠS",
        "UB"
      ],
      [
        "ha",
        "m"
      ],
      [
        "f",
        "ort"
      ],
      [
        "ĠB",
        "r"
      ],
      [
        "ci",
        "ous"
      ],
      [
        "Ġb",
        "ed"
      ],
      [
        "Ġv",
        "al"
      ],
      [
        "Ġne",
        "ar"
      ],
      [
        "Ġen",
        "ough"
      ],
      [
        "B",
        "E"
      ],
      [
        "n",
        "er"
      ],
      [
        "Ġe",
        "re"
      ],
      [
        "j",
        "ect"
      ],
      [
        "ĠII",
        "I"
      ],
      [
        "OL",
        "A"
      ],
      [
        "F",
        "l"
      ],
      [
        "G",
        "o"
      ],
      [
        "W",
        "ill"
      ],
      [
        "i",
        "z"
      ],
      [
        "Ġs",
        "il"
      ],
      [
        "en",
        "er"
      ],
      [
        "Ġnat",
        "ure"
      ],
      [
        "Ġthr",
        "ough"
      ],
      [
        "U",
        "pon"
      ],
      [
        "Ġs",
        "ound"
      ],
      [
        "Ġin",
        "st"
      ],
      [
        "M",
        "AR"
      ],
      [
        "Ġf",
        "ire"
      ],
      [
        "an",
        "s"
      ],
      [
        "Ġwor",
        "k"
      ],
      [
        "get",
        "her"
      ],
      [
        "Ġb",
        "us"
      ],
      [
        "er",
        "v"
      ],
      [
        "A",
        "P"
      ],
      [
        "H",
        "ave"
      ],
      [
        "u",
        "nd"
      ],
      [
        "Ġc",
        "a"
      ],
      [
        "ous",
        "in"
      ],
      [
        "Ġhon",
        "est"
      ],
      [
        "Ġhel",
        "p"
      ],
      [
        "A",
        "ST"
      ],
      [
        "Ġm",
        "istress"
      ],
      [
        "ĠCa",
        "esar"
      ],
      [
        "l",
        "s"
      ],
      [
        "w",
        "ith"
      ],
      [
        "Ġwe",
        "l"
      ],
      [
        "am",
        "b"
      ],
      [
        "Ġmad",
        "am"
      ],
      [
        "Ġarm",
        "s"
      ],
      [
        "Ġbre",
        "ak"
      ],
      [
        "A",
        "ll"
      ],
      [
        "r",
        "ink"
      ],
      [
        "o",
        "e"
      ],
      [
        "Ġ",
        "ill"
      ],
      [
        "Ġtr",
        "uth"
      ],
      [
        "Ġm",
        "aid"
      ],
      [
        "as",
        "h"
      ],
      [
        "Ġsha",
        "me"
      ],
      [
        "Ġpr",
        "ince"
      ],
      [
        "ain",
        "s"
      ],
      [
        "Ġfal",
        "se"
      ],
      [
        "e",
        "ed"
      ],
      [
        "Ġin",
        "t"
      ],
      [
        "B",
        "UR"
      ],
      [
        "k",
        "es"
      ],
      [
        "Ġc",
        "ar"
      ],
      [
        "st",
        "er"
      ],
      [
        "ĠS",
        "cene"
      ],
      [
        "Ġre",
        "ad"
      ],
      [
        "Ġspir",
        "it"
      ],
      [
        "H",
        "O"
      ],
      [
        "c",
        "ause"
      ],
      [
        "v",
        "y"
      ],
      [
        "ot",
        "t"
      ],
      [
        "ĊĠĠĠĠ",
        "ĠĠĠĠĠ"
      ],
      [
        "ho",
        "ld"
      ],
      [
        "che",
        "d"
      ],
      [
        "v",
        "ent"
      ],
      [
        "Ġs",
        "la"
      ],
      [
        "is",
        "ed"
      ],
      [
        "Ġg",
        "et"
      ],
      [
        "Ġnew",
        "s"
      ],
      [
        "for",
        "m"
      ],
      [
        "at",
        "s"
      ],
      [
        "F",
        "rom"
      ],
      [
        "u",
        "res"
      ],
      [
        "ĠEng",
        "land"
      ],
      [
        "oh",
        "n"
      ],
      [
        "n",
        "ed"
      ],
      [
        "ĠS",
        "p"
      ],
      [
        "e",
        "k"
      ],
      [
        "g",
        "s"
      ],
      [
        "ĠY",
        "our"
      ],
      [
        "EN",
        "RY"
      ],
      [
        "ond",
        "er"
      ],
      [
        "i",
        "al"
      ],
      [
        "ou",
        "ch"
      ],
      [
        "x",
        "t"
      ],
      [
        "L",
        "UC"
      ],
      [
        "Ġh",
        "ither"
      ],
      [
        "Ġsu",
        "n"
      ],
      [
        "d",
        "d"
      ],
      [
        "Ġa",
        "ct"
      ],
      [
        "ĠH",
        "ENRY"
      ],
      [
        "Ġstran",
        "ge"
      ],
      [
        "Ġl",
        "and"
      ],
      [
        "Ġse",
        "en"
      ],
      [
        "i",
        "or"
      ],
      [
        "Ġm",
        "urd"
      ],
      [
        "Ġf",
        "ight"
      ],
      [
        "Ġsu",
        "pp"
      ],
      [
        "Ġr",
        "ather"
      ],
      [
        ")",
        ","
      ],
      [
        "I",
        "Z"
      ],
      [
        "Ġp",
        "ati"
      ],
      [
        "AC",
        "T"
      ],
      [
        "O",
        "TH"
      ],
      [
        "R",
        "A"
      ],
      [
        "ĠN",
        "ay"
      ],
      [
        "id",
        "es"
      ],
      [
        "Y",
        "et"
      ],
      [
        "m",
        "er"
      ],
      [
        "ĠA",
        "l"
      ],
      [
        "Ġstr",
        "ong"
      ],
      [
        "N",
        "or"
      ],
      [
        "at",
        "ed"
      ],
      [
        "Ġg",
        "all"
      ],
      [
        "Ġof",
        "t"
      ],
      [
        "Ġre",
        "ason"
      ],
      [
        "or",
        "k"
      ],
      [
        "Ġhe",
        "ll"
      ],
      [
        "ren",
        "ce"
      ],
      [
        "l",
        "ish"
      ],
      [
        "us",
        "ic"
      ],
      [
        "Ġlo",
        "st"
      ],
      [
        "Ġv",
        "i"
      ],
      [
        "P",
        "R"
      ],
      [
        "ĠM",
        "aster"
      ],
      [
        "Ġdis",
        "p"
      ],
      [
        "T",
        "hy"
      ],
      [
        "is",
        "hed"
      ],
      [
        "ri",
        "ght"
      ],
      [
        "al",
        "th"
      ],
      [
        "Ġle",
        "ft"
      ],
      [
        "Ġyour",
        "self"
      ],
      [
        "Ġun",
        "c"
      ],
      [
        "i",
        "ke"
      ],
      [
        "Ġyou",
        "th"
      ],
      [
        "Ġk",
        "iss"
      ],
      [
        "ve",
        "re"
      ],
      [
        "aj",
        "esty"
      ],
      [
        "Ġwel",
        "come"
      ],
      [
        "RO",
        "M"
      ],
      [
        ",",
        "âĢĶ"
      ],
      [
        "Ġw",
        "ish"
      ],
      [
        "Ġd",
        "an"
      ],
      [
        "ĠW",
        "ell"
      ],
      [
        "ĠY",
        "es"
      ],
      [
        "Ġret",
        "urn"
      ],
      [
        ")",
        "."
      ],
      [
        "Ġl",
        "ay"
      ],
      [
        "Ġst",
        "ra"
      ],
      [
        "Ġt",
        "alk"
      ],
      [
        "ĠB",
        "y"
      ],
      [
        "Ġf",
        "ree"
      ],
      [
        "âĢ",
        "ĺ"
      ],
      [
        "ĠC",
        "h"
      ],
      [
        "ĠO",
        "f"
      ],
      [
        "Ġgo",
        "ds"
      ],
      [
        "Ġfort",
        "une"
      ],
      [
        "P",
        "E"
      ],
      [
        "OR",
        "T"
      ],
      [
        "A",
        "l"
      ],
      [
        "l",
        "ing"
      ],
      [
        "Ġf",
        "ly"
      ],
      [
        "Ġp",
        "al"
      ],
      [
        "Ġm",
        "et"
      ],
      [
        "Ġf",
        "ound"
      ],
      [
        "Ġm",
        "oney"
      ],
      [
        "Ġin",
        "f"
      ],
      [
        "ĠM",
        "OS"
      ],
      [
        "Ġne",
        "ed"
      ],
      [
        "Ġcomm",
        "and"
      ],
      [
        "er",
        "y"
      ],
      [
        "ĠS",
        "he"
      ],
      [
        "Ġsa",
        "w"
      ],
      [
        "HAM",
        "LET"
      ],
      [
        "y",
        "al"
      ],
      [
        "IN",
        "CE"
      ],
      [
        "Ġdou",
        "bt"
      ],
      [
        "O",
        "ur"
      ],
      [
        "Ġqu",
        "een"
      ],
      [
        "ĠA",
        "y"
      ],
      [
        "ĠJ",
        "ohn"
      ],
      [
        "S",
        "H"
      ],
      [
        "k",
        "en"
      ],
      [
        "Ġc",
        "ousin"
      ],
      [
        "ĠW",
        "hen"
      ],
      [
        "ĠV",
        "OL"
      ],
      [
        "ment",
        "s"
      ],
      [
        "U",
        "T"
      ],
      [
        "c",
        "o"
      ],
      [
        "w",
        "een"
      ],
      [
        "re",
        "w"
      ],
      [
        "Ġp",
        "rom"
      ],
      [
        "Ġgrie",
        "f"
      ],
      [
        "Ġw",
        "a"
      ],
      [
        "Ġcomm",
        "on"
      ],
      [
        "Ġj",
        "oy"
      ],
      [
        "Ġj",
        "ud"
      ],
      [
        "C",
        "O"
      ],
      [
        "Ġt",
        "ears"
      ],
      [
        "ĠW",
        "ill"
      ],
      [
        "ue",
        "en"
      ],
      [
        "Ġrem",
        "em"
      ],
      [
        "Ġs",
        "ho"
      ],
      [
        "Ġd",
        "ru"
      ],
      [
        "om",
        "en"
      ],
      [
        "ĠR",
        "o"
      ],
      [
        "ound",
        "s"
      ],
      [
        "Ġdra",
        "w"
      ],
      [
        "ou",
        "th"
      ],
      [
        "hi",
        "l"
      ],
      [
        "Ġen",
        "em"
      ],
      [
        "Ġs",
        "omet"
      ],
      [
        "Ġl",
        "ess"
      ],
      [
        "L",
        "Y"
      ],
      [
        "n",
        "ow"
      ],
      [
        "EL",
        "LO"
      ],
      [
        "Ġcount",
        "ry"
      ],
      [
        "b",
        "y"
      ],
      [
        "e",
        "c"
      ],
      [
        "n",
        "o"
      ],
      [
        "Ġde",
        "l"
      ],
      [
        "Ġd",
        "am"
      ],
      [
        "Ġto",
        "gether"
      ],
      [
        "Ġha",
        "lf"
      ],
      [
        "u",
        "c"
      ],
      [
        "Ġt",
        "em"
      ],
      [
        "Ġc",
        "ra"
      ],
      [
        "if",
        "t"
      ],
      [
        ",",
        "--"
      ],
      [
        "A",
        "TH"
      ],
      [
        "S",
        "cene"
      ],
      [
        "Ġc",
        "ry"
      ],
      [
        "Ġp",
        "ardon"
      ],
      [
        "Ġhar",
        "d"
      ],
      [
        "B",
        "ER"
      ],
      [
        "ren",
        "ch"
      ],
      [
        "Ġad",
        "v"
      ],
      [
        ".",
        "âĢĿ"
      ],
      [
        "ĠG",
        "o"
      ],
      [
        "ak",
        "ing"
      ],
      [
        "ran",
        "s"
      ],
      [
        "Ġpers",
        "on"
      ],
      [
        "f",
        "ord"
      ],
      [
        "Ġs",
        "ight"
      ],
      [
        "ĠS",
        "hall"
      ],
      [
        "ĠN",
        "or"
      ],
      [
        "Ġs",
        "ister"
      ],
      [
        "Ġse",
        "a"
      ],
      [
        "u",
        "es"
      ],
      [
        "Ġs",
        "k"
      ],
      [
        "Ġs",
        "ing"
      ],
      [
        "ot",
        "s"
      ],
      [
        "ĠH",
        "er"
      ],
      [
        "ran",
        "k"
      ],
      [
        "li",
        "ke"
      ],
      [
        "ĠQ",
        "ueen"
      ],
      [
        "Ġd",
        "ist"
      ],
      [
        "Ġto",
        "ld"
      ],
      [
        "ĠĠĠĠĠĠĠĠ",
        "Ġ"
      ],
      [
        "I",
        "G"
      ],
      [
        "Ġf",
        "ore"
      ],
      [
        "Ġde",
        "p"
      ],
      [
        "E",
        "X"
      ],
      [
        "Ġg",
        "ener"
      ],
      [
        "R",
        "e"
      ],
      [
        "Ġb",
        "orn"
      ],
      [
        "Ġpr",
        "ison"
      ],
      [
        "LOW",
        "N"
      ],
      [
        "Ġ",
        "U"
      ],
      [
        "Ġc",
        "ut"
      ],
      [
        "Ġp",
        "u"
      ],
      [
        "Ġfa",
        "re"
      ],
      [
        "har",
        "d"
      ],
      [
        "A",
        "n"
      ],
      [
        "Ġg",
        "row"
      ],
      [
        "al",
        "t"
      ],
      [
        "ER",
        "V"
      ],
      [
        "Ġs",
        "l"
      ],
      [
        "ĠB",
        "AR"
      ],
      [
        "ro",
        "ss"
      ],
      [
        "Ġpur",
        "p"
      ],
      [
        "Ġp",
        "ity"
      ],
      [
        "Ġso",
        "on"
      ],
      [
        "Ġsw",
        "ear"
      ],
      [
        "Ġs",
        "at"
      ],
      [
        "Ġw",
        "ilt"
      ],
      [
        "Ġl",
        "ate"
      ],
      [
        "ot",
        "e"
      ],
      [
        "Ġwe",
        "ar"
      ],
      [
        "Ġwe",
        "ep"
      ],
      [
        "d",
        "om"
      ],
      [
        "oo",
        "se"
      ],
      [
        "Ġb",
        "ro"
      ],
      [
        "Ġsay",
        "s"
      ],
      [
        "i",
        "ves"
      ],
      [
        "ic",
        "es"
      ],
      [
        "e",
        "ver"
      ],
      [
        "m",
        "ost"
      ],
      [
        "ond",
        "on"
      ],
      [
        "Ġal",
        "one"
      ],
      [
        "I",
        "ER"
      ],
      [
        "Ġsp",
        "o"
      ],
      [
        "A",
        "re"
      ],
      [
        "c",
        "a"
      ],
      [
        "Ġfa",
        "ult"
      ],
      [
        "Ġbl",
        "ess"
      ],
      [
        "B",
        "O"
      ],
      [
        "Ġs",
        "orrow"
      ],
      [
        "Ġyour",
        "s"
      ],
      [
        "Ġbea",
        "uty"
      ],
      [
        "Ġf",
        "oot"
      ],
      [
        "Ġd",
        "are"
      ],
      [
        "ĠI",
        "V"
      ],
      [
        "Ġbra",
        "ve"
      ],
      [
        "T",
        "R"
      ],
      [
        "Ġ",
        "ed"
      ],
      [
        "Ġa",
        "ir"
      ],
      [
        "in",
        "es"
      ],
      [
        "Ġw",
        "hile"
      ],
      [
        "Ġnot",
        "e"
      ],
      [
        "Ġcomp",
        "any"
      ],
      [
        "Ġl",
        "ear"
      ],
      [
        "Ġthought",
        "s"
      ],
      [
        "Ġserv",
        "ice"
      ],
      [
        "T",
        "w"
      ],
      [
        "Ġb",
        "ir"
      ],
      [
        "ĠH",
        "is"
      ],
      [
        "Ġmar",
        "k"
      ],
      [
        "i",
        "et"
      ],
      [
        "r",
        "ist"
      ],
      [
        "Ġc",
        "ertain"
      ],
      [
        "Ġp",
        "ar"
      ],
      [
        "Ġpr",
        "oud"
      ],
      [
        "Ġpro",
        "ve"
      ],
      [
        "p",
        "r"
      ],
      [
        "s",
        "hip"
      ],
      [
        "EL",
        "L"
      ],
      [
        "en",
        "ry"
      ],
      [
        "et",
        "er"
      ],
      [
        "gain",
        "st"
      ],
      [
        "ĠO",
        "h"
      ],
      [
        "I",
        "ON"
      ],
      [
        "b",
        "ed"
      ],
      [
        "Ġpo",
        "ss"
      ],
      [
        "Ġbus",
        "iness"
      ],
      [
        "Ġro",
        "om"
      ],
      [
        "ĠAN",
        "D"
      ],
      [
        "Ġkn",
        "ight"
      ],
      [
        "Ġbr",
        "ought"
      ],
      [
        "ĠTH",
        "E"
      ],
      [
        "a",
        "z"
      ],
      [
        "ĠL",
        "OR"
      ],
      [
        "Ġknow",
        "n"
      ],
      [
        "Ġgentle",
        "men"
      ],
      [
        "Ġa",
        "ff"
      ],
      [
        "Ġf",
        "it"
      ],
      [
        "Ġd",
        "en"
      ],
      [
        "Ġli",
        "ves"
      ],
      [
        "ĠF",
        "a"
      ],
      [
        "Ġwar",
        "rant"
      ],
      [
        "Ġbreat",
        "h"
      ],
      [
        "O",
        "P"
      ],
      [
        "Ġs",
        "in"
      ],
      [
        "it",
        "he"
      ],
      [
        "ign",
        "ior"
      ],
      [
        "Ġlook",
        "s"
      ],
      [
        "T",
        "E"
      ],
      [
        "Ġf",
        "ield"
      ],
      [
        "Ġin",
        "c"
      ],
      [
        "ĠE",
        "x"
      ],
      [
        "Ġat",
        "t"
      ],
      [
        "Ġat",
        "tend"
      ],
      [
        "Ġhat",
        "e"
      ],
      [
        "Ġg",
        "re"
      ],
      [
        "ĠThe",
        "y"
      ],
      [
        "U",
        "CH"
      ],
      [
        "k",
        "er"
      ],
      [
        "m",
        "ed"
      ],
      [
        "Ġd",
        "rink"
      ],
      [
        "ĠL",
        "ondon"
      ],
      [
        "Ġro",
        "yal"
      ],
      [
        "Ġle",
        "ad"
      ],
      [
        "Ġdes",
        "ire"
      ],
      [
        "ĠPr",
        "ince"
      ],
      [
        "a",
        "ff"
      ],
      [
        "u",
        "b"
      ],
      [
        "Ġg",
        "ave"
      ],
      [
        "Ġcom",
        "fort"
      ],
      [
        "Ġqu",
        "ick"
      ],
      [
        "Ġgi",
        "ven"
      ],
      [
        "c",
        "ha"
      ],
      [
        "Ġb",
        "ar"
      ],
      [
        "Ġy",
        "ears"
      ],
      [
        "Ġv",
        "o"
      ],
      [
        "Ġri",
        "ch"
      ],
      [
        "s",
        "o"
      ],
      [
        "Ġc",
        "ho"
      ],
      [
        "ĠY",
        "et"
      ],
      [
        "Ġt",
        "en"
      ],
      [
        "Ġs",
        "ick"
      ],
      [
        "Ġre",
        "ven"
      ],
      [
        "Ġpo",
        "int"
      ],
      [
        "Ġex",
        "p"
      ],
      [
        "PR",
        "INCE"
      ],
      [
        "i",
        "ble"
      ],
      [
        "Ġf",
        "ur"
      ],
      [
        "Ġc",
        "le"
      ],
      [
        "Ġc",
        "ast"
      ],
      [
        "Ġc",
        "ol"
      ],
      [
        "UN",
        "T"
      ],
      [
        "Ġchar",
        "ge"
      ],
      [
        "Ġ",
        "ve"
      ],
      [
        "ort",
        "une"
      ],
      [
        "m",
        "b"
      ],
      [
        "ĠF",
        "rench"
      ],
      [
        "Ġc",
        "ond"
      ],
      [
        "Ġb",
        "o"
      ],
      [
        "Ġb",
        "lack"
      ],
      [
        "ĠY",
        "ork"
      ],
      [
        "Ġday",
        "s"
      ],
      [
        "Ġm",
        "usic"
      ],
      [
        "Ġli",
        "es"
      ],
      [
        "Ġsu",
        "ff"
      ],
      [
        "ie",
        "f"
      ],
      [
        "AB",
        "AS"
      ],
      [
        "Ġbel",
        "ieve"
      ],
      [
        "ĠBAR",
        "ABAS"
      ],
      [
        "u",
        "p"
      ],
      [
        "Ġt",
        "imes"
      ],
      [
        "Ġhapp",
        "y"
      ],
      [
        "as",
        "ure"
      ],
      [
        "ie",
        "ce"
      ],
      [
        "ĠEd",
        "ward"
      ],
      [
        "D",
        "ER"
      ],
      [
        "Ġw",
        "in"
      ],
      [
        "ĠS",
        "ee"
      ],
      [
        "ver",
        "n"
      ],
      [
        "RI",
        "CHARD"
      ],
      [
        "RU",
        "TUS"
      ],
      [
        "lain",
        "e"
      ],
      [
        "S",
        "IR"
      ],
      [
        "Ġa",
        "ge"
      ],
      [
        "H",
        "ath"
      ],
      [
        "g",
        "g"
      ],
      [
        "it",
        "or"
      ],
      [
        "ĠW",
        "ar"
      ],
      [
        "IM",
        "ON"
      ],
      [
        "B",
        "RUTUS"
      ],
      [
        "re",
        "st"
      ],
      [
        "fe",
        "nd"
      ],
      [
        "Ġsee",
        "k"
      ],
      [
        "LE",
        "ON"
      ],
      [
        "ithe",
        "e"
      ],
      [
        "Ġs",
        "it"
      ],
      [
        "Ġs",
        "en"
      ],
      [
        "Ġc",
        "ity"
      ],
      [
        "ĠC",
        "OR"
      ],
      [
        "ic",
        "hard"
      ],
      [
        "G",
        "ER"
      ],
      [
        "o",
        "ple"
      ],
      [
        "in",
        "al"
      ],
      [
        "ĠR",
        "e"
      ],
      [
        "A",
        "t"
      ],
      [
        "Ġs",
        "ad"
      ],
      [
        "Ġde",
        "v"
      ],
      [
        "Ġdi",
        "v"
      ],
      [
        "Ġc",
        "or"
      ],
      [
        "am",
        "p"
      ],
      [
        "fe",
        "ction"
      ],
      [
        "Ġother",
        "s"
      ],
      [
        "O",
        "n"
      ],
      [
        "w",
        "ick"
      ],
      [
        "Ġa",
        "c"
      ],
      [
        "Ġo",
        "pen"
      ],
      [
        "ĠA",
        "ll"
      ],
      [
        "Ġa",
        "w"
      ],
      [
        "Ġf",
        "am"
      ],
      [
        "Ġf",
        "oul"
      ],
      [
        "Ġe",
        "ach"
      ],
      [
        "ri",
        "es"
      ],
      [
        "Ġtru",
        "st"
      ],
      [
        "Ġcou",
        "n"
      ],
      [
        "OTH",
        "ELLO"
      ],
      [
        "Ġco",
        "ld"
      ],
      [
        "Ġser",
        "ve"
      ],
      [
        "Ġm",
        "in"
      ],
      [
        "Ġb",
        "ase"
      ],
      [
        "Ġlo",
        "se"
      ],
      [
        "Ġfa",
        "v"
      ],
      [
        "IA",
        "GO"
      ],
      [
        "Y",
        "R"
      ],
      [
        "h",
        "ould"
      ],
      [
        "Ġw",
        "omen"
      ],
      [
        "ent",
        "y"
      ],
      [
        "ce",
        "pt"
      ],
      [
        "ĠH",
        "enry"
      ],
      [
        "ĠG",
        "ood"
      ],
      [
        "are",
        "well"
      ],
      [
        "M",
        "IST"
      ],
      [
        "Ġp",
        "ay"
      ],
      [
        "an",
        "e"
      ],
      [
        "ast",
        "e"
      ],
      [
        "I",
        "V"
      ],
      [
        "o",
        "or"
      ],
      [
        "ri",
        "d"
      ],
      [
        "Ġmar",
        "ry"
      ],
      [
        "IL",
        "IA"
      ],
      [
        "Ġwr",
        "it"
      ],
      [
        "Ġbet",
        "ween"
      ],
      [
        "Ġas",
        "k"
      ],
      [
        "Ġne",
        "xt"
      ],
      [
        "MIST",
        "RESS"
      ],
      [
        "C",
        "ASS"
      ],
      [
        "L",
        "AND"
      ],
      [
        "l",
        "o"
      ],
      [
        "Ġs",
        "ake"
      ],
      [
        "us",
        "h"
      ],
      [
        "Ġsu",
        "m"
      ],
      [
        "Ġknow",
        "s"
      ],
      [
        "ĠCh",
        "rist"
      ],
      [
        "N",
        "E"
      ],
      [
        "Ġgra",
        "ve"
      ],
      [
        "Ġpleas",
        "ure"
      ],
      [
        "C",
        "LOWN"
      ],
      [
        "it",
        "ed"
      ],
      [
        "Ġe",
        "at"
      ],
      [
        "Ġfor",
        "g"
      ],
      [
        "est",
        "ion"
      ],
      [
        "Ġthy",
        "self"
      ],
      [
        "ard",
        "s"
      ],
      [
        "E",
        "ven"
      ],
      [
        "P",
        "AR"
      ],
      [
        "ĠC",
        "l"
      ],
      [
        "AG",
        "E"
      ],
      [
        "Ġdre",
        "am"
      ],
      [
        "L",
        "od"
      ],
      [
        "Ġw",
        "ater"
      ],
      [
        "it",
        "ies"
      ],
      [
        "ĠB",
        "OS"
      ],
      [
        "Ġpro",
        "f"
      ],
      [
        "c",
        "ri"
      ],
      [
        "Ġw",
        "ise"
      ],
      [
        "Ġp",
        "ast"
      ],
      [
        "Ġit",
        "self"
      ],
      [
        "Ġcont",
        "ent"
      ],
      [
        "Ġworth",
        "y"
      ],
      [
        "Ġgr",
        "ound"
      ],
      [
        "D",
        "Y"
      ],
      [
        "D",
        "EM"
      ],
      [
        "Ġt",
        "a"
      ],
      [
        "Ġm",
        "orn"
      ],
      [
        "Ġo",
        "ath"
      ],
      [
        "Ġbe",
        "at"
      ],
      [
        "Ġdo",
        "g"
      ],
      [
        "ink",
        "s"
      ],
      [
        "Ġsa",
        "ve"
      ],
      [
        "ĠEng",
        "lish"
      ],
      [
        "Ġdan",
        "ger"
      ],
      [
        "D",
        "id"
      ],
      [
        "W",
        "ould"
      ],
      [
        "Ġb",
        "ook"
      ],
      [
        "IN",
        "D"
      ],
      [
        "US",
        "E"
      ],
      [
        "la",
        "im"
      ],
      [
        "os",
        "s"
      ],
      [
        "ĠAnt",
        "ony"
      ],
      [
        "Ġs",
        "ign"
      ],
      [
        "Ġunc",
        "le"
      ],
      [
        "P",
        "RO"
      ],
      [
        "t",
        "hat"
      ],
      [
        "Ġ",
        "est"
      ],
      [
        "Ġc",
        "r"
      ],
      [
        "Ġto",
        "wn"
      ],
      [
        "ĠF",
        "ER"
      ],
      [
        "ER",
        "S"
      ],
      [
        "Ġear",
        "s"
      ],
      [
        "Ġs",
        "ide"
      ],
      [
        "Ġf",
        "ea"
      ],
      [
        "Ġre",
        "qu"
      ],
      [
        "P",
        "O"
      ],
      [
        "p",
        "l"
      ],
      [
        "Ġf",
        "our"
      ],
      [
        "ĊĊ",
        "ĠĠĠĠĠĠĠĠĠ"
      ],
      [
        "et",
        "ch"
      ],
      [
        "Ġde",
        "ep"
      ],
      [
        "Ġblood",
        "y"
      ],
      [
        "ANTON",
        "Y"
      ],
      [
        "Ġgener",
        "al"
      ],
      [
        "G",
        "E"
      ],
      [
        "o",
        "int"
      ],
      [
        "ĠT",
        "ro"
      ],
      [
        "ĠF",
        "l"
      ],
      [
        "amb",
        "ur"
      ],
      [
        "Ġpurp",
        "ose"
      ],
      [
        "Ġf",
        "o"
      ],
      [
        "Ġex",
        "t"
      ],
      [
        "Ġfur",
        "ther"
      ],
      [
        "ambur",
        "laine"
      ],
      [
        "U",
        "n"
      ],
      [
        "c",
        "ess"
      ],
      [
        "i",
        "res"
      ],
      [
        "Ġ",
        "ord"
      ],
      [
        "er",
        "ve"
      ],
      [
        "Ġy",
        "ield"
      ],
      [
        "ur",
        "s"
      ],
      [
        "Ġlo",
        "ves"
      ],
      [
        "M",
        "at"
      ],
      [
        "re",
        "ady"
      ],
      [
        "ĠM",
        "ay"
      ],
      [
        "ĠR",
        "ichard"
      ],
      [
        "AM",
        "BUR"
      ],
      [
        "Fl",
        "am"
      ],
      [
        "D",
        "O"
      ],
      [
        "T",
        "ES"
      ],
      [
        "W",
        "ICK"
      ],
      [
        "ĠWar",
        "wick"
      ],
      [
        "Ġf",
        "ine"
      ],
      [
        "ra",
        "h"
      ],
      [
        "ES",
        "TER"
      ],
      [
        "ĠVOL",
        "P"
      ],
      [
        "Ġf",
        "ast"
      ],
      [
        "ck",
        "s"
      ],
      [
        "Ġpr",
        "in"
      ],
      [
        "Ġho",
        "ly"
      ],
      [
        "ces",
        "ter"
      ],
      [
        "C",
        "T"
      ],
      [
        "G",
        "ive"
      ],
      [
        "al",
        "s"
      ],
      [
        "ĠR",
        "I"
      ],
      [
        "Who",
        "se"
      ],
      [
        "Ġsold",
        "ier"
      ],
      [
        "ĠBOS",
        "OLA"
      ],
      [
        "i",
        "v"
      ],
      [
        "m",
        "orrow"
      ],
      [
        "Ġm",
        "outh"
      ],
      [
        "ed",
        "y"
      ],
      [
        "ĠT",
        "amburlaine"
      ],
      [
        "Ġsu",
        "it"
      ],
      [
        "LA",
        "INE"
      ],
      [
        "Ġpe",
        "ople"
      ],
      [
        "ha",
        "l"
      ],
      [
        "Ġre",
        "c"
      ],
      [
        "ĠC",
        "la"
      ],
      [
        "ĠG",
        "race"
      ],
      [
        "Ġpresent",
        "ly"
      ],
      [
        "AMBUR",
        "LAINE"
      ],
      [
        "W",
        "ARD"
      ],
      [
        "Y",
        "OR"
      ],
      [
        "c",
        "her"
      ],
      [
        "Ġk",
        "ings"
      ],
      [
        "Ġso",
        "vere"
      ],
      [
        "H",
        "ip"
      ],
      [
        "r",
        "on"
      ],
      [
        "Ġ",
        "âĢĺ"
      ],
      [
        "AN",
        "IO"
      ],
      [
        "Ġsh",
        "ort"
      ],
      [
        "T",
        "A"
      ],
      [
        "Ġ",
        "3"
      ],
      [
        "Ġw",
        "all"
      ],
      [
        "Ġre",
        "g"
      ],
      [
        "IN",
        "A"
      ],
      [
        "Ġkn",
        "ew"
      ],
      [
        "em",
        "pt"
      ],
      [
        "T",
        "ON"
      ],
      [
        "Ġt",
        "end"
      ],
      [
        "ll",
        "ent"
      ],
      [
        "es",
        "h"
      ],
      [
        "ra",
        "m"
      ],
      [
        "ru",
        "st"
      ],
      [
        "un",
        "es"
      ],
      [
        "Ġvirt",
        "ue"
      ],
      [
        "und",
        "red"
      ],
      [
        "Ġfare",
        "well"
      ],
      [
        "V",
        "OL"
      ],
      [
        "Ġw",
        "is"
      ],
      [
        "Ġb",
        "old"
      ],
      [
        "Ġha",
        "ir"
      ],
      [
        "Ġsc",
        "orn"
      ],
      [
        "Ġw",
        "onder"
      ],
      [
        "ad",
        "s"
      ],
      [
        "Ġst",
        "e"
      ],
      [
        "ag",
        "es"
      ],
      [
        "Ġchan",
        "ge"
      ],
      [
        "J",
        "UL"
      ],
      [
        "M",
        "EN"
      ],
      [
        "U",
        "D"
      ],
      [
        "st",
        "and"
      ],
      [
        "ĠL",
        "ORD"
      ],
      [
        "Ġwh",
        "ore"
      ],
      [
        "Ġbes",
        "eech"
      ],
      [
        "ĠRI",
        "CHARD"
      ],
      [
        "Ġc",
        "reat"
      ],
      [
        "Ġp",
        "en"
      ],
      [
        "Ġwho",
        "le"
      ],
      [
        "Ġca",
        "pt"
      ],
      [
        "e",
        "y"
      ],
      [
        "y",
        "ou"
      ],
      [
        "Ġne",
        "ither"
      ],
      [
        "Ġstra",
        "ight"
      ],
      [
        "p",
        "es"
      ],
      [
        "Ġ",
        "id"
      ],
      [
        "Ġw",
        "ret"
      ],
      [
        "on",
        "es"
      ],
      [
        "Ġc",
        "ap"
      ],
      [
        "ĠT",
        "AMBURLAINE"
      ],
      [
        "eth",
        "inks"
      ],
      [
        "f",
        "ter"
      ],
      [
        "u",
        "ous"
      ],
      [
        "th",
        "ing"
      ],
      [
        "IM",
        "O"
      ],
      [
        "Ġg",
        "ar"
      ],
      [
        "am",
        "es"
      ],
      [
        "Ġb",
        "urn"
      ],
      [
        "oo",
        "f"
      ],
      [
        "ĠC",
        "ass"
      ],
      [
        "Ġkn",
        "ave"
      ],
      [
        "Ġent",
        "er"
      ],
      [
        "G",
        "AR"
      ],
      [
        "P",
        "OL"
      ],
      [
        "Ġs",
        "ur"
      ],
      [
        "Ġh",
        "undred"
      ],
      [
        "Ġre",
        "ady"
      ],
      [
        "os",
        "ed"
      ],
      [
        "ENT",
        "LE"
      ],
      [
        "M",
        "ore"
      ],
      [
        "b",
        "ut"
      ],
      [
        "b",
        "ly"
      ],
      [
        "Ġsm",
        "all"
      ],
      [
        "Ġem",
        "b"
      ],
      [
        "Ġmurd",
        "er"
      ],
      [
        "ERV",
        "ANT"
      ],
      [
        "m",
        "on"
      ],
      [
        "Ġm",
        "ajesty"
      ],
      [
        "Ġb",
        "ound"
      ],
      [
        "ĠP",
        "er"
      ],
      [
        "ĠP",
        "ro"
      ],
      [
        "not",
        "her"
      ],
      [
        "Ġgra",
        "cious"
      ],
      [
        "Ġrep",
        "ort"
      ],
      [
        "Ġconf",
        "ess"
      ],
      [
        "B",
        "ell"
      ],
      [
        "_",
        "."
      ],
      [
        "s",
        "p"
      ],
      [
        "Ġm",
        "od"
      ],
      [
        "ad",
        "am"
      ],
      [
        "Ġgl",
        "ad"
      ],
      [
        "Ġres",
        "ol"
      ],
      [
        "Ġsub",
        "ject"
      ],
      [
        "J",
        "A"
      ],
      [
        "Ġwor",
        "se"
      ],
      [
        "Ġqu",
        "ar"
      ],
      [
        "Ġdes",
        "p"
      ],
      [
        "Ġremem",
        "ber"
      ],
      [
        "g",
        "ing"
      ],
      [
        "in",
        "ed"
      ],
      [
        "Ġcon",
        "qu"
      ],
      [
        "Ġgo",
        "es"
      ],
      [
        "ian",
        "s"
      ],
      [
        "Ġmer",
        "ry"
      ],
      [
        "S",
        "p"
      ],
      [
        "Ġt",
        "ouch"
      ],
      [
        "ĠW",
        "hich"
      ],
      [
        "ak",
        "en"
      ],
      [
        "Ġcour",
        "se"
      ],
      [
        "p",
        "he"
      ],
      [
        "Ġw",
        "alk"
      ],
      [
        "ow",
        "ers"
      ],
      [
        "im",
        "on"
      ],
      [
        "Ġde",
        "ed"
      ],
      [
        "ĠThe",
        "se"
      ],
      [
        "Th",
        "ough"
      ],
      [
        "Ġpu",
        "bl"
      ],
      [
        "Ġ",
        "&"
      ],
      [
        "Ġfor",
        "m"
      ],
      [
        "Ġkn",
        "e"
      ],
      [
        "Ġtw",
        "enty"
      ],
      [
        "Ġpati",
        "ence"
      ],
      [
        "ha",
        "d"
      ],
      [
        "ut",
        "us"
      ],
      [
        "ea",
        "re"
      ],
      [
        "row",
        "s"
      ],
      [
        "Ġpo",
        "ison"
      ],
      [
        "Ġheart",
        "s"
      ],
      [
        "Ġad",
        "d"
      ],
      [
        "ra",
        "c"
      ],
      [
        "ul",
        "ar"
      ],
      [
        "Ġpre",
        "t"
      ],
      [
        "C",
        "LE"
      ],
      [
        "g",
        "es"
      ],
      [
        "ir",
        "m"
      ],
      [
        "ĠS",
        "ignior"
      ],
      [
        "ri",
        "age"
      ],
      [
        "D",
        "ES"
      ],
      [
        "r",
        "ous"
      ],
      [
        "Ġe",
        "mp"
      ],
      [
        "Ġse",
        "lf"
      ],
      [
        "ust",
        "us"
      ],
      [
        "au",
        "ght"
      ],
      [
        "Ġapp",
        "ear"
      ],
      [
        "Ġcl",
        "ose"
      ],
      [
        "P",
        "ET"
      ],
      [
        "f",
        "ull"
      ],
      [
        "Ġh",
        "ot"
      ],
      [
        "ce",
        "ed"
      ],
      [
        "as",
        "k"
      ],
      [
        "Ġu",
        "nd"
      ],
      [
        "Ġr",
        "ing"
      ],
      [
        "ENT",
        "ER"
      ],
      [
        ",",
        "âĢĿ"
      ],
      [
        "S",
        "ome"
      ],
      [
        "T",
        "ill"
      ],
      [
        "Ġ",
        "Z"
      ],
      [
        "Ġs",
        "ons"
      ],
      [
        "Ġd",
        "ro"
      ],
      [
        "ess",
        "en"
      ],
      [
        "Ġv",
        "is"
      ],
      [
        "ic",
        "al"
      ],
      [
        "Ġcon",
        "st"
      ],
      [
        "CH",
        "IO"
      ],
      [
        "Ġqu",
        "estion"
      ],
      [
        "Ġsold",
        "iers"
      ],
      [
        "H",
        "er"
      ],
      [
        "W",
        "as"
      ],
      [
        "s",
        "ue"
      ],
      [
        "en",
        "ge"
      ],
      [
        "Ġal",
        "ready"
      ],
      [
        "E",
        "PH"
      ],
      [
        "G",
        "od"
      ],
      [
        "i",
        "ant"
      ],
      [
        "Ġl",
        "ab"
      ],
      [
        "ĠD",
        "e"
      ],
      [
        "Ġtoo",
        "k"
      ],
      [
        "Ġserv",
        "ant"
      ],
      [
        "Ġl",
        "augh"
      ],
      [
        "Ġy",
        "ear"
      ],
      [
        "an",
        "c"
      ],
      [
        "ir",
        "k"
      ],
      [
        "ur",
        "t"
      ],
      [
        "ĠG",
        "l"
      ],
      [
        "ĠN",
        "ot"
      ],
      [
        "Ġmer",
        "cy"
      ],
      [
        "C",
        "an"
      ],
      [
        "L",
        "ook"
      ],
      [
        "T",
        "IMON"
      ],
      [
        "g",
        "ry"
      ],
      [
        "Ġs",
        "im"
      ],
      [
        "Ġf",
        "etch"
      ],
      [
        "Ġbe",
        "hold"
      ],
      [
        "ir",
        "d"
      ],
      [
        "Ġdo",
        "or"
      ],
      [
        "Ġcan",
        "st"
      ],
      [
        "ation",
        "s"
      ],
      [
        "ix",
        "t"
      ],
      [
        "Ġjud",
        "ge"
      ],
      [
        "Ġre",
        "l"
      ],
      [
        "Ġmorn",
        "ing"
      ],
      [
        "H",
        "EL"
      ],
      [
        "L",
        "I"
      ],
      [
        "_",
        ","
      ],
      [
        "ou",
        "cester"
      ],
      [
        "Ġm",
        "ove"
      ],
      [
        "EN",
        "GER"
      ],
      [
        "Ġhast",
        "e"
      ],
      [
        "Ġsec",
        "ret"
      ],
      [
        "C",
        "and"
      ],
      [
        "m",
        "y"
      ],
      [
        "en",
        "ch"
      ],
      [
        "ESS",
        "ENGER"
      ],
      [
        "Ġent",
        "reat"
      ],
      [
        "Ġsec",
        "ond"
      ],
      [
        "Ġsovere",
        "ign"
      ],
      [
        "ENTLE",
        "MAN"
      ],
      [
        "w",
        "eet"
      ],
      [
        "Ġs",
        "hi"
      ],
      [
        "Ġc",
        "ow"
      ],
      [
        "ar",
        "ch"
      ],
      [
        "am",
        "ent"
      ],
      [
        "ĠH",
        "a"
      ],
      [
        "ea",
        "ch"
      ],
      [
        "Ġsp",
        "eech"
      ],
      [
        "Ġthem",
        "selves"
      ],
      [
        "AT",
        "RA"
      ],
      [
        "ĠEd",
        "w"
      ],
      [
        "att",
        "le"
      ],
      [
        "Ġsla",
        "ve"
      ],
      [
        "OP",
        "ATRA"
      ],
      [
        "Ġfav",
        "our"
      ],
      [
        "E",
        "O"
      ],
      [
        "S",
        "ee"
      ],
      [
        "Ġt",
        "it"
      ],
      [
        "Ġl",
        "ad"
      ],
      [
        "ve",
        "l"
      ],
      [
        "le",
        "x"
      ],
      [
        "IN",
        "IUS"
      ],
      [
        "ĠD",
        "UCH"
      ],
      [
        "um",
        "ber"
      ],
      [
        "ĠK",
        "ING"
      ],
      [
        "Ġfl",
        "esh"
      ],
      [
        "ĠDUCH",
        "ESS"
      ],
      [
        "n",
        "ight"
      ],
      [
        "Ġo",
        "pp"
      ],
      [
        "Ġp",
        "a"
      ],
      [
        "Ġto",
        "ward"
      ],
      [
        "Ġam",
        "ong"
      ],
      [
        "Ġfe",
        "el"
      ],
      [
        "C",
        "OR"
      ],
      [
        "L",
        "ike"
      ],
      [
        "g",
        "ar"
      ],
      [
        "Ġin",
        "ter"
      ],
      [
        "ut",
        "ion"
      ],
      [
        "ent",
        "er"
      ],
      [
        "ĠS",
        "YR"
      ],
      [
        "ĠM",
        "AR"
      ],
      [
        "EL",
        "LA"
      ],
      [
        "CLE",
        "OPATRA"
      ],
      [
        "a",
        "ith"
      ],
      [
        "y",
        "ing"
      ],
      [
        "oo",
        "p"
      ],
      [
        "Ġre",
        "d"
      ],
      [
        "Ġde",
        "f"
      ],
      [
        "ĠJ",
        "ew"
      ],
      [
        "IR",
        "D"
      ],
      [
        "ĠV",
        "I"
      ],
      [
        "IT",
        "IZ"
      ],
      [
        "AC",
        "USE"
      ],
      [
        "Ġmight",
        "y"
      ],
      [
        "ĠSYR",
        "ACUSE"
      ],
      [
        "ITIZ",
        "EN"
      ],
      [
        "W",
        "ere"
      ],
      [
        "n",
        "k"
      ],
      [
        "r",
        "s"
      ],
      [
        "w",
        "e"
      ],
      [
        "Ġf",
        "ash"
      ],
      [
        "ir",
        "c"
      ],
      [
        "OL",
        "K"
      ],
      [
        "ort",
        "al"
      ],
      [
        "B",
        "AST"
      ],
      [
        "o",
        "ly"
      ],
      [
        "Ġa",
        "g"
      ],
      [
        "Ġb",
        "ad"
      ],
      [
        "er",
        "n"
      ],
      [
        "Ġl",
        "ust"
      ],
      [
        "id",
        "d"
      ],
      [
        "Ġre",
        "ceive"
      ],
      [
        "ĠP",
        "al"
      ],
      [
        "ea",
        "ven"
      ],
      [
        "US",
        "TUS"
      ],
      [
        "AL",
        "IND"
      ],
      [
        "Ġex",
        "c"
      ],
      [
        "ROS",
        "ALIND"
      ],
      [
        "dd",
        "en"
      ],
      [
        "Ġpal",
        "ace"
      ],
      [
        "M",
        "ay"
      ],
      [
        "Ġa",
        "ction"
      ],
      [
        "Ġwor",
        "ship"
      ],
      [
        "Ġpre",
        "p"
      ],
      [
        "Ġenem",
        "y"
      ],
      [
        "YOR",
        "K"
      ],
      [
        "ĠM",
        "or"
      ],
      [
        "The",
        "se"
      ],
      [
        "GAR",
        "ET"
      ],
      [
        ",",
        "["
      ],
      [
        "b",
        "it"
      ],
      [
        "e",
        "f"
      ],
      [
        "u",
        "al"
      ],
      [
        "Ġw",
        "atch"
      ],
      [
        "Ġw",
        "ild"
      ],
      [
        "LA",
        "DY"
      ],
      [
        "Ġcall",
        "ed"
      ],
      [
        "ĠFa",
        "ustus"
      ],
      [
        "Ġfea",
        "st"
      ],
      [
        "M",
        "AC"
      ],
      [
        "O",
        "H"
      ],
      [
        "Y",
        "es"
      ],
      [
        "i",
        "ct"
      ],
      [
        "Ġt",
        "rans"
      ],
      [
        "ĠB",
        "ar"
      ],
      [
        "ol",
        "k"
      ],
      [
        "Ġsc",
        "ar"
      ],
      [
        "'",
        "t"
      ],
      [
        "h",
        "ood"
      ],
      [
        "Ġb",
        "os"
      ],
      [
        "Ġin",
        "d"
      ],
      [
        "AR",
        "WICK"
      ],
      [
        "ard",
        "inal"
      ],
      [
        "OR",
        "E"
      ],
      [
        "OL",
        "D"
      ],
      [
        "ĠFA",
        "USTUS"
      ],
      [
        "ĠIs",
        "ab"
      ],
      [
        "Ġf",
        "ill"
      ],
      [
        "Ġf",
        "ie"
      ],
      [
        "Ġl",
        "ow"
      ],
      [
        "ĠP",
        "ED"
      ],
      [
        "ĠL",
        "ady"
      ],
      [
        "EL",
        "IA"
      ],
      [
        "Ġmar",
        "ried"
      ],
      [
        "Ġapp",
        "ro"
      ],
      [
        "Ġtr",
        "ou"
      ],
      [
        "BE",
        "TH"
      ],
      [
        "ĠGl",
        "oucester"
      ],
      [
        "I",
        "TH"
      ],
      [
        "re",
        "nt"
      ],
      [
        "Ġc",
        "ru"
      ],
      [
        "le",
        "y"
      ],
      [
        "ra",
        "ch"
      ],
      [
        "ĠL",
        "e"
      ],
      [
        "Ġhea",
        "vy"
      ],
      [
        "OH",
        "N"
      ],
      [
        "re",
        "l"
      ],
      [
        "Ġbe",
        "cause"
      ],
      [
        "ent",
        "ly"
      ],
      [
        "Ġse",
        "ver"
      ],
      [
        "Ġus",
        "ed"
      ],
      [
        "Ġab",
        "s"
      ],
      [
        "Ġab",
        "ove"
      ],
      [
        "aint",
        "ed"
      ],
      [
        "Ġvo",
        "ice"
      ],
      [
        "H",
        "ER"
      ],
      [
        "O",
        "ne"
      ],
      [
        "c",
        "on"
      ],
      [
        "h",
        "is"
      ],
      [
        "Ġ",
        "~"
      ],
      [
        "Ġt",
        "y"
      ],
      [
        "Ġd",
        "ire"
      ],
      [
        "ĠT",
        "ur"
      ],
      [
        "ĠF",
        "ortune"
      ],
      [
        "ci",
        "ence"
      ],
      [
        "Ġlea",
        "st"
      ],
      [
        "Ġbos",
        "om"
      ],
      [
        "D",
        "IN"
      ],
      [
        "g",
        "y"
      ],
      [
        "en",
        "ed"
      ],
      [
        "ĊĊ",
        "ĊĠĠĠĠ"
      ],
      [
        "as",
        "c"
      ],
      [
        "Ġwe",
        "ak"
      ],
      [
        "Ġne",
        "eds"
      ],
      [
        "ĊĊĠĠ",
        "Ġ"
      ],
      [
        "Ġad",
        "m"
      ],
      [
        "Ġhar",
        "m"
      ],
      [
        "Ġspir",
        "its"
      ],
      [
        "D",
        "ON"
      ],
      [
        "n",
        "y"
      ],
      [
        "u",
        "de"
      ],
      [
        "Ġm",
        "ot"
      ],
      [
        "Ġu",
        "nt"
      ],
      [
        "ĠH",
        "el"
      ],
      [
        "Ġsp",
        "ort"
      ],
      [
        "Ġpl",
        "ain"
      ],
      [
        "Ġal",
        "most"
      ],
      [
        "ĠĠĠĠĠĠĠĠĠĠĠĠĠĠĠĠ",
        "ĠĠĠĠĠĠĠĠĠĠĠĠĠĠĠĠ"
      ],
      [
        "Ġstand",
        "s"
      ],
      [
        "Ġhum",
        "our"
      ],
      [
        "Ġstre",
        "ng"
      ],
      [
        "ĠRo",
        "om"
      ],
      [
        "on",
        "ight"
      ],
      [
        "Ġf",
        "ra"
      ],
      [
        "ĊĊ",
        "ĠĠĠĠĠĠĠĠĠĠĠĠĠĠĠ"
      ],
      [
        "ĠM",
        "istress"
      ],
      [
        "ĠO",
        "n"
      ],
      [
        "hil",
        "st"
      ],
      [
        "Ġsuff",
        "er"
      ],
      [
        "D",
        "uke"
      ],
      [
        "E",
        "W"
      ],
      [
        "R",
        "AT"
      ],
      [
        "Ġm",
        "ock"
      ],
      [
        "Ġf",
        "at"
      ],
      [
        "Ġo",
        "b"
      ],
      [
        "im",
        "er"
      ],
      [
        "ĠM",
        "AM"
      ],
      [
        "ĠP",
        "ar"
      ],
      [
        "AN",
        "US"
      ],
      [
        "Ġwh",
        "ite"
      ],
      [
        "DIN",
        "AND"
      ],
      [
        "m",
        "ber"
      ],
      [
        "re",
        "ad"
      ],
      [
        "Ġo",
        "cc"
      ],
      [
        "Ġp",
        "it"
      ],
      [
        "Ġha",
        "ving"
      ],
      [
        "ĠS",
        "c"
      ],
      [
        "ĠS",
        "erv"
      ],
      [
        "ĠO",
        "ld"
      ],
      [
        "ĠG",
        "ENTLEMAN"
      ],
      [
        "Ġoft",
        "en"
      ],
      [
        "r",
        "ate"
      ],
      [
        "Ġst",
        "ir"
      ],
      [
        "Ġra",
        "re"
      ],
      [
        "Ġres",
        "pect"
      ],
      [
        "P",
        "AND"
      ],
      [
        "Ġo",
        "bs"
      ],
      [
        "an",
        "g"
      ],
      [
        "Ġhe",
        "ir"
      ],
      [
        "al",
        "m"
      ],
      [
        "Ġst",
        "ru"
      ],
      [
        "ON",
        "A"
      ],
      [
        "Ġdid",
        "st"
      ],
      [
        "Ġpri",
        "de"
      ],
      [
        "ĠBe",
        "fore"
      ],
      [
        "Ġjust",
        "ice"
      ],
      [
        "Ġinst",
        "ru"
      ],
      [
        "HO",
        "ST"
      ],
      [
        "Ġsomet",
        "hing"
      ],
      [
        "Ġreven",
        "ge"
      ],
      [
        "Ġcoun",
        "sel"
      ],
      [
        "t",
        "ing"
      ],
      [
        "u",
        "ght"
      ],
      [
        "y",
        "re"
      ],
      [
        "Ġm",
        "ount"
      ],
      [
        "Ġbe",
        "ll"
      ],
      [
        "ĠC",
        "ITIZEN"
      ],
      [
        "um",
        "ph"
      ],
      [
        "Ġj",
        "est"
      ],
      [
        "There",
        "fore"
      ],
      [
        "Ġgu",
        "ard"
      ],
      [
        "Ġstri",
        "ke"
      ],
      [
        "Ġexce",
        "llent"
      ],
      [
        "Ġfash",
        "ion"
      ],
      [
        "!",
        "--"
      ],
      [
        "A",
        "U"
      ],
      [
        "I",
        "PH"
      ],
      [
        "is",
        "f"
      ],
      [
        "Ġc",
        "irc"
      ],
      [
        "Ġin",
        "s"
      ],
      [
        "Ġj",
        "ew"
      ],
      [
        "tw",
        "as"
      ],
      [
        "Ġbu",
        "y"
      ],
      [
        "Ġpra",
        "ise"
      ],
      [
        "V",
        "AL"
      ],
      [
        "Ġg",
        "ro"
      ],
      [
        "ĠA",
        "re"
      ],
      [
        "ĠA",
        "nother"
      ],
      [
        "Ġre",
        "f"
      ],
      [
        "And",
        "el"
      ],
      [
        "ES",
        "T"
      ],
      [
        "Ġcom",
        "ing"
      ],
      [
        "ĠR",
        "oman"
      ],
      [
        "ure",
        "d"
      ],
      [
        "ARD",
        "IN"
      ],
      [
        "H",
        "ad"
      ],
      [
        "W",
        "ARWICK"
      ],
      [
        "r",
        "ation"
      ],
      [
        "Ġs",
        "us"
      ],
      [
        "en",
        "ess"
      ],
      [
        "Ġd",
        "uty"
      ],
      [
        "ter",
        "s"
      ],
      [
        "ur",
        "ch"
      ],
      [
        "ĠM",
        "ort"
      ],
      [
        "ĠP",
        "age"
      ],
      [
        "Ġsu",
        "dden"
      ],
      [
        "hy",
        "s"
      ],
      [
        "Ġent",
        "ertain"
      ],
      [
        "ĠAt",
        "tend"
      ],
      [
        "ĠBr",
        "utus"
      ],
      [
        "l",
        "er"
      ],
      [
        "u",
        "ri"
      ],
      [
        "ar",
        "l"
      ],
      [
        "OL",
        "US"
      ],
      [
        "Ġpr",
        "ithee"
      ],
      [
        "ANT",
        "IPH"
      ],
      [
        "Ġhead",
        "s"
      ],
      [
        "Ġbeg",
        "in"
      ],
      [
        "Ġseem",
        "s"
      ],
      [
        "Ġtend",
        "er"
      ],
      [
        "ANTIPH",
        "OLUS"
      ],
      [
        "C",
        "om"
      ],
      [
        "Ġ",
        "--"
      ],
      [
        "Ġw",
        "oe"
      ],
      [
        "ro",
        "ke"
      ],
      [
        "per",
        "or"
      ],
      [
        "Ġwar",
        "s"
      ],
      [
        "Ġbre",
        "ast"
      ],
      [
        "Ġtra",
        "itor"
      ],
      [
        "Ġcur",
        "s"
      ],
      [
        "essen",
        "ger"
      ],
      [
        "v",
        "ol"
      ],
      [
        "z",
        "e"
      ],
      [
        "Ġm",
        "ist"
      ],
      [
        "Ġw",
        "ound"
      ],
      [
        "or",
        "th"
      ],
      [
        "Ġth",
        "ri"
      ],
      [
        "Ġmar",
        "riage"
      ],
      [
        "li",
        "ver"
      ],
      [
        "RI",
        "AR"
      ],
      [
        "C",
        "LA"
      ],
      [
        "E",
        "V"
      ],
      [
        "M",
        "ost"
      ],
      [
        "Ġt",
        "onight"
      ],
      [
        "Ġh",
        "ours"
      ],
      [
        "Ġfor",
        "ce"
      ],
      [
        "our",
        "ish"
      ],
      [
        "ĠB",
        "el"
      ],
      [
        "Ġsp",
        "eed"
      ],
      [
        "Ġchild",
        "ren"
      ],
      [
        "S",
        "U"
      ],
      [
        "f",
        "fect"
      ],
      [
        "Ġbe",
        "ast"
      ],
      [
        "ĠA",
        "b"
      ],
      [
        "Ġli",
        "ps"
      ],
      [
        "Ġlo",
        "ss"
      ],
      [
        "res",
        "h"
      ],
      [
        "Ġpart",
        "s"
      ],
      [
        "Ġter",
        "m"
      ],
      [
        "I",
        "B"
      ],
      [
        "Ġw",
        "oo"
      ],
      [
        "Ġb",
        "it"
      ],
      [
        "Ġc",
        "ross"
      ],
      [
        "Ġwe",
        "alth"
      ],
      [
        "Ġso",
        "ft"
      ],
      [
        "ĠL",
        "O"
      ],
      [
        "ANTON",
        "IO"
      ],
      [
        "Ġposs",
        "ess"
      ],
      [
        "I",
        "P"
      ],
      [
        "e",
        "em"
      ],
      [
        "Ġt",
        "or"
      ],
      [
        "Ġd",
        "ark"
      ],
      [
        "Ġbe",
        "come"
      ],
      [
        "Ġfor",
        "b"
      ],
      [
        "ie",
        "w"
      ],
      [
        "oth",
        "ing"
      ],
      [
        "AL",
        "L"
      ],
      [
        "EM",
        "ILIA"
      ],
      [
        "Ġpri",
        "v"
      ],
      [
        "Ġcons",
        "cience"
      ],
      [
        "Ġsen",
        "se"
      ],
      [
        "P",
        "ray"
      ],
      [
        "T",
        "IT"
      ],
      [
        "Ġ",
        "es"
      ],
      [
        "Ġb",
        "ow"
      ],
      [
        "Ġd",
        "ish"
      ],
      [
        "Ġl",
        "an"
      ],
      [
        "Ġh",
        "ide"
      ],
      [
        "Ġto",
        "morrow"
      ],
      [
        "Ġe",
        "ither"
      ],
      [
        "un",
        "ning"
      ],
      [
        "Ġsoul",
        "s"
      ],
      [
        "Ġval",
        "iant"
      ],
      [
        "Ġac",
        "qu"
      ],
      [
        "a",
        "ld"
      ],
      [
        "i",
        "b"
      ],
      [
        "Ġe",
        "as"
      ],
      [
        "AR",
        "US"
      ],
      [
        "ĠE",
        "D"
      ],
      [
        "Ġcon",
        "ce"
      ],
      [
        "ĠJ",
        "OHN"
      ],
      [
        "TH",
        "IRD"
      ],
      [
        "Ġpret",
        "ty"
      ],
      [
        "Ġstreng",
        "th"
      ],
      [
        "Ġs",
        "n"
      ],
      [
        "Ġg",
        "ot"
      ],
      [
        "Ġli",
        "ber"
      ],
      [
        "ĠC",
        "y"
      ],
      [
        "if",
        "y"
      ],
      [
        "Ġsw",
        "orn"
      ],
      [
        "um",
        "b"
      ],
      [
        "AB",
        "ELLA"
      ],
      [
        "RU",
        "CHIO"
      ],
      [
        "Ġsat",
        "isf"
      ],
      [
        "M",
        "ESSENGER"
      ],
      [
        "Ġhe",
        "alth"
      ],
      [
        "at",
        "ure"
      ],
      [
        "ra",
        "ct"
      ],
      [
        "Ġsha",
        "d"
      ],
      [
        "Ġletter",
        "s"
      ],
      [
        "C",
        "AL"
      ],
      [
        "S",
        "ay"
      ],
      [
        "s",
        "u"
      ],
      [
        "Ġ",
        "ver"
      ],
      [
        "he",
        "ad"
      ],
      [
        "Ġw",
        "ent"
      ],
      [
        "Ġf",
        "ing"
      ],
      [
        "Ġc",
        "ase"
      ],
      [
        "Ġp",
        "ol"
      ],
      [
        "Ġg",
        "rant"
      ],
      [
        "ĠS",
        "E"
      ],
      [
        "and",
        "er"
      ],
      [
        "ĠL",
        "ook"
      ],
      [
        "fe",
        "it"
      ],
      [
        "ID",
        "A"
      ],
      [
        "Ġlie",
        "ge"
      ],
      [
        "Ġvi",
        "ol"
      ],
      [
        "HEL",
        "EN"
      ],
      [
        "A",
        "r"
      ],
      [
        "h",
        "ind"
      ],
      [
        "s",
        "h"
      ],
      [
        "Ġd",
        "uke"
      ],
      [
        "Ġst",
        "eal"
      ],
      [
        "ea",
        "se"
      ],
      [
        "if",
        "ford"
      ],
      [
        "Ġro",
        "b"
      ],
      [
        "ĠAN",
        "TON"
      ],
      [
        ".",
        ","
      ],
      [
        "u",
        "nder"
      ],
      [
        "in",
        "c"
      ],
      [
        "Ġc",
        "red"
      ],
      [
        "EN",
        "IUS"
      ],
      [
        "itt",
        "ed"
      ],
      [
        "Or",
        "l"
      ],
      [
        "Ġfe",
        "ed"
      ],
      [
        "ĠMort",
        "imer"
      ],
      [
        "hys",
        "ic"
      ],
      [
        "N",
        "OR"
      ],
      [
        "p",
        "in"
      ],
      [
        "Ġt",
        "aken"
      ],
      [
        "Ġs",
        "lain"
      ],
      [
        "Ġm",
        "ir"
      ],
      [
        "Ġd",
        "ied"
      ],
      [
        "Ġe",
        "qu"
      ],
      [
        "ĠW",
        "ould"
      ],
      [
        "Ġgo",
        "vern"
      ],
      [
        "Ġtru",
        "mp"
      ],
      [
        "LO",
        "UC"
      ],
      [
        "Ġspeak",
        "s"
      ],
      [
        "Ġmar",
        "ch"
      ],
      [
        "Ġ1",
        "5"
      ],
      [
        "Ġdra",
        "m"
      ],
      [
        "ek",
        "ker"
      ],
      [
        "LOUC",
        "ESTER"
      ],
      [
        "T",
        "RO"
      ],
      [
        "Y",
        "M"
      ],
      [
        "Ġa",
        "uth"
      ],
      [
        "Ġm",
        "ed"
      ],
      [
        "Ġh",
        "orn"
      ],
      [
        "ĠP",
        "o"
      ],
      [
        "if",
        "fe"
      ],
      [
        "Ġgo",
        "d"
      ],
      [
        "ĠV",
        "en"
      ],
      [
        "Ġwit",
        "ness"
      ],
      [
        "Ġunder",
        "stand"
      ],
      [
        "Al",
        "as"
      ],
      [
        "DEM",
        "ONA"
      ],
      [
        "DES",
        "DEMONA"
      ],
      [
        "I",
        "OLA"
      ],
      [
        "S",
        "ince"
      ],
      [
        "T",
        "S"
      ],
      [
        "T",
        "ake"
      ],
      [
        "o",
        "in"
      ],
      [
        "Ġd",
        "u"
      ],
      [
        "Ġl",
        "im"
      ],
      [
        "se",
        "t"
      ],
      [
        "ĊĠĠĠĠ",
        "ĠĠ"
      ],
      [
        "th",
        "ough"
      ],
      [
        "Ġpro",
        "v"
      ],
      [
        "Ġking",
        "dom"
      ],
      [
        "Ġaf",
        "fection"
      ],
      [
        "ĠPr",
        "ay"
      ],
      [
        "Ġpra",
        "ct"
      ],
      [
        "MEN",
        "ENIUS"
      ],
      [
        "CLA",
        "UD"
      ],
      [
        "D",
        "ROM"
      ],
      [
        "H",
        "OR"
      ],
      [
        "I",
        "ll"
      ],
      [
        "z",
        "en"
      ],
      [
        "Ġf",
        "ig"
      ],
      [
        "it",
        "es"
      ],
      [
        "Ġc",
        "arry"
      ],
      [
        "Ġl",
        "ack"
      ],
      [
        "Ġof",
        "fend"
      ],
      [
        "ra",
        "w"
      ],
      [
        "us",
        "ed"
      ],
      [
        "il",
        "s"
      ],
      [
        "ast",
        "ers"
      ],
      [
        "qu",
        "e"
      ],
      [
        "hen",
        "s"
      ],
      [
        "Ġpres",
        "ence"
      ],
      [
        "eal",
        "ous"
      ],
      [
        "ROM",
        "EO"
      ],
      [
        "ĠED",
        "WARD"
      ],
      [
        "DROM",
        "IO"
      ],
      [
        "ou",
        "red"
      ],
      [
        "re",
        "m"
      ],
      [
        "ar",
        "ge"
      ],
      [
        "an",
        "cy"
      ],
      [
        "ow",
        "ed"
      ],
      [
        "pp",
        "ed"
      ],
      [
        "Ġchan",
        "ce"
      ],
      [
        "Ġ16",
        "0"
      ],
      [
        "Ġtit",
        "le"
      ],
      [
        "S",
        "hould"
      ],
      [
        "Ġl",
        "a"
      ],
      [
        "Ġp",
        "iece"
      ],
      [
        "le",
        "m"
      ],
      [
        "Ġe",
        "ffect"
      ],
      [
        "ur",
        "al"
      ],
      [
        "AN",
        "G"
      ],
      [
        "cc",
        "ess"
      ],
      [
        "Ġpass",
        "ion"
      ],
      [
        "Ġlords",
        "hip"
      ],
      [
        "ĠANTON",
        "IO"
      ],
      [
        "CLAUD",
        "IO"
      ],
      [
        "H",
        "a"
      ],
      [
        "b",
        "ury"
      ],
      [
        "re",
        "y"
      ],
      [
        "Ġb",
        "ri"
      ],
      [
        "Ġg",
        "ift"
      ],
      [
        "Ġst",
        "ud"
      ],
      [
        "id",
        "er"
      ],
      [
        "ur",
        "se"
      ],
      [
        "ĠC",
        "or"
      ],
      [
        "ĠC",
        "ast"
      ],
      [
        "AN",
        "CE"
      ],
      [
        "Ġpo",
        "et"
      ],
      [
        "Ġsa",
        "fe"
      ],
      [
        "Ġri",
        "d"
      ],
      [
        "Ġheaven",
        "s"
      ],
      [
        "D",
        "ICK"
      ],
      [
        "G",
        "U"
      ],
      [
        "G",
        "LOUCESTER"
      ],
      [
        "T",
        "O"
      ],
      [
[...]
